[PAD]	0
[UNK]	0
[SOS]	0
[EOS]	0
▁เ	-0
▁ก	-1
▁ส	-2
▁แ	-3
▁ค	-4
▁ท	-5
ี่	-6
อง	-7
▁ไ	-8
าร	-9
▁ม	-10
▁ใ	-11
่า	-12
▁อ	-13
▁ข	-14
ัน	-15
▁ร	-16
้า	-17
▁ที่	-18
ํา	-19
▁น	-20
▁จ	-21
▁ห	-22
ับ	-23
▁ต	-24
าก	-25
ด้	-26
าม	-27
ละ	-28
▁การ	-29
าย	-30
ื่	-31
▁ของ	-32
▁ป	-33
▁ด	-34
▁พ	-35
▁และ	-36
▁โ	-37
▁มี	-38
้อ	-39
▁ได้	-40
▁ใน	-41
่ง	-42
ือ	-43
้น	-44
ระ	-45
▁ช	-46
▁ผ	-47
ัง	-48
ม่	-49
▁ว	-50
ีย	-51
วาม	-52
็น	-53
▁บ	-54
▁ล	-55
▁เป	-56
้ง	-57
าน	-58
ุณ	-59
▁ไม่	-60
▁ความ	-61
ห้	-62
่าง	-63
ิน	-64
▁คุณ	-65
▁ฉ	-66
วย	-67
▁ซ	-68
▁ฉัน	-69
▁ย	-70
▁เป็น	-71
▁จาก	-72
่น	-73
ี้	-74
รับ	-75
▁เพ	-76
▁1	-77
▁อย	-78
▁ให้	-79
ื่อ	-80
อก	-81
ัก	-82
▁หน	-83
่อ	-84
ั้ง	-85
าง	-86
▁2	-87
่ะ	-88
▁จะ	-89
ิด	-90
ิต	-91
ัว	-92
▁ใช	-93
่ม	-94
▁สี	-95
▁เร	-96
คร	-97
▁ถ	-98
▁เล	-99
การ	-100
ร์	-101
้อง	-102
▁แต	-103
▁ค่ะ	-104
▁มัน	-105
อบ	-106
าด	-107
▁ทํา	-108
มา	-109
ภา	-110
สด	-111
่ว	-112
▁เห	-113
▁ดี	-114
▁แต่	-115
▁ประ	-116
▁กับ	-117
ื่อง	-118
▁เก	-119
ัด	-120
ด้วย	-121
ที่	-122
้ว	-123
▁ผล	-124
บบ	-125
ื้อ	-126
หน	-127
▁นี้	-128
ริ	-129
ู้	-130
วก	-131
อร์	-132
ติ	-133
อน	-134
▁ด้วย	-135
▁ใช้	-136
ั้น	-137
ตร	-138
้าน	-139
ุด	-140
าว	-141
▁สํา	-142
▁ว่า	-143
▁มา	-144
▁เข	-145
▁อย่าง	-146
▁ผลิต	-147
้ํา	-148
▁สาม	-149
▁เด	-150
▁หล	-151
▁มาก	-152
▁ไป	-153
ภาพ	-154
▁ระ	-155
▁อา	-156
ู่	-157
ึ่ง	-158
▁เส	-159
▁โด	-160
▁3	-161
สดง	-162
เท	-163
ี่ย	-164
▁เม	-165
ารถ	-166
▁แสดง	-167
ึ้น	-168
หรับ	-169
รือ	-170
ึง	-171
ค้า	-172
่าย	-173
▁กล	-174
▁สามารถ	-175
ิ่ง	-176
้าง	-177
▁ง	-178
รร	-179
ภั	-180
ว่า	-181
รง	-182
▁ๆ	-183
ื่น	-184
▁ช่	-185
่าน	-186
เห	-187
▁หรือ	-188
ุก	-189
▁หม	-190
▁กระ	-191
▁เว	-192
็บ	-193
ต์	-194
้อม	-195
▁ขน	-196
▁ก็	-197
▁โดย	-198
ลา	-199
▁แล	-200
ประ	-201
▁ดู	-202
ดี	-203
00	-204
จะ	-205
ินค้า	-206
▁เพื่อ	-207
ผล	-208
▁S	-209
ใจ	-210
▁สําหรับ	-211
ิ่ม	-212
ณฑ	-213
▁เท	-214
็ก	-215
รา	-216
ณฑ์	-217
ูก	-218
้อย	-219
▁สินค้า	-220
▁ขนาด	-221
▁น้ํา	-222
▁ปี	-223
ภัณฑ์	-224
แต	-225
▁ตัว	-226
▁หน้า	-227
▁นะ	-228
▁กัน	-229
เล	-230
▁แล้ว	-231
▁เคร	-232
กัน	-233
▁ผลิตภัณฑ์	-234
▁เน	-235
▁ต้อง	-236
เข	-237
ิว	-238
ส์	-239
▁บน	-240
ค่า	-241
▁เครื่อง	-242
▁ฟ	-243
ไซ	-244
▁เช	-245
จาก	-246
▁เอ	-247
ตัว	-248
▁อาจ	-249
อย	-250
▁ช่วย	-251
▁ผู้	-252
วม	-253
▁ตั้ง	-254
ือน	-255
▁ออก	-256
อด	-257
▁4	-258
▁รา	-259
▁P	-260
ไร	-261
ัญ	-262
้งาน	-263
่อน	-264
▁พร	-265
▁คะ	-266
ส่	-267
▁แบบ	-268
เป	-269
ตุ	-270
ึก	-271
▁ต่อ	-272
หม	-273
▁C	-274
ุ่น	-275
▁5	-276
ียง	-277
่วน	-278
▁เมื่อ	-279
ุ่ม	-280
▁x	-281
▁สิ่ง	-282
▁ทั้ง	-283
▁ยัง	-284
▁คร	-285
หล	-286
▁เลย	-287
▁พวก	-288
บาย	-289
าร์	-290
▁อยู่	-291
ียน	-292
▁เพิ่ม	-293
นี้	-294
ให้	-295
▁วัน	-296
er	-297
▁ทุก	-298
▁เรา	-299
สม	-300
ณ์	-301
ีก	-302
▁M	-303
ไป	-304
เก	-305
▁พร้อม	-306
งาน	-307
▁ซื้อ	-308
ขึ้น	-309
▁A	-310
ูง	-311
เค	-312
จอ	-313
▁อะ	-314
วน	-315
คะ	-316
▁หนัง	-317
ลง	-318
▁โอ	-319
▁เบ	-320
▁คน	-321
เร	-322
เต	-323
ั่น	-324
ื้น	-325
คา	-326
เว	-327
▁แต่ละ	-328
กับ	-329
กต	-330
▁วั	-331
▁ซึ่ง	-332
▁พิ	-333
้ม	-334
▁ด้าน	-335
▁หมาย	-336
รรม	-337
หญ	-338
เหตุ	-339
▁แน	-340
ั่ง	-341
▁หน้าจอ	-342
on	-343
▁อีก	-344
เทศ	-345
▁เว็บ	-346
▁เค	-347
▁ตอน	-348
ลัง	-349
ิจ	-350
▁25	-351
กร	-352
เด	-353
หา	-354
ไซต์	-355
▁เว็บไซต์	-356
▁อะไร	-357
หว	-358
▁ตาม	-359
กต่าง	-360
▁เธ	-361
▁รับ	-362
▁จํา	-363
เขา	-364
▁ทาง	-365
ใช	-366
▁ตั้งค่า	-367
▁นะคะ	-368
ยาย	-369
ความ	-370
▁ราคา	-371
▁แบ	-372
▁รอง	-373
▁เธอ	-374
ิก	-375
น์	-376
▁B	-377
มาะ	-378
▁เข้า	-379
▁แสดงผล	-380
▁พวกเขา	-381
ได้	-382
▁ง่าย	-383
▁หมายเหตุ	-384
▁คุณภาพ	-385
แตกต่าง	-386
▁ความแตกต่าง	-387
สือ	-388
▁ขึ้น	-389
▁เหมาะ	-390
▁อื่น	-391
สน	-392
สุด	-393
ธิ	-394
▁สูง	-395
▁ส่วน	-396
ด์	-397
▁ที่จะ	-398
หาร	-399
รก	-400
งิน	-401
ียบ	-402
▁กํา	-403
▁ร้อย	-404
▁ไว	-405
▁ถูก	-406
▁6	-407
in	-408
▁ได้รับ	-409
ุน	-410
▁รถ	-411
▁คือ	-412
▁ยาว	-413
อล	-414
ิง	-415
กล	-416
▁ร้อยละ	-417
▁L	-418
▁ผิว	-419
มพ	-420
ัฐ	-421
▁เย	-422
▁กร	-423
▁ผ้า	-424
ัส	-425
าท	-426
หญ่	-427
▁ทําให้	-428
ียว	-429
▁หนังสือ	-430
▁ใส่	-431
▁โอเค	-432
มาณ	-433
ดับ	-434
ักษ	-435
แบบ	-436
าะ	-437
▁ไซ	-438
เน	-439
▁เขา	-440
มือน	-441
ฐาน	-442
ั่ว	-443
ูป	-444
ุม	-445
▁ถึง	-446
▁T	-447
▁แข	-448
ัติ	-449
ใน	-450
▁อยาก	-451
▁สน	-452
▁D	-453
▁ภ	-454
▁วิ	-455
้อน	-456
▁เรื่อง	-457
ล์	-458
▁หลัง	-459
กว่า	-460
▁นิ	-461
ณะ	-462
▁บาง	-463
▁น่า	-464
ชา	-465
▁อั	-466
▁ต้องการ	-467
ี่ยม	-468
▁F	-469
▁ละ	-470
▁ฝ	-471
▁ใช้งาน	-472
▁ติด	-473
▁สะ	-474
▁ส่ง	-475
▁กว่า	-476
▁ปรับ	-477
▁เหล	-478
ราะ	-479
▁เนื้อ	-480
▁สบาย	-481
▁มั	-482
วด	-483
สดุ	-484
นั้น	-485
ือก	-486
้ย	-487
▁บริ	-488
▁วัสดุ	-489
▁พื้น	-490
▁ซม	-491
เย	-492
ัย	-493
▁แม	-494
▁8	-495
▁นั้น	-496
ต้อง	-497
แล	-498
▁ถ้า	-499
▁ไซส์	-500
ทร	-501
เม	-502
▁ฮ	-503
าศ	-504
ใช้งาน	-505
ัพ	-506
เส	-507
▁ลง	-508
หน้า	-509
เศ	-510
ูล	-511
▁เต	-512
ทน	-513
▁ภา	-514
▁ข้อ	-515
ย์	-516
้าย	-517
าล	-518
▁รู้	-519
▁สาย	-520
▁ราย	-521
ถึง	-522
ริง	-523
นด์	-524
▁หนึ่ง	-525
เช	-526
ิท	-527
่วง	-528
▁อัน	-529
▁อุ	-530
▁เจ	-531
▁ระบบ	-532
▁แค	-533
▁คว	-534
▁ประเทศ	-535
่อย	-536
▁ดํา	-537
▁เล่ม	-538
▁มั้ย	-539
▁7	-540
าส	-541
ัม	-542
an	-543
เท้า	-544
▁สวม	-545
ar	-546
▁ต่าง	-547
▁10	-548
▁ลด	-549
▁คํา	-550
▁ก่อน	-551
▁ไฟ	-552
ิ้น	-553
▁H	-554
▁ร้าน	-555
▁แก	-556
▁E	-557
▁ขอ	-558
ร้าง	-559
โน	-560
น้ํา	-561
▁รูป	-562
เวลา	-563
็ว	-564
▁ไว้	-565
▁ขยาย	-566
▁เกี่ย	-567
▁ธ	-568
วกับ	-569
▁แห	-570
▁สม	-571
่อง	-572
นวน	-573
หม่	-574
▁G	-575
▁แผ	-576
ืน	-577
ลี่ย	-578
▁เพราะ	-579
▁รวม	-580
▁อ่าน	-581
▁รุ่น	-582
▁จํานวน	-583
▁ปล	-584
▁จัด	-585
เบ	-586
▁นี่	-587
▁ลูก	-588
โล	-589
▁เพียง	-590
ใส่	-591
▁หลาย	-592
▁ใช่	-593
▁รอบ	-594
เตอร์	-595
▁เซ	-596
▁การใช้งาน	-597
▁สอง	-598
▁สวมใส่	-599
▁U	-600
▁R	-601
ดา	-602
▁ได้ดี	-603
ปร	-604
ุง	-605
le	-606
▁ดัง	-607
ท์	-608
▁9	-609
▁เช่น	-610
ีน	-611
ค์	-612
ทาน	-613
ัญหา	-614
▁20	-615
ิม	-616
▁เสื้อ	-617
จุ	-618
กรรม	-619
▁กําลัง	-620
ti	-621
ใหญ่	-622
ีว	-623
็ง	-624
▁งาน	-625
ิล	-626
สํา	-627
▁เกี่ยวกับ	-628
หมด	-629
▁ชอบ	-630
▁ขอบ	-631
▁รองเท้า	-632
รษ	-633
▁ตล	-634
ทาง	-635
▁นํา	-636
สะ	-637
้าม	-638
นา	-639
ือง	-640
▁N	-641
ากาศ	-642
อม	-643
▁ระดับ	-644
กิจ	-645
▁12	-646
▁หลังจาก	-647
▁พอ	-648
ายุ	-649
▁ช่อง	-650
คม	-651
▁ครั้ง	-652
▁ใหม่	-653
็ม	-654
▁ที่สุด	-655
หนัก	-656
▁ศ	-657
▁ชุด	-658
ชาติ	-659
▁เอา	-660
▁เงิน	-661
▁ภาย	-662
▁ใบ	-663
อย่าง	-664
เอ	-665
หร	-666
ER	-667
▁W	-668
่าว	-669
ียด	-670
▁ขยายตัว	-671
ติก	-672
▁หัว	-673
รนด์	-674
ต้	-675
มง	-676
▁คล	-677
▁นัก	-678
เศษ	-679
รษฐ	-680
al	-681
ไฟ	-682
▁โล	-683
ธี	-684
มาส	-685
▁คิด	-686
▁เหมือน	-687
▁แพ	-688
ลาส	-689
▁กว	-690
สง	-691
▁ดีไซ	-692
บัติ	-693
▁แบรนด์	-694
▁เลือก	-695
▁ดีไซน์	-696
นํา	-697
en	-698
เซ	-699
เป็น	-700
▁แผ่น	-701
ต่อ	-702
▁อุป	-703
ุ้ม	-704
▁ช่วง	-705
รษฐกิจ	-706
ิทธิ	-707
▁ทั้งหมด	-708
▁ไตร	-709
or	-710
▁เดือน	-711
แน	-712
มพ์	-713
▁กา	-714
▁สั่ง	-715
▁มาตร	-716
▁เกิด	-717
▁น้ําหนัก	-718
▁ภาพ	-719
ครั้ง	-720
เจ	-721
▁ข้อม	-722
▁เวลา	-723
▁ควร	-724
าที	-725
▁สุด	-726
▁กว้าง	-727
▁แป	-728
▁ปก	-729
▁เด็ก	-730
▁เล็ก	-731
ชน	-732
ลี่ยน	-733
▁O	-734
▁19	-735
▁น้อย	-736
ดวก	-737
โย	-738
▁ซัก	-739
▁วิธี	-740
▁นิ้ว	-741
หย	-742
▁100	-743
▁0	-744
▁เดียว	-745
▁I	-746
▁กระเป	-747
็ต	-748
▁กระเป๋	-749
▁อาหาร	-750
▁คอ	-751
it	-752
▁ทน	-753
▁เปิด	-754
▁สถ	-755
ผ้า	-756
ติม	-757
▁ข้อมูล	-758
▁ออกแบบ	-759
อาด	-760
▁ทั่ว	-761
วัน	-762
▁ความร	-763
▁ไตรมาส	-764
สึก	-765
es	-766
▁คา	-767
▁สวย	-768
ไต	-769
ูด	-770
▁ประมาณ	-771
▁แค่	-772
▁ผ่าน	-773
▁15	-774
หว่าง	-775
เยี่ยม	-776
▁255	-777
เงิน	-778
▁ยอด	-779
▁อายุ	-780
พิ	-781
▁ระหว่าง	-782
กรณ์	-783
เภ	-784
ูม	-785
▁จริง	-786
▁แรก	-787
▁เศ	-788
คล	-789
พาะ	-790
ะนํา	-791
ซ์	-792
▁หาก	-793
▁แรง	-794
▁เสียง	-795
▁นุ่ม	-796
เภท	-797
▁หรับ	-798
▁ทรง	-799
ืด	-800
▁ค่า	-801
ออก	-802
▁เหล่าน	-803
▁ประเภท	-804
สาร	-805
แรง	-806
▁บรร	-807
▁ตัด	-808
ฉพาะ	-809
กระ	-810
คน	-811
กา	-812
▁ไหม	-813
อร	-814
่วม	-815
▁อุปกรณ์	-816
▁บอก	-817
ําร	-818
ื่อน	-819
ประกัน	-820
็ค	-821
▁สะดวก	-822
ไตล์	-823
▁นอก	-824
▁ลาย	-825
▁สร้าง	-826
ชอบ	-827
▁กระเป๋า	-828
▁เพิ่มขึ้น	-829
▁จอง	-830
ชั่น	-831
ักษา	-832
วง	-833
ูมิ	-834
▁เริ่ม	-835
▁โปร	-836
▁ชิ้น	-837
ิป	-838
ow	-839
มาก	-840
▁เก็บ	-841
▁นาที	-842
เร็ว	-843
ภัย	-844
ห์	-845
▁โต	-846
อา	-847
ิ่น	-848
แต่	-849
▁โทร	-850
▁รัฐ	-851
▁เรียบ	-852
ผลิต	-853
การณ์	-854
ม้	-855
ลาสติก	-856
ตร์	-857
ประเทศ	-858
กอบ	-859
▁ตอนนี้	-860
สําหรับ	-861
▁เหมาะสําหรับ	-862
▁พบ	-863
้องกัน	-864
มือ	-865
at	-866
▁จึง	-867
ol	-868
▁พลาสติก	-869
▁จน	-870
▁ชื่น	-871
▁ชั้น	-872
ส่ง	-873
el	-874
▁เหล่านี้	-875
▁ดังนั้น	-876
▁มือ	-877
ตั้ง	-878
▁ลดลง	-879
▁หลาก	-880
▁มากกว่า	-881
สิทธิ	-882
▁สา	-883
ปัญหา	-884
▁คุ้ม	-885
▁ซี	-886
สะอาด	-887
▁เคล	-888
▁K	-889
วั	-890
▁ชื่นชอบ	-891
▁ปริ	-892
▁นาน	-893
▁เอก	-894
▁แขน	-895
▁อิน	-896
คุณ	-897
ยว	-898
▁เศรษฐกิจ	-899
▁30	-900
▁แท	-901
▁ปิด	-902
คัญ	-903
▁คาด	-904
▁ยอดเยี่ยม	-905
หลาย	-906
ฟ้า	-907
▁เชื่อ	-908
▁เกิน	-909
▁ลํา	-910
▁ชน	-911
▁สถาน	-912
ยน	-913
▁ที	-914
▁แข็ง	-915
▁ทําความ	-916
▁เดิน	-917
อยู่	-918
▁เห็น	-919
▁สัม	-920
▁ขาว	-921
▁เบา	-922
▁เนื่อง	-923
ทย	-924
ริม	-925
▁แห่ง	-926
ทํา	-927
as	-928
▁ทํางาน	-929
ic	-930
▁เท่า	-931
▁สาร	-932
▁ตก	-933
▁โคร	-934
่ํา	-935
ro	-936
▁พิเศษ	-937
ดาษ	-938
ุค	-939
▁เคย	-940
▁ไหน	-941
▁เปลี่ยน	-942
▁เขียน	-943
ผัส	-944
ิส	-945
อากาศ	-946
▁ที่น	-947
เอียด	-948
▁พิมพ์	-949
ษา	-950
▁รู้สึก	-951
เพ	-952
▁ํา	-953
re	-954
แข	-955
am	-956
▁เล่น	-957
▁ดูแล	-958
ีด	-959
็จ	-960
▁กระดาษ	-961
▁ภายใน	-962
ญา	-963
สมบัติ	-964
ต้องการ	-965
▁ขอบคุณ	-966
วจ	-967
็อ	-968
▁คุณสมบัติ	-969
▁อย่างไร	-970
▁แย	-971
ที	-972
▁ชาร์	-973
▁คุณภาพดี	-974
▁จีน	-975
▁โรง	-976
▁ฟัง	-977
เหมือน	-978
▁เบอร์	-979
หรัฐ	-980
▁โร	-981
็ด	-982
▁ป้องกัน	-983
ณะที่	-984
สอง	-985
▁กลับ	-986
เหล	-987
▁ดูเหมือน	-988
ูร	-989
▁วันที่	-990
▁เทค	-991
▁อัตร	-992
▁โครง	-993
▁หลากหลาย	-994
▁ภาค	-995
ใช้	-996
▁ปริมาณ	-997
▁ทําความสะอาด	-998
▁ลิ	-999
ส่วน	-1000
▁ตลอด	-1001
▁รอ	-1002
▁ตา	-1003
▁เนื่องจาก	-1004
▁สัมผัส	-1005
▁ใหญ่	-1006
▁สนุก	-1007
▁US	-1008
▁สหรัฐ	-1009
ac	-1010
▁ทัน	-1011
▁มม	-1012
▁เส้น	-1013
ียม	-1014
▁ข้าง	-1015
▁18	-1016
▁แฟ	-1017
AN	-1018
ทุน	-1019
รักษา	-1020
▁ไร	-1021
ยะ	-1022
จํา	-1023
ยี	-1024
โนโล	-1025
โนโลยี	-1026
ือบ	-1027
้าว	-1028
▁รองรับ	-1029
AR	-1030
ON	-1031
▁เทคโนโลยี	-1032
▁หา	-1033
มัน	-1034
▁แน่น	-1035
▁กาง	-1036
▁ตร	-1037
หวัง	-1038
ot	-1039
วัง	-1040
คง	-1041
▁11	-1042
▁หนา	-1043
tion	-1044
เกง	-1045
▁กล่าว	-1046
▁ถาด	-1047
ัต	-1048
ุข	-1049
▁อื่นๆ	-1050
▁ดอล	-1051
๊ะ	-1052
ing	-1053
▁ผิด	-1054
▁ชาร์จ	-1055
▁กล่อง	-1056
▁ความส	-1057
▁มาตรฐาน	-1058
▁บ้าน	-1059
ซ่า	-1060
ัพท์	-1061
▁เหมาะกับ	-1062
000	-1063
▁กลิ่น	-1064
▁ชนิด	-1065
▁นอกจาก	-1066
▁ล้าน	-1067
▁กางเกง	-1068
▁คุ้มค่า	-1069
▁สด	-1070
▁โดยเ	-1071
ิบ	-1072
▁ทนทาน	-1073
สิทธิภาพ	-1074
หลัง	-1075
ศัพท์	-1076
▁ญ	-1077
หมาย	-1078
เขียน	-1079
บัน	-1080
ีวิต	-1081
▁พิซ	-1082
▁พศ	-1083
▁ดอลล	-1084
▁เต็ม	-1085
ุท	-1086
▁พลัง	-1087
▁มีปัญหา	-1088
▁ทั่วไป	-1089
▁ห้อง	-1090
▁พร้อมกับ	-1091
เติม	-1092
▁มอง	-1093
EN	-1094
▁ไอ	-1095
▁วาง	-1096
▁เย็น	-1097
ยา	-1098
▁สําคัญ	-1099
▁พิซซ่า	-1100
ันธ	-1101
อกาส	-1102
▁จุด	-1103
▁หลัก	-1104
▁m	-1105
▁สู	-1106
▁24	-1107
▁ออ	-1108
▁แบต	-1109
▁วัต	-1110
▁เร็ว	-1111
▁เสีย	-1112
▁แต่ง	-1113
งาม	-1114
▁รอย	-1115
▁หน่อย	-1116
▁ประกอบ	-1117
▁16	-1118
▁มากขึ้น	-1119
▁คศ	-1120
ัฒ	-1121
▁เสริม	-1122
▁บรรจุ	-1123
▁โมง	-1124
▁อง	-1125
▁ไล	-1126
อะ	-1127
สร้าง	-1128
▁ในข	-1129
แด	-1130
▁พูด	-1131
▁พระ	-1132
่วย	-1133
เล็ก	-1134
▁นาย	-1135
▁เพิ่มเติม	-1136
▁ความต้องการ	-1137
▁ลอง	-1138
▁นับ	-1139
ัท	-1140
▁มอบ	-1141
▁เชื่อม	-1142
หนึ่ง	-1143
▁ตรง	-1144
is	-1145
อรี่	-1146
▁แห้ง	-1147
พา	-1148
▁มิ	-1149
▁ดีมาก	-1150
▁คง	-1151
สอบ	-1152
อาหาร	-1153
▁X	-1154
IN	-1155
▁ใคร	-1156
มี	-1157
▁แนว	-1158
▁กลาง	-1159
▁เหมาะสม	-1160
▁ชื่อ	-1161
จริง	-1162
ลาย	-1163
▁เนื้อผ้า	-1164
om	-1165
▁ทุ่ม	-1166
ไม่	-1167
▁ปาก	-1168
▁คืน	-1169
▁เรีย	-1170
▁นา	-1171
ธรรม	-1172
▁ร่วม	-1173
าการ	-1174
▁ครึ่ง	-1175
▁14	-1176
่าร	-1177
▁V	-1178
หัส	-1179
▁ผม	-1180
แรก	-1181
▁ยาง	-1182
▁เยี่ยม	-1183
ชาย	-1184
วล	-1185
▁แบตเต	-1186
กาย	-1187
ower	-1188
หญิง	-1189
▁การผลิต	-1190
▁50	-1191
▁ในขณะที่	-1192
▁คาที่	-1193
ุ่ง	-1194
▁โดยเฉพาะ	-1195
รี	-1196
▁เกม	-1197
สา	-1198
คิด	-1199
▁รับประกัน	-1200
▁อาจจะ	-1201
▁แบตเตอรี่	-1202
กลาง	-1203
ec	-1204
ทํางาน	-1205
▁โลก	-1206
▁ตรวจ	-1207
ิตร	-1208
รอ	-1209
เรียน	-1210
ปุ่น	-1211
▁การป	-1212
▁c	-1213
▁ตะ	-1214
▁หย	-1215
ณา	-1216
▁โทรศัพท์	-1217
ราบ	-1218
▁โอกาส	-1219
▁ญี่	-1220
▁รี	-1221
ว์	-1222
ก็ต	-1223
ก็ตาม	-1224
ตา	-1225
เรื่อง	-1226
▁ไร้	-1227
▁ริ	-1228
อดภัย	-1229
บค	-1230
▁ญี่ปุ่น	-1231
▁ปั	-1232
▁เกิดขึ้น	-1233
▁ยู	-1234
ต้น	-1235
▁พื้นที่	-1236
ิ้ง	-1237
▁โต๊ะ	-1238
▁ใด	-1239
▁ตั้งแต่	-1240
▁ดีกว่า	-1241
▁13	-1242
▁หู	-1243
เคร	-1244
▁สต	-1245
▁ธรรม	-1246
▁ชั่ว	-1247
il	-1248
bu	-1249
▁แม้	-1250
ักร	-1251
▁ดอลลาร์	-1252
าสตร์	-1253
ลอง	-1254
▁อ่อน	-1255
▁ดาว	-1256
▁รวด	-1257
▁ความร้อน	-1258
เดีย	-1259
▁กิจ	-1260
แต่ง	-1261
ใต้	-1262
▁เอกสาร	-1263
▁รวดเร็ว	-1264
หนัง	-1265
อื่น	-1266
มาย	-1267
▁แสง	-1268
▁ดูแลรักษา	-1269
▁มากมาย	-1270
ณี	-1271
▁เพื่อให้	-1272
เอง	-1273
ยายาม	-1274
▁เหตุ	-1275
ีม	-1276
ูน	-1277
▁สไตล์	-1278
▁กระจ	-1279
ชับ	-1280
▁กี่	-1281
เห็น	-1282
▁มาจาก	-1283
▁จับ	-1284
▁แทน	-1285
กํา	-1286
ter	-1287
▁กอง	-1288
▁อัตรา	-1289
ฟ์	-1290
ข้าง	-1291
▁ตั	-1292
▁อ่ะ	-1293
▁ห้าม	-1294
ed	-1295
▁แอ	-1296
บคุม	-1297
ลอ	-1298
▁ระยะ	-1299
สนใจ	-1300
แฟ	-1301
▁มีประ	-1302
▁ปัญหา	-1303
▁แพ็ค	-1304
▁น่าร	-1305
▁ต่ํา	-1306
โมง	-1307
AL	-1308
▁ความทน	-1309
▁ความทนทาน	-1310
▁อย่างไรก็ตาม	-1311
▁ขา	-1312
นอก	-1313
et	-1314
แนะนํา	-1315
ิร์	-1316
▁ครับ	-1317
แก	-1318
้ว่า	-1319
ยืด	-1320
▁รูปแบบ	-1321
▁รายการ	-1322
ุล	-1323
โร	-1324
▁มล	-1325
▁จ่าย	-1326
▁แข็งแรง	-1327
▁กลุ่ม	-1328
▁201	-1329
us	-1330
▁J	-1331
▁สง	-1332
▁เอส	-1333
▁พี่	-1334
▁ค่อน	-1335
▁บริการ	-1336
▁รหัส	-1337
บาล	-1338
นิ	-1339
id	-1340
บูร	-1341
▁ความช	-1342
ของ	-1343
ัญญา	-1344
▁ต่างๆ	-1345
บูรณ์	-1346
เนื่อง	-1347
▁ไทย	-1348
▁เมือง	-1349
กล้	-1350
▁ถน	-1351
๋ว	-1352
ไม้	-1353
▁โค	-1354
เมริ	-1355
▁เพลง	-1356
▁ยาก	-1357
▁เรียก	-1358
▁ได้มา	-1359
▁ฐาน	-1360
▁หมึก	-1361
ชน์	-1362
โก	-1363
โยชน์	-1364
▁แนะนํา	-1365
▁ชั่วโมง	-1366
▁Power	-1367
วกัน	-1368
▁เดินทาง	-1369
buy	-1370
ษัท	-1371
เฟ	-1372
ปล	-1373
▁รัก	-1374
สัน	-1375
▁เท่าน	-1376
▁เชื่อมต่อ	-1377
น้อย	-1378
ัตร	-1379
ัฒนา	-1380
▁แม่	-1381
▁บริษัท	-1382
▁ระบาย	-1383
ก์	-1384
แล้ว	-1385
▁ปัจ	-1386
▁รส	-1387
▁พก	-1388
▁ค่อนข้าง	-1389
รวม	-1390
▁35	-1391
ลงทุน	-1392
▁ไม่ต้อง	-1393
▁อยากได้	-1394
▁สมบูรณ์	-1395
เวณ	-1396
▁กิจกรรม	-1397
็กซ์	-1398
▁แน่	-1399
ัล	-1400
สี	-1401
▁คู่	-1402
▁ลา	-1403
▁เฉ	-1404
▁สูงสุด	-1405
▁แถ	-1406
▁บริเวณ	-1407
ตรี	-1408
▁แตก	-1409
ก็	-1410
▁อย่า	-1411
ที่จะ	-1412
▁บอ	-1413
▁โน	-1414
▁สภาพ	-1415
▁17	-1416
ับสน	-1417
▁โดน	-1418
บุ	-1419
▁ใกล้	-1420
▁ได้ที่	-1421
จัด	-1422
▁นั่น	-1423
ะลอ	-1424
หยุ่น	-1425
▁กล้อง	-1426
คาร	-1427
▁เจ้า	-1428
ื่อนไ	-1429
ภูมิ	-1430
▁ต่อเนื่อง	-1431
▁ด้าม	-1432
ขา	-1433
ี้ย	-1434
▁สวยงาม	-1435
▁เทียบ	-1436
▁โซ	-1437
▁อี	-1438
ดู	-1439
โด	-1440
ที่ยว	-1441
ใส	-1442
▁ส่วนใหญ่	-1443
▁น่ารัก	-1444
▁จริงๆ	-1445
▁ยังคง	-1446
▁เป็นการ	-1447
▁ตอบ	-1448
▁21	-1449
สมัย	-1450
▁เคลือบ	-1451
▁ไม	-1452
▁ติดตั้ง	-1453
เก็บ	-1454
เด่น	-1455
▁บาท	-1456
เล่น	-1457
พร	-1458
▁นอกจากนี้	-1459
▁ฤ	-1460
มน	-1461
คว	-1462
วัสด	-1463
▁สั้น	-1464
▁คําแนะนํา	-1465
▁พลังงาน	-1466
ร็จ	-1467
▁เกินไป	-1468
▁ออกมา	-1469
▁เอง	-1470
▁ลี	-1471
▁งั้น	-1472
▁ชะลอ	-1473
เซีย	-1474
▁ครอบ	-1475
ส่งออก	-1476
ri	-1477
ถือ	-1478
▁แน่นอน	-1479
ou	-1480
ึด	-1481
ัป	-1482
AS	-1483
▁ยิ่ง	-1484
▁แล้วก็	-1485
▁22	-1486
▁ไลฟ์	-1487
▁เท่านั้น	-1488
▁ขณะ	-1489
▁โดด	-1490
โป	-1491
▁ปร	-1492
สาห	-1493
▁โพ	-1494
▁200	-1495
เรือ	-1496
ุต	-1497
ยนต์	-1498
▁40	-1499
▁ปุ่ม	-1500
▁บท	-1501
สไตล์	-1502
จ่าย	-1503
ื่ม	-1504
▁แม้ว่า	-1505
▁ไลฟ์สไตล์	-1506
ขว	-1507
ฤษ	-1508
▁ผสม	-1509
▁พยายาม	-1510
ละคร	-1511
▁Powerbuy	-1512
▁ผู้หญิง	-1513
60	-1514
▁โฟ	-1515
โอ	-1516
ลม	-1517
▁เล็กน้อย	-1518
oo	-1519
▁กาแฟ	-1520
สูง	-1521
▁เหน	-1522
▁พกพา	-1523
ad	-1524
ผ่าน	-1525
▁ตกแต่ง	-1526
▁โดดเด่น	-1527
สาหกรรม	-1528
▁ดีขึ้น	-1529
ฏิ	-1530
▁สวัสด	-1531
รู้	-1532
OR	-1533
เกิด	-1534
▁เกา	-1535
นาน	-1536
เจน	-1537
ละเอียด	-1538
▁ตั๋ว	-1539
▁ตัวละคร	-1540
▁ชัด	-1541
นัก	-1542
ES	-1543
ตรฐาน	-1544
▁ยก	-1545
ซื้อ	-1546
▁ขาย	-1547
▁นม	-1548
▁นคะ	-1549
▁ก่อ	-1550
▁p	-1551
▁ในประเทศ	-1552
ิค	-1553
แข็ง	-1554
▁สวัสดี	-1555
▁ครีม	-1556
▁วันนี้	-1557
▁ฮะ	-1558
▁พอดี	-1559
▁สก	-1560
สบ	-1561
▁ข้อความ	-1562
▁สดใส	-1563
▁เหล็ก	-1564
▁สัง	-1565
▁พล	-1566
หนด	-1567
▁ได้มาตรฐาน	-1568
▁ลึก	-1569
▁สัก	-1570
▁กระชับ	-1571
▁รายละเอียด	-1572
▁ใช้ได้	-1573
▁ใช้เวลา	-1574
ตาม	-1575
▁หมด	-1576
ํารุง	-1577
▁สหรัฐฯ	-1578
▁วัตต์	-1579
หลี	-1580
▁แน่ใจ	-1581
เคล	-1582
ข่าย	-1583
ศาสตร์	-1584
▁การส่งออก	-1585
▁น้ํามัน	-1586
ับสนุน	-1587
ราว	-1588
▁23	-1589
แท	-1590
▁ความจุ	-1591
IT	-1592
ยิ่ง	-1593
▁เกาหลี	-1594
แกร	-1595
ุทธิ	-1596
ะเล	-1597
▁ไฟฟ้า	-1598
ั่นใจ	-1599
โพ	-1600
▁จอ	-1601
▁i	-1602
้อป	-1603
ทั้ง	-1604
▁s	-1605
ยม	-1606
▁เนียน	-1607
▁เติม	-1608
บริ	-1609
▁อีกครั้ง	-1610
ไหน	-1611
▁_	-1612
ุณห	-1613
▁เฉพาะ	-1614
ครัว	-1615
ิศ	-1616
▁ปกป	-1617
▁ภาษา	-1618
▁มอ	-1619
คืน	-1620
▁การส	-1621
▁สาขา	-1622
▁ไห	-1623
ไล	-1624
▁เดีย	-1625
▁มีความ	-1626
▁USB	-1627
ุณหภูมิ	-1628
▁ช้อป	-1629
บน	-1630
▁บํารุง	-1631
โน้ม	-1632
▁น่าสนใจ	-1633
กระท	-1634
▁เปล	-1635
▁การรับ	-1636
▁แก่	-1637
▁บุ	-1638
เลือก	-1639
▁ชา	-1640
▁ผิดหวัง	-1641
เมริกา	-1642
่งข	-1643
างใจ	-1644
้วางใจ	-1645
▁เท้า	-1646
AT	-1647
หยัด	-1648
▁อุณหภูมิ	-1649
▁แก้ว	-1650
▁ไม้	-1651
▁คนอื่น	-1652
▁หวัง	-1653
▁เช่นกัน	-1654
บิน	-1655
▁ละเอียด	-1656
▁ลําลอง	-1657
โลก	-1658
▁ยืด	-1659
RI	-1660
▁ฝา	-1661
▁รัฐบาล	-1662
▁การทํางาน	-1663
วี	-1664
▁อู	-1665
▁ว่าง	-1666
▁ยึด	-1667
▁เพื่อน	-1668
▁ประหยัด	-1669
▁ลุค	-1670
▁เดียวกัน	-1671
ig	-1672
▁การลงทุน	-1673
เหน	-1674
▁ตรวจสอบ	-1675
กําลัง	-1676
▁ที่มา	-1677
▁ขนาดใหญ่	-1678
▁ลิตร	-1679
▁สนับสนุน	-1680
เชื่อ	-1681
ภาค	-1682
▁ใส	-1683
ชี	-1684
▁การรับประกัน	-1685
▁45	-1686
▁ไว้วางใจ	-1687
เสีย	-1688
ไฟฟ้า	-1689
▁อิ	-1690
สงค์	-1691
▁ต้น	-1692
ra	-1693
▁น่าจะ	-1694
▁ปากกา	-1695
▁32	-1696
▁โดนใจ	-1697
ลักษ	-1698
เสียง	-1699
▁ดูดี	-1700
▁ดูเหมือนว่า	-1701
พิเศษ	-1702
▁เรื่องราว	-1703
▁สูตร	-1704
ันธ์	-1705
▁ความเร็ว	-1706
▁ลัง	-1707
มพู	-1708
▁มูล	-1709
▁ทั้งสอง	-1710
▁ตลาด	-1711
▁ความคิด	-1712
▁ปกติ	-1713
▁ร้อน	-1714
▁ที่ไหน	-1715
▁สีสัน	-1716
พล	-1717
▁สร	-1718
เข้า	-1719
▁ถุง	-1720
▁ยังมี	-1721
▁ตู้	-1722
▁เปอร์	-1723
▁กิน	-1724
สิน	-1725
▁โก	-1726
▁ลื่น	-1727
ฟัง	-1728
เที่ยว	-1729
he	-1730
▁ภูมิ	-1731
โนม	-1732
▁ค้น	-1733
▁ได	-1734
เช่า	-1735
สต์	-1736
▁แท้	-1737
▁หน่วย	-1738
่งขัน	-1739
▁เง	-1740
▁อากาศ	-1741
▁ทุกคน	-1742
็อก	-1743
▁ควบคุม	-1744
▁กรอง	-1745
โนมัติ	-1746
▁ทันสมัย	-1747
▁ประกอบด้วย	-1748
ตก	-1749
ชื่น	-1750
▁ขั้น	-1751
ึกษา	-1752
AC	-1753
ma	-1754
นุ	-1755
เอก	-1756
้าร	-1757
๊ก	-1758
เพล	-1759
▁SP	-1760
ันท	-1761
▁ซิป	-1762
▁เหรอ	-1763
เนิน	-1764
้ะ	-1765
เหนือ	-1766
▁ชาย	-1767
▁ที่สอง	-1768
▁ถ่าย	-1769
หอม	-1770
▁ฝุ่น	-1771
▁เอว	-1772
▁จ้ะ	-1773
▁ปลาย	-1774
ว่าง	-1775
ดาห์	-1776
▁โปรด	-1777
▁สัน	-1778
▁หร	-1779
▁ธรรมชาติ	-1780
ัปดาห์	-1781
ลักษณ์	-1782
▁กรณี	-1783
กล่าว	-1784
▁แด	-1785
▁ชัดเจน	-1786
os	-1787
▁ชาว	-1788
จับ	-1789
ื่อนไหว	-1790
▁แก้	-1791
▁ชีวิต	-1792
▁กก	-1793
ทัพ	-1794
▁รวมถึง	-1795
▁บางอย่าง	-1796
สาว	-1797
RO	-1798
ชัด	-1799
ทษ	-1800
ราช	-1801
ผิด	-1802
▁สห	-1803
▁ดอก	-1804
สรร	-1805
แทก	-1806
▁ถูกต้อง	-1807
▁St	-1808
▁ดําเนิน	-1809
▁ถือ	-1810
▁ฟอก	-1811
รม	-1812
ี่ยง	-1813
▁ประสิทธิภาพ	-1814
▁ขนาดเล็ก	-1815
ยนตร์	-1816
หร่	-1817
▁๎	-1818
IC	-1819
ศา	-1820
▁ความน	-1821
ch	-1822
ชีวิต	-1823
▁เฟ	-1824
▁หูฟัง	-1825
▁สุข	-1826
▁กําหนด	-1827
▁โจ	-1828
▁วิธีการ	-1829
▁บาร์	-1830
and	-1831
ไหร่	-1832
▁แยก	-1833
▁ปลอดภัย	-1834
▁ที่นี่	-1835
▁ก็ได้	-1836
▁ด้านใน	-1837
เจ้า	-1838
▁ออน	-1839
▁ระบุ	-1840
▁เกาะ	-1841
พิมพ์	-1842
▁ยาวนาน	-1843
ธิบาย	-1844
ท้าย	-1845
▁รู	-1846
ED	-1847
▁เคส	-1848
▁กันน้ํา	-1849
▁ระบายอากาศ	-1850
▁ที่อยู่	-1851
▁ถนน	-1852
บั	-1853
ขวัญ	-1854
ไม	-1855
▁ขาด	-1856
▁เพศ	-1857
▁ยุ	-1858
▁จนถึง	-1859
▁อัต	-1860
▁ถอด	-1861
▁ซับ	-1862
▁จัดเก็บ	-1863
บก	-1864
▁ขับ	-1865
ษตร	-1866
สบาย	-1867
▁ล้าง	-1868
ูนย์	-1869
ายน	-1870
▁ํ	-1871
สาย	-1872
วะ	-1873
▁ดูด	-1874
▁เฮ	-1875
▁ลวด	-1876
ีย์	-1877
▁ต่างกัน	-1878
▁ฟังก์	-1879
็อค	-1880
▁วิ่ง	-1881
▁ล่ะ	-1882
▁มองหา	-1883
▁แจ	-1884
▁นัด	-1885
ิวเตอร์	-1886
▁คอมพ	-1887
ัตว์	-1888
25	-1889
โยบาย	-1890
▁การ์	-1891
▁ประสบ	-1892
ธาร	-1893
▁เอ็กซ์	-1894
▁ใช้กับ	-1895
▁นโยบาย	-1896
▁บ้าง	-1897
▁มุม	-1898
▁ล่า	-1899
อนด์	-1900
จักร	-1901
ir	-1902
โทษ	-1903
เรา	-1904
▁80	-1905
ี๋	-1906
▁ชะลอตัว	-1907
▁ทุกอย่าง	-1908
▁กด	-1909
ร้อย	-1910
▁เครื่องด	-1911
▁ใต้	-1912
เปลี่ยน	-1913
▁สนาม	-1914
▁ทันที	-1915
▁สัปดาห์	-1916
▁บี	-1917
▁คม	-1918
่องเที่ยว	-1919
▁โม	-1920
▁เพล	-1921
▁ออกจาก	-1922
▁60	-1923
▁คริ	-1924
เมือง	-1925
โต	-1926
▁ต่อไป	-1927
▁เป็นเรื่อง	-1928
20	-1929
ผสม	-1930
▁ดังกล่าว	-1931
▁มีด	-1932
▁รวมทั้ง	-1933
▁เผ	-1934
อร์ต	-1935
▁เจอ	-1936
หนังสือ	-1937
▁แช	-1938
ัญญาณ	-1939
um	-1940
ีวิว	-1941
▁การพ	-1942
▁ตาข่าย	-1943
▁ตุ	-1944
ฏิบัติ	-1945
▁รีวิว	-1946
▁มะ	-1947
▁กองทัพ	-1948
▁ฟ้า	-1949
▁สี่	-1950
▁ผู้ใหญ่	-1951
▁อุต	-1952
▁อัตโนมัติ	-1953
แห	-1954
เศรษฐกิจ	-1955
▁เดี๋	-1956
ดัน	-1957
ent	-1958
▁พวกเรา	-1959
▁สมบูรณ์แบบ	-1960
แลนด์	-1961
รด	-1962
▁ด้านหน้า	-1963
าะห์	-1964
สุทธิ	-1965
▁28	-1966
หาย	-1967
▁ปรับตัว	-1968
▁ทางการ	-1969
เคราะห์	-1970
▁กี	-1971
ไข	-1972
un	-1973
▁มูลค่า	-1974
▁31	-1975
▁ลักษ	-1976
▁ตัวเอง	-1977
▁มั่นใจ	-1978
สาน	-1979
▁ผู	-1980
แทน	-1981
IL	-1982
▁อุตสาหกรรม	-1983
▁แอล	-1984
▁อัป	-1985
รอง	-1986
▁เดี๋ยว	-1987
ut	-1988
▁เข้าไป	-1989
▁น่ะ	-1990
็อป	-1991
▁ภาพยนตร์	-1992
▁ฮ่า	-1993
๎อย	-1994
บอล	-1995
▁ของขวัญ	-1996
▁ฤด	-1997
▁มาถึง	-1998
แกรม	-1999
▁ด้านบน	-2000
ลิม	-2001
เย็น	-2002
เลส	-2003
▁ลักษณะ	-2004
สุข	-2005
เสน	-2006
ul	-2007
▁ทําไม	-2008
▁โปรแกรม	-2009
▁วิน	-2010
▁ไหล	-2011
สินค้า	-2012
▁เขียว	-2013
▁ปกป้อง	-2014
ขาย	-2015
ังก	-2016
▁องศา	-2017
▁ก่อนหน้า	-2018
วรร	-2019
ผิว	-2020
▁ส่วนผสม	-2021
▁ครั้งแรก	-2022
▁d	-2023
▁คอมพิวเตอร์	-2024
▁แนะ	-2025
zon	-2026
ton	-2027
▁องค์	-2028
▁หรือไม่	-2029
่อม	-2030
▁สิ	-2031
▁จา	-2032
▁In	-2033
รัก	-2034
▁นั่ง	-2035
▁พัน	-2036
ิกา	-2037
▁เพิ่ง	-2038
▁จัดการ	-2039
▁บัตร	-2040
ฬา	-2041
▁254	-2042
ืม	-2043
แพ	-2044
▁เข้ม	-2045
อลเล	-2046
▁หยุด	-2047
มั่น	-2048
แจ	-2049
ประสงค์	-2050
ใด	-2051
แสดง	-2052
▁เดิม	-2053
นาม	-2054
▁ให้การ	-2055
▁ความรู้	-2056
แนว	-2057
▁34	-2058
▁ด้านหลัง	-2059
ST	-2060
▁มีประสิทธิภาพ	-2061
▁ตามที่	-2062
แดง	-2063
ฬิกา	-2064
▁เข้าใจ	-2065
ภค	-2066
▁กรัม	-2067
▁เป็นไป	-2068
ุรก	-2069
▁ซา	-2070
▁เรียน	-2071
ยืดหยุ่น	-2072
▁ความยืดหยุ่น	-2073
ประโยชน์	-2074
▁แย่	-2075
รถ	-2076
จุบัน	-2077
50	-2078
การใช้งาน	-2079
แป	-2080
▁อายุการใช้งาน	-2081
ัข	-2082
นเลส	-2083
▁กิ	-2084
ขาว	-2085
▁เมตร	-2086
ปี	-2087
▁ยา	-2088
ระดับ	-2089
ลึก	-2090
▁ดับ	-2091
▁26	-2092
▁ml	-2093
▁เป็นที่	-2094
เราะ	-2095
▁27	-2096
▁ที่นั่ง	-2097
▁256	-2098
ประกอบ	-2099
ไง	-2100
อเมริกา	-2101
นาการ	-2102
▁สาธาร	-2103
▁ติ	-2104
แข่งขัน	-2105
▁ยืน	-2106
▁สถานที่	-2107
ประมาณ	-2108
▁สุขภาพ	-2109
▁เกษตร	-2110
โรป	-2111
▁วง	-2112
10	-2113
ใหม่	-2114
▁เสร็จ	-2115
▁ตํา	-2116
▁เก่า	-2117
▁เรียบร้อย	-2118
▁จําเป็น	-2119
▁สุน	-2120
▁กรอบ	-2121
▁สิง	-2122
ังกฤษ	-2123
EL	-2124
EC	-2125
▁ฟรี	-2126
▁ปัจจุบัน	-2127
▁ฟอง	-2128
▁ฝึก	-2129
▁ทิ้ง	-2130
▁f	-2131
▁รายงาน	-2132
▁ดิน	-2133
ท่องเที่ยว	-2134
▁ตน	-2135
ครอง	-2136
▁ลูกค้า	-2137
▁โช	-2138
▁คลาส	-2139
เย็บ	-2140
▁มีแนว	-2141
▁มีแนวโน้ม	-2142
ุ่งนี้	-2143
▁ทร	-2144
สาม	-2145
▁โดยรวม	-2146
พาย	-2147
ection	-2148
▁เริ่มต้น	-2149
▁โบ	-2150
od	-2151
▁เข้ากับ	-2152
one	-2153
▁29	-2154
ET	-2155
ิฟ	-2156
▁ปั่น	-2157
▁ร๎อย	-2158
▁ทีม	-2159
เสนอ	-2160
เกิน	-2161
▁นาฬิกา	-2162
▁โครงการ	-2163
โม	-2164
▁ธุรก	-2165
ทัด	-2166
ช์	-2167
▁สุนัข	-2168
ซี	-2169
นู	-2170
ก่อน	-2171
▁รถยนต์	-2172
▁สิน	-2173
ไลน์	-2174
▁ตัดเย็บ	-2175
pp	-2176
ge	-2177
▁นึง	-2178
▁ทราบ	-2179
▁ทาน	-2180
เรือน	-2181
ขน	-2182
▁มัก	-2183
▁สหรัฐอเมริกา	-2184
▁มีความสุข	-2185
แปลง	-2186
▁ขอโทษ	-2187
ทรง	-2188
▁กระแทก	-2189
ดุล	-2190
นักงาน	-2191
▁กระด	-2192
▁สนใจ	-2193
▁สมา	-2194
▁ฟุต	-2195
ell	-2196
ันทึก	-2197
รัฐ	-2198
▁บันทึก	-2199
em	-2200
▁คลิก	-2201
ขีด	-2202
▁สะดวกสบาย	-2203
▁จากนั้น	-2204
▁สตาร์	-2205
แค	-2206
ผ่านมา	-2207
▁ที่ผ่านมา	-2208
ยิน	-2209
▁นี	-2210
บ้าน	-2211
คราม	-2212
▁ความชุ่ม	-2213
โภค	-2214
▁ดวง	-2215
ีบ	-2216
ตรง	-2217
▁Bl	-2218
▁กุ	-2219
▁ผู้ชาย	-2220
art	-2221
▁กะ	-2222
เดิน	-2223
ดิน	-2224
▁ทอง	-2225
▁การประ	-2226
▁การแข่งขัน	-2227
▁ดึง	-2228
▁ตะวัน	-2229
โปรง	-2230
im	-2231
▁เรือ	-2232
▁ข้าว	-2233
วัติ	-2234
▁ขอให้	-2235
▁หนัก	-2236
▁แก้ไข	-2237
▁ซิ	-2238
▁ค้นหา	-2239
เชีย	-2240
ดาย	-2241
▁หัวเราะ	-2242
▁ควรจะ	-2243
▁อบ	-2244
▁สีน้ํา	-2245
▁ง่ายดาย	-2246
ิ้	-2247
tic	-2248
▁เสียบ	-2249
▁ท่า	-2250
30	-2251
▁สเป	-2252
▁อัล	-2253
oly	-2254
▁55	-2255
▁ณ	-2256
▁หมุน	-2257
ีส	-2258
กระทบ	-2259
▁น้ํายา	-2260
▁แผน	-2261
▁ทา	-2262
▁นิว	-2263
ตู	-2264
ังวล	-2265
AM	-2266
สิ่ง	-2267
▁เหตุการณ์	-2268
▁ตัวเลือก	-2269
▁สู่	-2270
▁กลับมา	-2271
ทะ	-2272
▁เหลือ	-2273
▁ยิ่งขึ้น	-2274
▁ทด	-2275
▁อิส	-2276
อร์ด	-2277
ตาล	-2278
▁เหตุผล	-2279
▁ฟังก์ชั่น	-2280
▁ภายใต้	-2281
▁ผู้เขียน	-2282
ุคคล	-2283
▁Ama	-2284
▁คณะ	-2285
ิดเพล	-2286
▁คละ	-2287
ปลอดภัย	-2288
ชื่อ	-2289
ิดเพลิน	-2290
นส์	-2291
▁ขวด	-2292
▁เข้าร	-2293
▁ยุโรป	-2294
▁โอลิม	-2295
▁ครอบครัว	-2296
▁70	-2297
▁จบ	-2298
ุธ	-2299
▁ความปลอดภัย	-2300
วิจ	-2301
▁คลาสส	-2302
▁เยอะ	-2303
▁Amazon	-2304
▁ธุรกิจ	-2305
โคร	-2306
▁ON	-2307
ชื้น	-2308
รีย	-2309
▁สิ้น	-2310
▁ความรู้สึก	-2311
ีป	-2312
ดิ	-2313
▁CO	-2314
of	-2315
▁เร่ง	-2316
▁จักร	-2317
▁อร	-2318
▁แปรง	-2319
ay	-2320
▁แหล	-2321
▁โอลิมป	-2322
ver	-2323
▁เทป	-2324
▁การพัฒนา	-2325
▁ดิ	-2326
▁เกี่ยว	-2327
▁เท่าไหร่	-2328
ยาน	-2329
▁แป้ง	-2330
▁กระโปรง	-2331
▁ชิ	-2332
เซอร์	-2333
▁t	-2334
อายุ	-2335
▁กล่าวว่า	-2336
ชุม	-2337
▁ศูนย์	-2338
ชั้น	-2339
▁Section	-2340
ปะ	-2341
ฎหมาย	-2342
ศึกษา	-2343
ุทธ	-2344
▁ขว	-2345
ากร	-2346
▁โอลิมปิก	-2347
op	-2348
▁ฯ	-2349
ทย์	-2350
▁แฟน	-2351
▁ความสูง	-2352
▁ออนไลน์	-2353
▁ปรับระดับ	-2354
ระบบ	-2355
▁ความนุ่ม	-2356
มป	-2357
รัด	-2358
▁เครื่องดื่ม	-2359
ัมพ	-2360
▁ภูมิภาค	-2361
ิติ	-2362
▁36	-2363
▁ฟอกขาว	-2364
▁Y	-2365
▁อธิบาย	-2366
▁เวอร์	-2367
▁ยังไง	-2368
▁ทุกวัน	-2369
▁นอน	-2370
▁พัฒนา	-2371
▁ร่วมกับ	-2372
▁คู	-2373
เบี้ย	-2374
▁วัตถ	-2375
▁38	-2376
▁สัตว์	-2377
▁หม้อ	-2378
▁เฉลี่ย	-2379
ht	-2380
▁เป็นพิเศษ	-2381
เหลือ	-2382
ผน	-2383
▁SAN	-2384
ur	-2385
▁ตัวอย่าง	-2386
▁โครงสร้าง	-2387
▁การเขียน	-2388
นิยม	-2389
▁อันนี้	-2390
▁เก้า	-2391
▁คอลเล	-2392
▁ซอ	-2393
ีโอ	-2394
▁วิด	-2395
สู่	-2396
▁เหรีย	-2397
สินใจ	-2398
▁เหรียญ	-2399
แค่	-2400
▁เพียงแค่	-2401
ธรรมชาติ	-2402
IS	-2403
▁สุดท้าย	-2404
ปก	-2405
▁สงคราม	-2406
▁รักษา	-2407
▁เหนือ	-2408
▁พื้นผิว	-2409
▁คิว	-2410
▁เกือบ	-2411
▁คาดหวัง	-2412
ID	-2413
▁ชม	-2414
▁ฝ่าย	-2415
ส้	-2416
โก้	-2417
▁ผลกระทบ	-2418
ลล์	-2419
เรีย	-2420
▁หด	-2421
▁วา	-2422
▁กลาย	-2423
▁ประชา	-2424
นาคาร	-2425
ite	-2426
▁HD	-2427
กัด	-2428
พอ	-2429
▁เพลิดเพลิน	-2430
ุย	-2431
▁ปรา	-2432
▁แสน	-2433
▁แพง	-2434
พื้น	-2435
ห้อ	-2436
LU	-2437
กําลังกาย	-2438
วิ	-2439
▁วิดีโอ	-2440
▁ฟิล	-2441
▁ซอง	-2442
▁มห	-2443
บประมาณ	-2444
oc	-2445
▁รอยขีด	-2446
▁หรู	-2447
บริการ	-2448
▁ดั	-2449
รส	-2450
ข่วน	-2451
▁พี	-2452
▁เหมือนกัน	-2453
▁อ่านหนังสือ	-2454
หะ	-2455
ENT	-2456
รั่ง	-2457
ind	-2458
ีวี	-2459
▁กระบ	-2460
▁ลู	-2461
ียร์	-2462
▁หุ้ม	-2463
▁บา	-2464
เดียว	-2465
▁คมชัด	-2466
เลข	-2467
▁เสม	-2468
▁จัง	-2469
▁เป็นเวลา	-2470
▁g	-2471
▁ริม	-2472
คชั่น	-2473
▁ธนาคาร	-2474
▁รอยขีดข่วน	-2475
▁รีด	-2476
ข้อง	-2477
RIO	-2478
จัย	-2479
iz	-2480
เกอร์	-2481
KS	-2482
▁ลบ	-2483
▁ล้อ	-2484
▁ไข	-2485
▁หลุด	-2486
▁75	-2487
▁พา	-2488
▁เชิง	-2489
หน้าที่	-2490
กด	-2491
▁โป	-2492
▁SANRIO	-2493
เนียม	-2494
▁ปัจจัย	-2495
▁สิทธิ	-2496
สัง	-2497
▁กระจก	-2498
ัพย์	-2499
แหน	-2500
▁ทะเล	-2501
LE	-2502
▁อินเดีย	-2503
ล่า	-2504
▁คอน	-2505
▁ที่แล้ว	-2506
มนตรี	-2507
ve	-2508
ard	-2509
▁ภาวะ	-2510
▁รหัสสินค้า	-2511
ี่ยว	-2512
ลด	-2513
▁กีฬา	-2514
▁คืนนี้	-2515
▁กรุง	-2516
▁เซน	-2517
▁ไร้สาย	-2518
แนน	-2519
▁เอสเตอร์	-2520
▁90	-2521
ยัน	-2522
ENC	-2523
▁ทิศ	-2524
แหน่ง	-2525
▁ประตู	-2526
▁ด้านนอก	-2527
▁ไน	-2528
▁พรุ่งนี้	-2529
▁ยี่	-2530
ัมพันธ์	-2531
▁ซ้ํา	-2532
▁หลอด	-2533
เพลง	-2534
▁Sp	-2535
▁สอด	-2536
▁บัญ	-2537
▁สเต	-2538
▁เสมอ	-2539
▁สถา	-2540
▁ครัว	-2541
st	-2542
ชัน	-2543
▁เสน	-2544
ปรุง	-2545
บาง	-2546
โพง	-2547
▁ทางเศรษฐกิจ	-2548
▁ไมโคร	-2549
▁อาร์	-2550
▁บางครั้ง	-2551
▁โลหะ	-2552
▁สะอาด	-2553
ควร	-2554
▁ได้ยิน	-2555
▁33	-2556
▁คริสต์	-2557
▁ร้านอาหาร	-2558
▁กระจาย	-2559
▁ซอน	-2560
าคม	-2561
▁อินเท	-2562
▁หลังจากที่	-2563
▁สัญญาณ	-2564
▁สป	-2565
▁โอ้	-2566
OO	-2567
▁สแต	-2568
อกเบี้ย	-2569
up	-2570
▁ประสบการณ์	-2571
▁บล	-2572
▁MAR	-2573
▁อัตราด	-2574
▁อัตราดอกเบี้ย	-2575
เตร	-2576
▁เข้ามา	-2577
▁แบ่ง	-2578
▁ท้อง	-2579
▁สายไฟ	-2580
▁แถบ	-2581
ล์ม	-2582
▁วัย	-2583
▁ยืนยัน	-2584
▁ยอม	-2585
▁หาย	-2586
▁ของเล่น	-2587
เดอร์	-2588
▁ห้า	-2589
เดิม	-2590
▁ล็อค	-2591
▁เยอร	-2592
▁รสชาติ	-2593
ิตย์	-2594
▁หดตัว	-2595
▁มาตรา	-2596
▁Ch	-2597
▁ก้าว	-2598
อร์เน	-2599
▁เกี่ยวข้อง	-2600
▁วัด	-2601
เร็จ	-2602
▁โฟม	-2603
▁เก้าอ	-2604
▁สาธารณ	-2605
▁ไส้	-2606
ถ่าย	-2607
▁คอลเลคชั่น	-2608
▁รน	-2609
แก่	-2610
▁การเคล	-2611
สําคัญ	-2612
▁IN	-2613
▁เอเชีย	-2614
▁วิทย	-2615
ine	-2616
ระวัง	-2617
▁การปรับ	-2618
▁แว	-2619
▁ส้น	-2620
80	-2621
▁ดัชน	-2622
ุ้น	-2623
ฆษ	-2624
▁ประวัติ	-2625
▁ส่งผล	-2626
▁ปฏิบัติ	-2627
ล้อม	-2628
ip	-2629
▁เก้าอี้	-2630
▁กิโล	-2631
ผู้	-2632
▁ตอนที่	-2633
▁ยืดหยุ่น	-2634
▁ยิน	-2635
▁ดัชนี	-2636
ฝ้าย	-2637
▁ปริมาณสุทธิ	-2638
ธาน	-2639
▁ผ้าฝ้าย	-2640
▁เคลื่อน	-2641
ง่าย	-2642
▁พฤ	-2643
▁Re	-2644
▁ซ่อม	-2645
คลุม	-2646
บับ	-2647
▁ประจํา	-2648
ั๊ก	-2649
ูร้อน	-2650
ack	-2651
▁b	-2652
▁นําเข้า	-2653
▁ธรรมดา	-2654
▁Pro	-2655
otton	-2656
▁มือถือ	-2657
▁รูปภาพ	-2658
▁รถเช่า	-2659
LY	-2660
UR	-2661
▁ฤดูร้อน	-2662
▁จิ	-2663
รูป	-2664
▁ใช้จ่าย	-2665
าวุธ	-2666
▁รัด	-2667
▁อิต	-2668
▁ออส	-2669
้วน	-2670
▁ปล่อย	-2671
▁เย็บ	-2672
▁หอม	-2673
▁โฆษ	-2674
ลับ	-2675
▁กาว	-2676
สัย	-2677
75	-2678
▁สามี	-2679
▁อนุ	-2680
ION	-2681
สนาน	-2682
▁รูปทรง	-2683
▁สนุกสนาน	-2684
▁ทีวี	-2685
▁อร่อย	-2686
▁ฟิ	-2687
▁วินาที	-2688
▁01	-2689
เอกชน	-2690
▁ช่วงเวลา	-2691
▁แปล	-2692
▁ตี	-2693
เกินไป	-2694
▁ปลั๊ก	-2695
▁ราช	-2696
ึม	-2697
▁มากเกินไป	-2698
▁สีแดง	-2699
▁เครื่องมือ	-2700
▁แฟ้ม	-2701
ตอน	-2702
▁น้อยกว่า	-2703
ชิก	-2704
ap	-2705
▁มีระบบ	-2706
▁แมว	-2707
ารา	-2708
ENCER	-2709
▁ช้า	-2710
▁SPENCER	-2711
ess	-2712
ทรวง	-2713
รรค	-2714
▁สกัด	-2715
▁ชิ้นส่วน	-2716
▁พับ	-2717
▁ศิล	-2718
▁ลําโพง	-2719
▁ธง	-2720
▁ไฟล์	-2721
ืช	-2722
เบอร์	-2723
จร	-2724
ราคา	-2725
▁ท่าน	-2726
ิทย	-2727
เฟ้อ	-2728
เทา	-2729
▁ป้าย	-2730
▁Cl	-2731
▁ร่าง	-2732
40	-2733
▁จํานวนมาก	-2734
ce	-2735
▁พัก	-2736
ขัด	-2737
▁แดง	-2738
▁MARKS	-2739
เสริม	-2740
▁ลวดลาย	-2741
▁เช่นเดีย	-2742
▁กระทรวง	-2743
▁อังกฤษ	-2744
▁ออสเตร	-2745
บาท	-2746
▁ผง	-2747
เสร็จ	-2748
ab	-2749
▁เชื้อ	-2750
สรรค์	-2751
นาคม	-2752
▁มาตรการ	-2753
▁ดื่ม	-2754
▁ฐานะ	-2755
▁พันธ	-2756
ชั้นใน	-2757
ครู่	-2758
บกวน	-2759
ทัดรัด	-2760
55	-2761
ปเป	-2762
แผน	-2763
ธ์	-2764
▁จด	-2765
เฉ	-2766
her	-2767
ี้ยง	-2768
▁ภาคเอกชน	-2769
โซ	-2770
▁l	-2771
าร์ท	-2772
▁เงินเฟ้อ	-2773
เมล	-2774
หน่าย	-2775
สิทธิ์	-2776
▁เป็นหนึ่ง	-2777
ook	-2778
▁ฝรั่ง	-2779
▁ขึ้นอยู่	-2780
ัศ	-2781
ค่อย	-2782
วดล้อม	-2783
▁เช็ค	-2784
ระเบ	-2785
▁อ้าง	-2786
▁ฟื้น	-2787
▁แฮ	-2788
▁ทําได้	-2789
้วย	-2790
▁ยุค	-2791
▁สาว	-2792
▁ตื่น	-2793
▁ว่าการ	-2794
สนอง	-2795
▁สถานการณ์	-2796
▁ลูกสาว	-2797
จัก	-2798
ํานา	-2799
ควบคุม	-2800
▁ลงตัว	-2801
▁ปราศ	-2802
▁เตร	-2803
▁ขณะที่	-2804
TER	-2805
99	-2806
▁สูญ	-2807
อร์ท	-2808
เศส	-2809
▁ซู	-2810
IG	-2811
ุนแรง	-2812
ไหม	-2813
▁ตอบสนอง	-2814
12	-2815
▁มักจะ	-2816
▁มอเตอร์	-2817
ING	-2818
▁บางที	-2819
▁ครบ	-2820
▁เตา	-2821
ั่งซื้อ	-2822
▁ประธาน	-2823
▁ที่นั่น	-2824
▁ฝรั่งเศส	-2825
▁Pl	-2826
▁ก่อสร้าง	-2827
เหลือง	-2828
▁ไม่ค่อย	-2829
▁บัญชี	-2830
▁w	-2831
▁คาร์	-2832
▁การสั่งซื้อ	-2833
พลาด	-2834
ฟื้น	-2835
AB	-2836
สก	-2837
ต่าง	-2838
ล่าง	-2839
▁หว	-2840
▁บางคน	-2841
เต้น	-2842
ณาจักร	-2843
▁เบล	-2844
▁ลูกชาย	-2845
▁โดยตรง	-2846
แดด	-2847
ort	-2848
็กซ	-2849
ation	-2850
▁000	-2851
▁ขึ้นอยู่กับ	-2852
▁ยี่ห้อ	-2853
คู่	-2854
▁กระบวน	-2855
▁การเคลื่อนไหว	-2856
แวดล้อม	-2857
▁ปราศจาก	-2858
▁บางส่วน	-2859
▁แจ้ง	-2860
▁ส่วนลด	-2861
▁ดีเยี่ยม	-2862
▁ความชุ่มชื้น	-2863
▁เช่า	-2864
▁เอกลักษณ์	-2865
▁เมนู	-2866
▁ติดต่อ	-2867
▁ลิป	-2868
▁ใบเสร็จ	-2869
▁สาธารณรัฐ	-2870
ารณ์	-2871
▁ฟองน้ํา	-2872
▁n	-2873
▁ทุกครั้ง	-2874
▁ทักษ	-2875
ังค	-2876
▁ก่อนที่จะ	-2877
ปิน	-2878
▁ถาม	-2879
แดน	-2880
▁ตําแหน่ง	-2881
KE	-2882
เมตร	-2883
ต้าน	-2884
▁เตือน	-2885
▁ที่สาม	-2886
ชนะ	-2887
▁มีอายุ	-2888
ก่	-2889
ast	-2890
▁ส่วนหนึ่ง	-2891
▁เป็นธรรมชาติ	-2892
▁ปราก	-2893
hone	-2894
▁กลิ่นหอม	-2895
▁เขต	-2896
ารณา	-2897
▁สแตนเลส	-2898
▁คัน	-2899
▁กลายเป็น	-2900
▁ไฮ	-2901
▁การฟื้น	-2902
แม่	-2903
▁39	-2904
▁เวียด	-2905
▁อีกด้วย	-2906
▁สํานักงาน	-2907
▁42	-2908
▁หนู	-2909
▁ยินดี	-2910
US	-2911
▁หมวด	-2912
▁เกล	-2913
▁ชีส	-2914
▁พื้นฐาน	-2915
▁ตัดสินใจ	-2916
ke	-2917
▁Sh	-2918
ังคับ	-2919
▁ทําลาย	-2920
▁ใจ	-2921
▁ก็ตาม	-2922
▁ล่าสุด	-2923
าลัย	-2924
▁ร้อง	-2925
▁เลนส์	-2926
▁แท้จริง	-2927
▁เข้าถึง	-2928
▁ฟุตบอล	-2929
▁ทักษะ	-2930
▁อินโด	-2931
เสื้อ	-2932
▁สว	-2933
กาศ	-2934
ชีพ	-2935
▁ได้แก่	-2936
▁ฯล	-2937
ที่สุด	-2938
▁น้ําตาล	-2939
▁เช่นเดียวกับ	-2940
รียบ	-2941
เว้น	-2942
▁วี	-2943
▁ฯลฯ	-2944
▁โฆษณา	-2945
นย	-2946
▁แหล่ง	-2947
▁รัง	-2948
▁รม	-2949
▁เป้า	-2950
▁โลโก้	-2951
▁มีประโยชน์	-2952
▁65	-2953
ต่อไป	-2954
▁พรรค	-2955
▁เดอะ	-2956
ร้าย	-2957
▁ขึ้นไป	-2958
ight	-2959
คส์	-2960
ท้อน	-2961
ํานาจ	-2962
▁เวียดนาม	-2963
▁อิสระ	-2964
▁ระยะเวลา	-2965
โทร	-2966
▁สถานี	-2967
ข้อ	-2968
▁สีช	-2969
ry	-2970
▁ดําเนินการ	-2971
▁เช็ด	-2972
if	-2973
▁คอม	-2974
▁สีชมพู	-2975
▁ทหาร	-2976
▁เตอร์	-2977
เวอร์	-2978
ใช้จ่าย	-2979
▁สดชื่น	-2980
เลีย	-2981
▁ทั้งวัน	-2982
บดี	-2983
อุ่น	-2984
คอ	-2985
▁ประมาณการ	-2986
ิ้ว	-2987
เซล	-2988
▁สักครู่	-2989
70	-2990
OL	-2991
▁ความลึก	-2992
▁เช้า	-2993
PS	-2994
ตกรรม	-2995
ีปาก	-2996
▁ยีน	-2997
RE	-2998
▁ริมฝ	-2999
ide	-3000
▁เบิก	-3001
ถิ่น	-3002
▁ฉาย	-3003
▁เจน	-3004
▁ริมฝีปาก	-3005
▁เครื่องพิมพ์	-3006
วรรษ	-3007
ia	-3008
นี	-3009
▁มิติ	-3010
▁ก้อน	-3011
ss	-3012
▁คล้าย	-3013
▁ขั้นตอน	-3014
▁ฤดู	-3015
▁งบประมาณ	-3016
▁ลม	-3017
เปลี่ยนแปลง	-3018
▁ห่วง	-3019
ion	-3020
▁เปล่ง	-3021
▁มาร์	-3022
▁ทุกที่	-3023
็อต	-3024
▁บุคคล	-3025
UT	-3026
▁เจล	-3027
▁สะท้อน	-3028
เปล่า	-3029
โพก	-3030
▁ทั่วโลก	-3031
▁ส่งเสริม	-3032
รอย	-3033
▁500	-3034
og	-3035
เช่น	-3036
▁สีน้ําเงิน	-3037
▁Z	-3038
นอน	-3039
▁เลื่อน	-3040
▁ความสาม	-3041
▁ความชื้น	-3042
▁หลีก	-3043
▁เข้าสู่	-3044
▁เน้น	-3045
▁ประวัติศาสตร์	-3046
นวล	-3047
ปรก	-3048
▁คอก	-3049
ate	-3050
▁ถัง	-3051
▁ความกระ	-3052
▁เรียบง่าย	-3053
ักษร	-3054
▁ทางท	-3055
ํารวจ	-3056
นุษ	-3057
▁05	-3058
11	-3059
▁มนุษ	-3060
็ป	-3061
โต้	-3062
ระเบียบ	-3063
เกต	-3064
คํา	-3065
▁เป็นผล	-3066
▁ผน	-3067
▁44	-3068
▁ไนล	-3069
▁การต	-3070
ัพพ	-3071
คลาย	-3072
ลํา	-3073
▁กระบวนการ	-3074
เลี่ยง	-3075
ester	-3076
▁เสื้อยืด	-3077
▁การ์ด	-3078
เบา	-3079
▁UK	-3080
หยุด	-3081
▁นาง	-3082
▁ความสามารถ	-3083
▁ถ้วย	-3084
▁ผู้ผลิต	-3085
▁หลีกเลี่ยง	-3086
▁จุ	-3087
▁เจ้าของ	-3088
▁ทอ	-3089
▁2560	-3090
▁ผิวหน้า	-3091
ัฒนาการ	-3092
อาณาจักร	-3093
ฟต์	-3094
▁อุด	-3095
ิช	-3096
AD	-3097
ปกติ	-3098
▁หก	-3099
▁ต่างประเทศ	-3100
หลด	-3101
▁มีนาคม	-3102
▁เตรียม	-3103
▁เป็นเจ้า	-3104
▁เสื้อผ้า	-3105
▁กะทัดรัด	-3106
▁พอใจ	-3107
▁120	-3108
▁ประกาศ	-3109
กตา	-3110
ัพธ์	-3111
▁ทุกๆ	-3112
แรม	-3113
▁ผลล	-3114
▁ผลลัพธ์	-3115
▁2558	-3116
▁เหมือนกับ	-3117
ขับ	-3118
▁เท่าที่	-3119
▁2559	-3120
▁Poly	-3121
▁ดีใจ	-3122
▁สั่งซื้อ	-3123
โยน	-3124
▁โย	-3125
▁คอกลม	-3126
▁150	-3127
▁กังวล	-3128
ESS	-3129
นตรี	-3130
▁เผย	-3131
▁AN	-3132
VC	-3133
ub	-3134
▁การควบคุม	-3135
นยํา	-3136
าลี	-3137
▁เกาหลีเหนือ	-3138
▁เข็ม	-3139
▁หนีบ	-3140
EM	-3141
ตัน	-3142
กระทั่ง	-3143
▁ออสเตรเลีย	-3144
▁ตลับ	-3145
▁ลิ้น	-3146
▁ปรากฏ	-3147
▁การเปลี่ยนแปลง	-3148
▁เคลื่อนไหว	-3149
มั่นคง	-3150
▁แอน	-3151
ญาต	-3152
มิตร	-3153
▁วันหยุด	-3154
▁โทน	-3155
▁เซอร์	-3156
ุป	-3157
▁ตะวันออก	-3158
▁ให้ได้	-3159
▁รี่	-3160
▁ความแข็ง	-3161
▁41	-3162
บัตร	-3163
รรยา	-3164
▁การประชุม	-3165
▁บางสิ่ง	-3166
▁เรียนรู้	-3167
นม	-3168
▁ออกกําลังกาย	-3169
อล์	-3170
▁สุ	-3171
▁ยีนส์	-3172
▁พอร์ต	-3173
▁48	-3174
RAL	-3175
่อนคลาย	-3176
▁กร้าน	-3177
ราฟ	-3178
itt	-3179
▁รับรอง	-3180
▁ทิศทาง	-3181
บัคส์	-3182
▁เนิน	-3183
หนู	-3184
▁ใบหน้า	-3185
▁นิด	-3186
▁2561	-3187
▁ซึม	-3188
▁เท่ากับ	-3189
▁สตาร์บัคส์	-3190
▁Com	-3191
่มาก	-3192
▁แย่มาก	-3193
▁ทําการ	-3194
▁คลิป	-3195
▁การเงิน	-3196
ท่า	-3197
▁ซัพพ	-3198
ENTRAL	-3199
▁จิน	-3200
▁เจาะ	-3201
วร์	-3202
ครัฐ	-3203
▁หยิบ	-3204
็ท	-3205
▁ดวงตา	-3206
ิโ	-3207
แส	-3208
▁ครอบคลุม	-3209
▁สนามบิน	-3210
▁ความม	-3211
▁โรงแรม	-3212
▁The	-3213
▁ล้ํา	-3214
ชม	-3215
กรัม	-3216
▁An	-3217
▁นักท่องเที่ยว	-3218
ื่อย	-3219
▁ภรรยา	-3220
▁อาการ	-3221
ชิ	-3222
ยสาร	-3223
▁พืช	-3224
▁ค่าใช้จ่าย	-3225
ทับ	-3226
▁เข้าร่วม	-3227
▁พัง	-3228
ทู	-3229
▁สีเทา	-3230
▁น้อง	-3231
สอ	-3232
▁ดิจ	-3233
▁เสนอ	-3234
▁จําเป็นต้อง	-3235
เต็ม	-3236
อย่างยิ่ง	-3237
▁กิโลกรัม	-3238
มอง	-3239
ิกส์	-3240
▁ภาครัฐ	-3241
▁นวั	-3242
LYC	-3243
▁ริ้ว	-3244
▁สมัย	-3245
วาง	-3246
▁ฉาก	-3247
▁พระเจ้า	-3248
ax	-3249
▁NI	-3250
ข้น	-3251
▁เวล	-3252
ัคร	-3253
▁199	-3254
▁LED	-3255
▁ผู้ใช้	-3256
▁แบบนี้	-3257
อกัน	-3258
▁ช่าง	-3259
▁Cotton	-3260
▁สัด	-3261
เหล็ก	-3262
▁แอนด์	-3263
▁สถาบัน	-3264
▁ก่อนที่	-3265
▁ท่อ	-3266
▁ซีดี	-3267
▁แม้แต่	-3268
▁นวัตกรรม	-3269
▁สกร	-3270
▁เพียงพอ	-3271
▁ปลอก	-3272
กาล	-3273
▁แปลก	-3274
▁หลายครั้ง	-3275
OS	-3276
▁ร่างกาย	-3277
ิ้ล	-3278
▁วัตถุ	-3279
รี่	-3280
PH	-3281
▁แว่น	-3282
▁พอที่จะ	-3283
▁จังหว	-3284
▁กําลังไฟฟ้า	-3285
คาย	-3286
แวร์	-3287
ลาด	-3288
ize	-3289
▁300	-3290
▁ความมั่นคง	-3291
ลูมิ	-3292
ลูมิเนียม	-3293
คนิค	-3294
▁การค้า	-3295
▁บ่อย	-3296
ทรัพย์	-3297
กลับ	-3298
▁กําจัด	-3299
▁85	-3300
▁เข้มข้น	-3301
๊ค	-3302
▁ยกเว้น	-3303
▁คัด	-3304
▁สิงหา	-3305
▁อาคาร	-3306
▁บริโภค	-3307
▁สิงหาคม	-3308
▁ง่ายๆ	-3309
▁ความเป็น	-3310
▁โรงเรียน	-3311
พัก	-3312
สะดวก	-3313
▁ซับใน	-3314
▁ความแข็งแรง	-3315
▁อ่อนโยน	-3316
▁สังคม	-3317
▁คลาสสิก	-3318
▁ST	-3319
ist	-3320
▁น้ําเงิน	-3321
▁พิจ	-3322
ไหล	-3323
▁การปก	-3324
▁อาร	-3325
ประจํา	-3326
▁ความเสีย	-3327
▁เมา	-3328
▁ประชาชน	-3329
▁ขจัด	-3330
บัญ	-3331
▁พิจารณา	-3332
▁37	-3333
าศาสตร์	-3334
ผิดพลาด	-3335
▁ก็ดี	-3336
▁แตกต่าง	-3337
ยิ่งขึ้น	-3338
▁มากยิ่งขึ้น	-3339
▁สหภาพ	-3340
ตี	-3341
งื่อ	-3342
▁ฟิล์ม	-3343
▁สมาร์ท	-3344
▁จํากัด	-3345
ุตสาหกรรม	-3346
▁รัส	-3347
▁ความพ	-3348
▁หมายถึง	-3349
อุตสาหกรรม	-3350
▁เป้าหมาย	-3351
▁อน	-3352
▁ยุทธ	-3353
ตกลง	-3354
▁ชาติ	-3355
▁ฮา	-3356
▁ONLYC	-3357
▁เติมเต็ม	-3358
▁ONLYCENTRAL	-3359
▁อีกต่อไป	-3360
▁ด้านล่าง	-3361
▁PVC	-3362
▁ต่อมา	-3363
▁บางเบา	-3364
▁สมาชิก	-3365
▁เมล	-3366
▁โรค	-3367
▁ดั้ง	-3368
▁ต่อต้าน	-3369
เสม	-3370
▁Fl	-3371
▁ผนัง	-3372
▁เทา	-3373
▁กระแส	-3374
▁ซิล	-3375
บรร	-3376
▁ผู้คน	-3377
▁ดั้งเดิม	-3378
ียร	-3379
▁การศึกษา	-3380
▁ทดสอบ	-3381
▁ดอกไม้	-3382
กประสงค์	-3383
ตุ้น	-3384
▁โหมด	-3385
เดือน	-3386
HER	-3387
าราง	-3388
▁ให้บริการ	-3389
▁Air	-3390
ื่อนไข	-3391
▁คะแนน	-3392
ผสาน	-3393
▁แมน	-3394
▁รายได้	-3395
▁ที่สูง	-3396
ตราย	-3397
▁43	-3398
▁บ่าย	-3399
▁ผ่อนคลาย	-3400
▁ความเสียหาย	-3401
▁ใช่ไหม	-3402
ag	-3403
▁ผู้อ	-3404
▁การแสดง	-3405
▁รถไฟ	-3406
▁ตรา	-3407
▁ไม่เป็น	-3408
▁ตาราง	-3409
▁การจัด	-3410
▁ข้าม	-3411
▁Al	-3412
▁ด้ามจับ	-3413
▁รท	-3414
▁ท้องถิ่น	-3415
▁ความกระชับ	-3416
▁ความสัมพันธ์	-3417
เบิล	-3418
▁เกาหลีใต้	-3419
▁เซลล์	-3420
▁ระหว่างประเทศ	-3421
▁แซ	-3422
▁เม็ด	-3423
▁พัฒนาการ	-3424
▁การเรียน	-3425
▁เสริมสร้าง	-3426
▁หญ	-3427
เจอร์	-3428
▁โฮ	-3429
▁เชือก	-3430
▁หมู่	-3431
▁หลังจากนั้น	-3432
▁เนื้อหา	-3433
▁กระดุม	-3434
15	-3435
เหลว	-3436
▁ลืม	-3437
เคือง	-3438
▁ผัก	-3439
▁46	-3440
▁กฎหมาย	-3441
▁กราฟ	-3442
▁เกรด	-3443
▁การป้องกัน	-3444
▁De	-3445
▁ออร์	-3446
▁บร	-3447
▁คราบ	-3448
▁ทําอาหาร	-3449
▁ย่าง	-3450
▁เป็นครั้ง	-3451
ex	-3452
▁มก	-3453
▁เซ็น	-3454
▁ตุ๊	-3455
▁2557	-3456
▁สัดส่วน	-3457
▁มนุษย์	-3458
▁อย่างยิ่ง	-3459
▁เปรียบ	-3460
▁ตุ๊กตา	-3461
ue	-3462
▁สินเชื่อ	-3463
▁ขัด	-3464
▁ภายนอก	-3465
▁ฮิ	-3466
▁ร่วมกัน	-3467
าวิทย	-3468
าวิทยาลัย	-3469
คดี	-3470
▁การค	-3471
▁ซาน	-3472
▁ฟิลิป	-3473
ane	-3474
ทั่ว	-3475
เบื่อ	-3476
▁พูดถึง	-3477
สนา	-3478
ทั่วไป	-3479
▁มหาวิทยาลัย	-3480
วบ	-3481
▁นําเสนอ	-3482
▁สวน	-3483
นีเซีย	-3484
แห้ง	-3485
▁ค้า	-3486
ธิบดี	-3487
▁น้ําหอม	-3488
▁แขวน	-3489
▁ข้อควร	-3490
▁Size	-3491
OM	-3492
ม่ํา	-3493
▁สอดคล	-3494
▁of	-3495
▁เป็นเจ้าของ	-3496
วิจารณ์	-3497
แย	-3498
▁แฟชั่น	-3499
▁ข้อควรระวัง	-3500
▁เท่	-3501
▁อัลบั	-3502
▁ครัวเรือน	-3503
▁เจ้าหน้าที่	-3504
▁จําหน่าย	-3505
▁น่าเบื่อ	-3506
▁ไม่เป็นไร	-3507
ตอบ	-3508
▁อัลบั้ม	-3509
ตะ	-3510
แช	-3511
▁แคน	-3512
▁แช่	-3513
▁ตนเอง	-3514
tr	-3515
▁หัก	-3516
▁แนวโน้ม	-3517
▁เป็นต้น	-3518
▁ภาษ	-3519
ิตาม	-3520
▁สิบ	-3521
▁อุ่น	-3522
ริก	-3523
▁พ่อ	-3524
▁อินโดนีเซีย	-3525
▁ปา	-3526
▁สถานะ	-3527
▁เป็นอ	-3528
▁การปรับตัว	-3529
▁ภัย	-3530
▁ราง	-3531
▁แทนที่	-3532
เสมอ	-3533
▁อิตาลี	-3534
▁95	-3535
▁เฉด	-3536
เกียว	-3537
▁โตเกียว	-3538
ท็อป	-3539
▁สม่ํา	-3540
▁แรงดัน	-3541
▁มองเห็น	-3542
ทด	-3543
ตนาการ	-3544
▁ผสมผสาน	-3545
▁Ac	-3546
คายเคือง	-3547
ฒน	-3548
สู	-3549
▁250	-3550
VER	-3551
▁เก๋	-3552
▁หวาน	-3553
สู้	-3554
▁แนวคิด	-3555
▁00	-3556
▁บู	-3557
อาท	-3558
▁บด	-3559
าร์ด	-3560
▁แคล	-3561
▁ผลผลิต	-3562
▁มีส่วน	-3563
▁แถว	-3564
▁ริ้น	-3565
โปร์	-3566
▁ติดตาม	-3567
▁อเมริกา	-3568
45	-3569
▁ตอนแรก	-3570
ิตอล	-3571
อาทิตย์	-3572
▁กระตุ้น	-3573
▁เป็นไปได้	-3574
ปัด	-3575
▁สะด	-3576
ิงค์	-3577
▁เสียเงิน	-3578
▁XL	-3579
บท	-3580
ือด	-3581
▁ฆ	-3582
มณ์	-3583
ัช	-3584
▁ชุ่ม	-3585
ฒนธรรม	-3586
▁สิ่งแวดล้อม	-3587
แสง	-3588
▁Con	-3589
คโปร์	-3590
ไว	-3591
▁อาท	-3592
หรา	-3593
ุ์	-3594
เสี่ยง	-3595
▁สังเกต	-3596
▁เงื่อนไข	-3597
▁สิงคโปร์	-3598
▁เครื่องบิน	-3599
com	-3600
▁NIKE	-3601
▁กลม	-3602
▁นํามา	-3603
▁ข้อตกลง	-3604
▁ข้อเสนอ	-3605
▁รบกวน	-3606
▁สายสะ	-3607
▁AD	-3608
▁สายสะพาย	-3609
▁จินตนาการ	-3610
มป์	-3611
▁ห่าง	-3612
▁คล่อง	-3613
▁สะดุด	-3614
ประกาย	-3615
▁ระวัง	-3616
▁กุม	-3617
▁รู้จัก	-3618
ขอ	-3619
เอว	-3620
▁คุก	-3621
่วมมือ	-3622
▁ไนลอน	-3623
▁แทนที่จะ	-3624
ุบ	-3625
▁ศา	-3626
▁สม่ําเสมอ	-3627
ตูน	-3628
▁เครือ	-3629
▁เมาส์	-3630
้ต	-3631
▁2555	-3632
▁รอบเอว	-3633
▁ไต้	-3634
▁เครื่องเล่น	-3635
▁มุมมอง	-3636
▁การ์ตูน	-3637
▁จี	-3638
าธิบดี	-3639
▁อีเมล	-3640
วิจัย	-3641
▁อเน	-3642
หวัน	-3643
▁คริสต์มาส	-3644
คต	-3645
ึ้ง	-3646
▁เมษ	-3647
▁ริ้วรอย	-3648
ร่	-3649
▁เมษายน	-3650
▁นุ่มนวล	-3651
▁03	-3652
▁in	-3653
▁ปีก่อน	-3654
▁จัดส่ง	-3655
▁ปฏ	-3656
▁ผสาน	-3657
▁ศิลปะ	-3658
▁ประธานาธิบดี	-3659
oth	-3660
▁อเนกประสงค์	-3661
ass	-3662
ศัย	-3663
▁ใย	-3664
▁อาศัย	-3665
me	-3666
90	-3667
▁02	-3668
▁พัด	-3669
OW	-3670
ญแจ	-3671
▁การฟื้นตัว	-3672
▁GB	-3673
▁โจม	-3674
▁Mic	-3675
▁หน้าที่	-3676
▁ตั้งอยู่	-3677
มนี	-3678
▁โท	-3679
เนีย	-3680
ไม่ได้	-3681
▁ไต้หวัน	-3682
ock	-3683
ตี้	-3684
▁เปีย	-3685
พลัง	-3686
ปินส์	-3687
▁ด้วยมือ	-3688
ชัก	-3689
▁การจัดส่ง	-3690
▁ฟิลิปปินส์	-3691
▁โฟน	-3692
ีล	-3693
▁ทุกครั้งที่	-3694
ิร์น	-3695
▁สอดคล้อง	-3696
▁อิเล็ก	-3697
RA	-3698
ติน	-3699
▁อัพ	-3700
ให้เห็น	-3701
▁ด้วยกัน	-3702
▁เยอรมนี	-3703
ACK	-3704
สเตอร์	-3705
ยอด	-3706
▁Col	-3707
▁คําน	-3708
▁แปลง	-3709
ire	-3710
▁โถ	-3711
ยายน	-3712
▁สื่อ	-3713
▁กันยายน	-3714
▁600	-3715
▁แผง	-3716
▁ที่รัก	-3717
หนาว	-3718
หน่อย	-3719
จิก	-3720
▁แล็ป	-3721
▁64	-3722
▁ก๊	-3723
แกร่ง	-3724
▁ไม่ต้องการ	-3725
▁ความร่วมมือ	-3726
▁iP	-3727
▁กัด	-3728
UM	-3729
UN	-3730
ran	-3731
เอ็ม	-3732
▁แถม	-3733
▁แข็งแกร่ง	-3734
▁ซักแห้ง	-3735
ณิช	-3736
พัด	-3737
▁ตัน	-3738
▁ซักผ้า	-3739
ber	-3740
ill	-3741
▁รุนแรง	-3742
▁เหนียว	-3743
ูกาล	-3744
▁ปฏิบัติการ	-3745
▁เนื้อเรื่อง	-3746
ซับ	-3747
ONE	-3748
ens	-3749
ติบ	-3750
ย้าย	-3751
เวีย	-3752
เมริกัน	-3753
▁น้อยลง	-3754
มปัง	-3755
คที	-3756
▁หรอก	-3757
▁อเมริกัน	-3758
▁ความพยายาม	-3759
ผม	-3760
OT	-3761
▁ยอมรับ	-3762
▁ตลอดเวลา	-3763
all	-3764
สติก	-3765
โดยสาร	-3766
▁แมต	-3767
▁เฟอร์	-3768
▁โดยที่	-3769
▁ในที่สุด	-3770
16	-3771
▁มีผล	-3772
▁จนกว่า	-3773
แหละ	-3774
▁กระจ่าง	-3775
เทิง	-3776
▁แห่งชาติ	-3777
▁ออโต้	-3778
▁ร้านค้า	-3779
▁ไฟเบอร์	-3780
▁มกรา	-3781
▁ส่วนตัว	-3782
▁กระเป๋าส	-3783
▁ชําร	-3784
▁CH	-3785
เทียบ	-3786
ถาม	-3787
กรรมการ	-3788
▁วิป	-3789
▁ดีวี	-3790
สร	-3791
▁ปลา	-3792
ิร์ฟ	-3793
▁กระทะ	-3794
▁แล็ปท็อป	-3795
▁ดีวีดี	-3796
▁ความเชื่อ	-3797
▁แต่ว	-3798
ื้อง	-3799
เทล	-3800
▁รัสเซีย	-3801
▁ยาน	-3802
▁ศาล	-3803
▁บอร์ด	-3804
เซียน	-3805
ix	-3806
เสียด	-3807
▁โจมตี	-3808
te	-3809
▁ตื่นเต้น	-3810
▁เข้ากัน	-3811
▁เป็นครั้งแรก	-3812
แพง	-3813
ปเปอ	-3814
สิ้น	-3815
หลาด	-3816
▁ย้าย	-3817
▁เบาะ	-3818
ดัง	-3819
ณิชย์	-3820
มท่า	-3821
ure	-3822
▁แบน	-3823
▁ดาวน์	-3824
ร่าง	-3825
ือกต	-3826
ือกตั้ง	-3827
▁สิ่งของ	-3828
ุกร์	-3829
▁เต็มไป	-3830
der	-3831
ติบโต	-3832
ทับใจ	-3833
▁ทําให้เกิด	-3834
▁พฤษ	-3835
▁เอน	-3836
▁แกน	-3837
เคียง	-3838
▁HP	-3839
▁ม้วน	-3840
▁อันดับ	-3841
▁Par	-3842
อร์เน็ต	-3843
ึน	-3844
อนุ	-3845
▁อินเทอร์เน็ต	-3846
▁อุดม	-3847
่วยเหลือ	-3848
บน้ํา	-3849
▁พฤษภา	-3850
ชนิด	-3851
▁เหล่านั้น	-3852
IR	-3853
▁ศุกร์	-3854
เบียน	-3855
▁บรา	-3856
▁ผลไม้	-3857
▁App	-3858
▁ต่ํากว่า	-3859
้นํา	-3860
▁ที่เกิด	-3861
ne	-3862
▁ลิปสติก	-3863
ซิฟ	-3864
▁เที่ยว	-3865
▁ความมั่นใจ	-3866
▁อก	-3867
▁ดิจิตอล	-3868
▁ปกปิด	-3869
▁เปรียบเทียบ	-3870
ิ้ต	-3871
กฎหมาย	-3872
▁แปซิฟ	-3873
▁หน้าปัด	-3874
▁เงา	-3875
ole	-3876
▁อาเซียน	-3877
▁มกราคม	-3878
โหม	-3879
▁งอ	-3880
▁52	-3881
▁ปัก	-3882
▁คุณหนู	-3883
▁แม่เหล็ก	-3884
ดูด	-3885
▁อารมณ์	-3886
MI	-3887
่าร์	-3888
▁สังเคราะห์	-3889
▁พฤษภาคม	-3890
หลัก	-3891
▁นอกเหนือ	-3892
▁บังคับ	-3893
ูปอง	-3894
▁คูปอง	-3895
วณ	-3896
▁ชง	-3897
▁สุทธิ	-3898
▁น้ําแข็ง	-3899
▁ชมพู	-3900
เมน	-3901
▁ผู้บริ	-3902
BS	-3903
▁ลอก	-3904
▁เตียง	-3905
▁ไง	-3906
▁พรี	-3907
▁แม่นยํา	-3908
av	-3909
▁มหา	-3910
▁ซ้าย	-3911
▁รั่ว	-3912
▁คลาสสิค	-3913
แกน	-3914
▁2000	-3915
▁สว่าง	-3916
โหลด	-3917
▁k	-3918
าระ	-3919
▁ปิ้ง	-3920
▁ธัน	-3921
ยากาศ	-3922
ล้าง	-3923
▁ทางเลือก	-3924
จา	-3925
▁TH	-3926
▁จิต	-3927
CD	-3928
▁วอ	-3929
▁ถึงแ	-3930
▁แท็บ	-3931
▁แปซิฟิก	-3932
ิโคน	-3933
▁ฝ้าย	-3934
▁ซิลิโคน	-3935
▁บลู	-3936
▁เครื่องใช้	-3937
▁ดอลล่าร์	-3938
▁แมท	-3939
เลี้ยง	-3940
▁ระเบ	-3941
▁Mar	-3942
พร่อง	-3943
▁บรรจุภัณฑ์	-3944
▁หมอน	-3945
ทรอน	-3946
▁คณะกรรมการ	-3947
▁บาน	-3948
▁สะสม	-3949
▁สร้างสรรค์	-3950
▁ท็อป	-3951
▁รัฐมนตรี	-3952
ello	-3953
▁รวบ	-3954
▁บรรยากาศ	-3955
▁ถ่าน	-3956
ทรอนิกส์	-3957
สังเคราะห์	-3958
▁โต้	-3959
▁2556	-3960
▁แท่ง	-3961
▁ส่งคืน	-3962
ภาพันธ์	-3963
▁กุมภาพันธ์	-3964
▁ตวั	-3965
▁หิน	-3966
▁พรีเม	-3967
▁สัญ	-3968
▁การกระ	-3969
▁หลง	-3970
▁ความคิดเห็น	-3971
int	-3972
▁คริส	-3973
▁Mac	-3974
▁โน้ต	-3975
ดีต	-3976
▁คนขับ	-3977
▁ยุ่ง	-3978
▁องค์กร	-3979
ตั	-3980
▁Ed	-3981
▁บวก	-3982
▁ขอบใจ	-3983
▁ตุลา	-3984
▁ความสนใจ	-3985
เก็ต	-3986
▁หญิง	-3987
OP	-3988
▁เซต	-3989
▁มื้อ	-3990
▁เปปเปอ	-3991
▁ขยะ	-3992
อักษร	-3993
▁ํง	-3994
▁ไก่	-3995
▁คนใน	-3996
▁สมอง	-3997
บันเทิง	-3998
ซัก	-3999
▁สําเร็จ	-4000
▁พัดลม	-4001
▁เทคนิค	-4002
ไก	-4003
▁ตาย	-4004
▁เวน	-4005
▁คอเสื้อ	-4006
ถุน	-4007
▁คีย์	-4008
▁มิถุน	-4009
ผ่อน	-4010
▁ตุลาคม	-4011
▁SH	-4012
▁เส้นทาง	-4013
▁ความเสี่ยง	-4014
กรณี	-4015
▁กรก	-4016
▁Ex	-4017
▁ธันว	-4018
อากาศยาน	-4019
▁ท่าอากาศยาน	-4020
สัญญาณ	-4021
▁ตัวเลข	-4022
▁ไวท์	-4023
▁มิถุนายน	-4024
ิตามิน	-4025
▁วิตามิน	-4026
▁บอล	-4027
▁ผูก	-4028
▁47	-4029
▁ที่อื่น	-4030
▁เต็มไปด้วย	-4031
อาชีพ	-4032
▁ดา	-4033
ถียร	-4034
▁Co	-4035
▁กอ	-4036
▁ถือว่า	-4037
▁ธันวาคม	-4038
่มือ	-4039
▁ลิ้นชัก	-4040
▁07	-4041
ตัวเอง	-4042
ดาล	-4043
▁กรกฎ	-4044
▁คล่องตัว	-4045
▁ซัพพอร์ท	-4046
▁พลาด	-4047
▁ตัวเรือน	-4048
▁ความบันเทิง	-4049
สั่ง	-4050
ฟู	-4051
▁ศัก	-4052
▁ขวบ	-4053
▁สงสัย	-4054
▁ที่ทํางาน	-4055
จบ	-4056
กเปลี่ยน	-4057
▁ความสะอาด	-4058
▁ฤดูกาล	-4059
▁อาวุธ	-4060
th	-4061
▁ส่งออก	-4062
เชิ้ต	-4063
▁โจทย์	-4064
▁เสื้อเชิ้ต	-4065
lec	-4066
กดดัน	-4067
▁หัวข้อ	-4068
▁หนี้	-4069
▁แสดงให้เห็น	-4070
▁BL	-4071
▁มุ่ง	-4072
▁กรกฎาคม	-4073
โฟ	-4074
เอกสาร	-4075
▁สิ้นสุด	-4076
แจ้ง	-4077
▁แทบ	-4078
สุทธิ์	-4079
▁Bo	-4080
▁ครั้งนี้	-4081
ทูต	-4082
วย์	-4083
ชาการ	-4084
▁56	-4085
▁PU	-4086
▁ผู้นํา	-4087
ใย	-4088
▁ไกล	-4089
▁เฉดสี	-4090
▁โรงหนัง	-4091
▁Le	-4092
▁ค่าเงิน	-4093
▁Kitt	-4094
กังวล	-4095
บันดาล	-4096
▁สภา	-4097
ชีว	-4098
▁Ni	-4099
เสียดาย	-4100
▁อิเล็กทรอนิกส์	-4101
หาก	-4102
▁แพ้	-4103
้านี้	-4104
บันดาลใจ	-4105
▁แรงบันดาลใจ	-4106
ลาก	-4107
▁น่าเสียดาย	-4108
▁บิน	-4109
ง่	-4110
▁En	-4111
▁อดีต	-4112
อธิบาย	-4113
▁แบคที	-4114
▁แบคทีเรีย	-4115
▁ความถ	-4116
เช้า	-4117
▁ขับรถ	-4118
สําเร็จ	-4119
▁Kitty	-4120
▁ยุทธศาสตร์	-4121
ิสต์	-4122
▁ไปดู	-4123
ราชอาณาจักร	-4124
DP	-4125
▁ประกัน	-4126
▁มืออาชีพ	-4127
▁ยิง	-4128
▁อู่	-4129
▁ยาม	-4130
ทราบ	-4131
▁ความจริง	-4132
▁ออฟ	-4133
▁ประดับ	-4134
▁สเตนเลส	-4135
▁ตะวันตก	-4136
▁ถนัด	-4137
▁ขนมปัง	-4138
ows	-4139
อร์ม	-4140
เลิก	-4141
▁วิธีใช้	-4142
อป	-4143
ซ้อน	-4144
▁โค้ง	-4145
ฉลี่ย	-4146
▁โดยเฉลี่ย	-4147
▁ฉบับ	-4148
▁คู่มือ	-4149
▁ขีด	-4150
พาณิชย์	-4151
14	-4152
ตะวัน	-4153
▁เบลา	-4154
▁สหราชอาณาจักร	-4155
สนิม	-4156
เวล	-4157
▁58	-4158
▁จู	-4159
▁รวบรวม	-4160
▁วางแผน	-4161
▁เปล่งประกาย	-4162
่ห์	-4163
rip	-4164
▁เฮ้	-4165
▁ฟังเพลง	-4166
▁110	-4167
▁ภาษี	-4168
▁ฤดูหนาว	-4169
ทัน	-4170
▁ศาสนา	-4171
▁เมื่อไหร่	-4172
▁เป้	-4173
▁คงทน	-4174
ักษ์	-4175
▁Hello	-4176
สัญญา	-4177
เดียวกัน	-4178
▁มีชีวิต	-4179
ัศน์	-4180
▁เปียก	-4181
▁มาเล	-4182
▁ดินสอ	-4183
▁ความสะดวก	-4184
ear	-4185
▁บั	-4186
▁เกินดุล	-4187
▁พฤศ	-4188
เล็ต	-4189
▁ราว	-4190
เนื้อ	-4191
▁Phone	-4192
▁ทั้งนี้	-4193
▁LE	-4194
▁ทั้งปี	-4195
▁วัฒนธรรม	-4196
ืบ	-4197
ตวรรษ	-4198
ie	-4199
▁นักเขียน	-4200
▁ข้อผิดพลาด	-4201
▁พริก	-4202
▁การรักษา	-4203
▁แต่ว่า	-4204
วัล	-4205
ฉบับ	-4206
▁เบลาส์	-4207
▁ch	-4208
้ก	-4209
▁ซอฟต์	-4210
▁การเรียนรู้	-4211
▁ความช่วยเหลือ	-4212
33	-4213
กลัว	-4214
เต้	-4215
▁ดุล	-4216
▁มาเลเซีย	-4217
▁โซล	-4218
▁54	-4219
▁400	-4220
▁ยางยืด	-4221
18	-4222
▁บิ	-4223
หัว	-4224
เด็น	-4225
▁ปฏิ	-4226
ติด	-4227
▁เครือข่าย	-4228
▁ขวา	-4229
▁การออก	-4230
ose	-4231
▁กองกําลัง	-4232
▁ดุ	-4233
▁จนกระทั่ง	-4234
▁อาย	-4235
OC	-4236
▁ล็อก	-4237
จิกายน	-4238
▁พฤศจิกายน	-4239
ทางการ	-4240
▁ภายในประเทศ	-4241
▁AC	-4242
▁2554	-4243
▁ความค	-4244
สาท	-4245
▁หมายความ	-4246
▁ไดร	-4247
astane	-4248
▁นก	-4249
อ่อน	-4250
▁ล่วง	-4251
▁นอกจากนั้น	-4252
▁Micro	-4253
▁ไท	-4254
ity	-4255
▁นานา	-4256
เวียต	-4257
โฟน	-4258
ไทย	-4259
▁เทศ	-4260
เคมี	-4261
▁หรอ	-4262
▁หุ้น	-4263
▁ข้างนอก	-4264
▁เส้นใย	-4265
▁เอฟ	-4266
ฟริ	-4267
▁Wind	-4268
▁ส่วนประกอบ	-4269
▁เคลื่อนย้าย	-4270
▁กู	-4271
ช้า	-4272
ุดิบ	-4273
▁วัตถุดิบ	-4274
PA	-4275
▁มีค่า	-4276
ชาญ	-4277
▁198	-4278
ี่ยวชาญ	-4279
ush	-4280
▁ยูโร	-4281
ยง	-4282
▁ฉีก	-4283
oam	-4284
35	-4285
องค์	-4286
▁and	-4287
▁วจะ	-4288
▁ยกเลิก	-4289
ARD	-4290
▁ตลอดวัน	-4291
▁ชําระ	-4292
▁ปรุง	-4293
▁เต็มที่	-4294
kin	-4295
ี้ยว	-4296
▁เคเบิล	-4297
mo	-4298
ราน	-4299
▁AA	-4300
OD	-4301
าซ	-4302
พบ	-4303
▁ฆ่า	-4304
▁แอพ	-4305
▁ระดับสูง	-4306
▁เป็นประโยชน์	-4307
▁Mel	-4308
▁ชุบ	-4309
▁แสงแดด	-4310
▁ปรับปรุง	-4311
▁แล้วกัน	-4312
▁ลาเต้	-4313
บกพร่อง	-4314
ทุก	-4315
▁ว่าย	-4316
ers	-4317
▁หรูหรา	-4318
▁Mo	-4319
ress	-4320
▁เสถียร	-4321
MP	-4322
▁Ad	-4323
เดินทาง	-4324
แตะ	-4325
▁Polyester	-4326
▁ชุม	-4327
▁รังสี	-4328
▁นักเรียน	-4329
▁ซอฟต์แวร์	-4330
▁ดาวน์โหลด	-4331
▁นิวเคล	-4332
ิปต์	-4333
▁ทุกสิ่ง	-4334
▁การท่องเที่ยว	-4335
▁v	-4336
▁FIL	-4337
ORT	-4338
▁บิด	-4339
▁IP	-4340
▁ขึ้นกับ	-4341
▁62	-4342
▁ตัวอักษร	-4343
our	-4344
▁บริสุทธิ์	-4345
▁66	-4346
ประชา	-4347
ให้เกิด	-4348
▁ส้ม	-4349
หน้านี้	-4350
▁ก่อนหน้านี้	-4351
เริ	-4352
▁125	-4353
▁Apple	-4354
AY	-4355
▁รองเท้าแตะ	-4356
▁สตีล	-4357
▁จักรวรร	-4358
ํารอง	-4359
▁แรงกดดัน	-4360
▁เป็นทางการ	-4361
▁เยอรมัน	-4362
▁หล่อน	-4363
▁ตลาดโลก	-4364
▁เช่นนี้	-4365
พันธ	-4366
19	-4367
ใบ	-4368
▁หมายเลข	-4369
ได้ชัด	-4370
▁เห็นได้ชัด	-4371
ป์	-4372
▁cm	-4373
▁ป้อง	-4374
มือถือ	-4375
▁โทรศัพท์มือถือ	-4376
▁poly	-4377
ยาก	-4378
▁72	-4379
▁ดนตรี	-4380
▁นักลงทุน	-4381
▁360	-4382
ลิ	-4383
▁คุณค่า	-4384
▁มีชื่อ	-4385
ตื่น	-4386
เวลาน	-4387
ึน้	-4388
▁PL	-4389
จด	-4390
ลี	-4391
าบ	-4392
สี่	-4393
▁68	-4394
▁ดึงดูด	-4395
▁นําไป	-4396
▁สมดุล	-4397
▁จักรวรรดิ	-4398
สัตว์	-4399
▁นิยาย	-4400
indle	-4401
▁บอบ	-4402
เรล	-4403
▁49	-4404
▁จอห์	-4405
รภัย	-4406
▁สกรีน	-4407
เหลี่ยม	-4408
ขนส่ง	-4409
ลําดับ	-4410
▁พระองค์	-4411
▁สีเหลือง	-4412
▁สเปน	-4413
▁เซ็ต	-4414
▁เกณฑ์	-4415
ทะเบียน	-4416
▁รองพื้น	-4417
อิง	-4418
yl	-4419
▁ไวน	-4420
ันทร์	-4421
กลม	-4422
▁สวิต	-4423
▁ทู	-4424
▁UV	-4425
▁รูปร่าง	-4426
▁หมายความว่า	-4427
ant	-4428
ข้อม	-4429
▁ขนส่ง	-4430
32	-4431
▁57	-4432
▁อยู่แล้ว	-4433
▁ทวี	-4434
สกปรก	-4435
▁2562	-4436
▁สติก	-4437
▁สิ่งสกปรก	-4438
34	-4439
กาแฟ	-4440
▁มิน	-4441
▁ลอน	-4442
ศูนย์	-4443
▁ดินแดน	-4444
▁ใกล้เคียง	-4445
บี	-4446
▁เอ็น	-4447
บอน	-4448
รบ	-4449
oun	-4450
▁ก๊าซ	-4451
▁สติกเกอร์	-4452
▁การระ	-4453
▁รด	-4454
ory	-4455
▁บทวิจารณ์	-4456
เง	-4457
▁อย่างนั้น	-4458
▁แข่งขัน	-4459
▁เลข	-4460
CE	-4461
กุ	-4462
▁ล้ม	-4463
CH	-4464
ัวร์	-4465
▁ยังอยู่	-4466
▁EV	-4467
ข้าว	-4468
▁ในกรณี	-4469
ech	-4470
▁ระคายเคือง	-4471
อร์แลนด์	-4472
▁PP	-4473
▁เถ	-4474
hite	-4475
▁ประช	-4476
เฉียง	-4477
านกลาง	-4478
▁ฟู	-4479
▁Cre	-4480
▁ไหล่	-4481
ฝุ่น	-4482
▁Not	-4483
▁ตกลง	-4484
▁Car	-4485
อาง	-4486
▁ตู้เย็น	-4487
อต	-4488
▁Windows	-4489
▁เอ็ม	-4490
▁โชว์	-4491
▁ขนม	-4492
▁บอบบาง	-4493
▁SD	-4494
ราม	-4495
ฟริกา	-4496
เกจ	-4497
ish	-4498
▁เจ็ท	-4499
▁ทางการเมือง	-4500
อังกฤษ	-4501
▁ภาษาอังกฤษ	-4502
ดิต	-4503
▁ซอส	-4504
▁แล้	-4505
▁ดีเทล	-4506
ผู้หญิง	-4507
▁เหลือง	-4508
▁สะโพก	-4509
▁ขนาดที่	-4510
▁จาน	-4511
▁โซน	-4512
▁2553	-4513
▁ชิง	-4514
▁ถนอม	-4515
กรอก	-4516
▁อํา	-4517
สําอาง	-4518
▁เครื่องสําอาง	-4519
ไว้	-4520
▁นึก	-4521
▁แท็บเล็ต	-4522
uc	-4523
▁เจอกัน	-4524
ศูนย์กลาง	-4525
▁Sc	-4526
▁แลดู	-4527
จัง	-4528
▁180	-4529
▁จอห์น	-4530
ุทร	-4531
โทรศัพท์	-4532
▁คุณสมบัติพิเศษ	-4533
ญัติ	-4534
▁ถัด	-4535
หนะ	-4536
▁El	-4537
เริ่ม	-4538
▁ตัวย	-4539
▁คัพ	-4540
▁จังหวัด	-4541
ud	-4542
▁HE	-4543
ea	-4544
▁หน่วยงาน	-4545
▁ความนิยม	-4546
ody	-4547
ออง	-4548
▁ช่วยเหลือ	-4549
▁อีย	-4550
▁ว่ายน้ํา	-4551
ีรษ	-4552
ีรษะ	-4553
ff	-4554
มติ	-4555
๎าน	-4556
▁2551	-4557
รน	-4558
▁ถู	-4559
▁อํานาจ	-4560
▁ล่วงหน้า	-4561
๎า	-4562
โอกาส	-4563
จน	-4564
▁นิดหน่อย	-4565
▁Comp	-4566
ium	-4567
▁คงจะ	-4568
▁ที่ว่า	-4569
เซียส	-4570
▁เป่า	-4571
▁หัวใจ	-4572
มัด	-4573
ความจํา	-4574
▁ราคาแพง	-4575
▁เรียว	-4576
แย้ง	-4577
▁อุปสงค์	-4578
▁โดยทั่วไป	-4579
▁ไส้กรอก	-4580
▁ห้องครัว	-4581
เขต	-4582
้งค์	-4583
▁กรรม	-4584
▁ร้องเรียน	-4585
▁ประเด็น	-4586
▁อาบน้ํา	-4587
เคลื่อน	-4588
▁เด็กเล็ก	-4589
▁ก่อให้เกิด	-4590
17	-4591
▁Br	-4592
▁แค่น	-4593
▁สัญลักษณ์	-4594
▁มีเสียง	-4595
▁เครื่องใช้ไฟฟ้า	-4596
▁วิก	-4597
อร์เนีย	-4598
▁อียิปต์	-4599
ขาด	-4600
▁Ne	-4601
ประทาน	-4602
▁ผู้ขาย	-4603
๊ม	-4604
พรร	-4605
tive	-4606
▁สตรี	-4607
▁สมุด	-4608
▁PA	-4609
ครอบ	-4610
หวาน	-4611
บอร์ด	-4612
เครื่อง	-4613
▁ภายหลัง	-4614
▁เข้ารูป	-4615
▁า	-4616
ต้า	-4617
ment	-4618
▁ความถี่	-4619
คอน	-4620
ร้อง	-4621
▁การก	-4622
▁โรงงาน	-4623
▁ความชุ่มชื่น	-4624
ปฏิบัติ	-4625
▁คํานวณ	-4626
IDAS	-4627
▁เบส	-4628
▁เอเอ็ม	-4629
▁เสียหาย	-4630
▁หมาด	-4631
เมิน	-4632
▁แคลิฟ	-4633
▁โชคดี	-4634
▁ทางทหาร	-4635
▁กําลังจะ	-4636
▁แคลิฟอร์เนีย	-4637
▁ปะ	-4638
▁ค้นพบ	-4639
▁อินเทล	-4640
▁ADIDAS	-4641
▁กางเกงชั้นใน	-4642
▁หน่วยความจํา	-4643
ทะเล	-4644
▁เสิร์ฟ	-4645
▁เสียเวลา	-4646
อยล์	-4647
▁สัญญา	-4648
▁ความเชื่อมั่น	-4649
mart	-4650
▁h	-4651
ฟอก	-4652
อนา	-4653
วยอร์	-4654
▁แท่น	-4655
▁นิวยอร์	-4656
▁ปเตอร์	-4657
▁เหงื่อ	-4658
▁อิงค์	-4659
เซลเซียส	-4660
▁ปานกลาง	-4661
▁องศาเซลเซียส	-4662
IM	-4663
ต่ํา	-4664
▁สูญเสีย	-4665
หนา	-4666
▁ตัวต่อ	-4667
คะแนน	-4668
▁08	-4669
▁1000	-4670
▁ไดร์	-4671
▁สปอร์ต	-4672
esh	-4673
▁ลิ้งค์	-4674
▁ความรัก	-4675
▁สบ	-4676
หลวง	-4677
▁CL	-4678
▁NE	-4679
UL	-4680
▁ทันทีที่	-4681
36	-4682
เคย	-4683
▁อัด	-4684
▁กั	-4685
▁89	-4686
22	-4687
▁ลงทุน	-4688
▁ภู	-4689
ขวาง	-4690
▁มัล	-4691
▁Black	-4692
บร	-4693
ค้าน	-4694
▁ถัก	-4695
▁แต่งตัว	-4696
▁งาม	-4697
ธิป	-4698
▁ธนาคารกลาง	-4699
กรัฐ	-4700
▁220	-4701
ด้วยกัน	-4702
▁เข้าด้วยกัน	-4703
▁เครื่องจักร	-4704
▁76	-4705
▁ทุ	-4706
แน่น	-4707
▁2016	-4708
▁78	-4709
เพลิง	-4710
▁ขีป	-4711
▁ดิบ	-4712
▁เมน	-4713
▁เซนต์	-4714
▁พระราช	-4715
▁MA	-4716
นาวุธ	-4717
หลาดใจ	-4718
▁Kindle	-4719
▁ความสด	-4720
▁ขีปนาวุธ	-4721
ace	-4722
mer	-4723
▁นุ	-4724
▁เป็นอัน	-4725
▁99	-4726
▁ที่เก็บ	-4727
หมึก	-4728
▁คําสั่ง	-4729
▁เป็นตัว	-4730
▁mm	-4731
▁ทรัพย์	-4732
ps	-4733
▁สอบ	-4734
▁สนิท	-4735
▁แม่น้ํา	-4736
▁รั	-4737
ื้อน	-4738
▁คารา	-4739
ไกล	-4740
ater	-4741
ที่ยง	-4742
บุคคล	-4743
▁ชี	-4744
ลื่น	-4745
▁Cro	-4746
อนุญาต	-4747
▁ข้อเสีย	-4748
ore	-4749
▁98	-4750
▁MP	-4751
▁สรี	-4752
าเล	-4753
ุณา	-4754
▁จับคู่	-4755
▁รับได้	-4756
▁ทีเดียว	-4757
มส์	-4758
▁สงวน	-4759
จาน	-4760
อนาคต	-4761
▁เงียบ	-4762
ทัศน์	-4763
▁พักผ่อน	-4764
▁อ้างอิง	-4765
▁การขนส่ง	-4766
▁ยี	-4767
▁ข้อเท้า	-4768
▁ความผิด	-4769
ink	-4770
▁ศีรษะ	-4771
นูญ	-4772
▁GDP	-4773
▁พนักงาน	-4774
ไตย	-4775
ธิปไตย	-4776
กง	-4777
ung	-4778
▁ตัวยง	-4779
▁ละลาย	-4780
▁กระดาน	-4781
est	-4782
▁เมล็ด	-4783
▁การออกกําลังกาย	-4784
IF	-4785
▁ที่สี่	-4786
▁อันเป็น	-4787
▁59	-4788
▁องค์ประกอบ	-4789
▁๎า	-4790
ร่วม	-4791
ถี	-4792
ช่วย	-4793
▁หลอดไฟ	-4794
▁ผู้บริโภค	-4795
▁่	-4796
▁ทศ	-4797
▁คุย	-4798
ash	-4799
สมุทร	-4800
▁คีย์บอร์ด	-4801
▁เกมส์	-4802
▁ทั้งคู่	-4803
สบการณ์	-4804
▁มีประสบการณ์	-4805
▁คําอธิบาย	-4806
▁เห็ด	-4807
ป้อง	-4808
▁จ้าง	-4809
▁เบื้อง	-4810
IO	-4811
ด่าง	-4812
▁195	-4813
าศัย	-4814
▁สํานัก	-4815
▁การปกป้อง	-4816
▁เสถียรภาพ	-4817
▁BT	-4818
เซ็น	-4819
เทียม	-4820
เลือกตั้ง	-4821
แพทย์	-4822
สั้น	-4823
▁หมวก	-4824
▁เท็ม	-4825
▁SM	-4826
ยภาพ	-4827
▁LCD	-4828
▁เติบโต	-4829
▁ถนัดมือ	-4830
ทาย	-4831
▁PC	-4832
วกาศ	-4833
ต่างประเทศ	-4834
กว	-4835
ob	-4836
▁PRO	-4837
▁แจ็ค	-4838
▁105	-4839
▁นิวเคลียร์	-4840
▁สล	-4841
▁เลเซอร์	-4842
ทหาร	-4843
พื้นฐาน	-4844
▁กราฟิก	-4845
▁อลูมิเนียม	-4846
▁04	-4847
▁กรุณา	-4848
▁ในอนาคต	-4849
็กส์	-4850
ม้ว่า	-4851
▁หลายอย่าง	-4852
กรัฐมนตรี	-4853
▁ถึงแม้ว่า	-4854
▁คําถาม	-4855
สภา	-4856
▁88	-4857
▁จุใจ	-4858
▁ภาพถ่าย	-4859
พิง	-4860
▁แนบ	-4861
▁สั่น	-4862
สถ	-4863
ข่าว	-4864
▁หน้าต่าง	-4865
ปู	-4866
▁ท้า	-4867
▁ตามลําดับ	-4868
▁ชัน	-4869
▁นวด	-4870
พันธุ์	-4871
▁พนัก	-4872
▁เสื้อชั้นใน	-4873
▁เดา	-4874
ากล	-4875
▁สะพาย	-4876
▁ประการ	-4877
VE	-4878
▁ร่า	-4879
▁ลีก	-4880
▁หมา	-4881
▁เป็นระเบียบ	-4882
▁หลับ	-4883
ทนา	-4884
▁800	-4885
▁ี	-4886
ะพาย	-4887
▁วิจ	-4888
▁กระเป๋าสะพาย	-4889
EAR	-4890
PHONE	-4891
ชีวา	-4892
โกแล	-4893
▁มิล	-4894
▁โปร่ง	-4895
สะโพก	-4896
▁chart	-4897
▁สาเหตุ	-4898
▁รอบสะโพก	-4899
▁ตั๋วหนัง	-4900
se	-4901
ข้าม	-4902
▁เลิก	-4903
▁Pr	-4904
▁เลือน	-4905
ิยม	-4906
▁ไดรฟ์	-4907
▁ศักยภาพ	-4908
24	-4909
จน์	-4910
พิษ	-4911
▁สีน้ําตาล	-4912
▁ชื้น	-4913
▁ประชากร	-4914
ยาว	-4915
ก้าว	-4916
โกแลต	-4917
▁ตะขอ	-4918
▁แรงลม	-4919
▁ดูดซับ	-4920
▁ปู	-4921
▁แบล	-4922
▁ความเห็น	-4923
▁หิ้ว	-4924
ธรรมนูญ	-4925
▁2552	-4926
▁กุญแจ	-4927
▁หน้าอก	-4928
ART	-4929
▁สุดยอด	-4930
▁การนํา	-4931
▁ขับเคลื่อน	-4932
รอบ	-4933
▁06	-4934
▁197	-4935
▁ตระ	-4936
▁ทับ	-4937
▁ปาร์	-4938
็กซิ	-4939
▁วัตถุประสงค์	-4940
▁เหย	-4941
▁คาเฟ	-4942
▁พูดว่า	-4943
▁สาธารณะ	-4944
ox	-4945
▁HDMI	-4946
▁ปั๊ม	-4947
▁มีราคา	-4948
▁มั่น	-4949
▁เถอะ	-4950
▁จันทร์	-4951
▁PH	-4952
onic	-4953
▁โกน	-4954
▁สํารอง	-4955
ร้า	-4956
▁BLU	-4957
นวย	-4958
อํานาจ	-4959
▁พล็อต	-4960
▁ราวกับ	-4961
▁สารเคมี	-4962
oft	-4963
นน	-4964
มะ	-4965
▁ทุน	-4966
▁ซับซ้อน	-4967
▁แอฟริกา	-4968
ice	-4969
▁ข่าว	-4970
▁การวาง	-4971
ฝาก	-4972
▁Un	-4973
▁เนอร์	-4974
▁สบู่	-4975
▁โอน	-4976
▁BLACK	-4977
หนี้	-4978
▁Nike	-4979
▁เมอร์	-4980
▁วิทยาศาสตร์	-4981
▁้	-4982
▁ตลก	-4983
▁นาม	-4984
▁ฟังก์ชัน	-4985
ang	-4986
▁หลาน	-4987
▁ไวน์	-4988
13	-4989
▁เก็บรักษา	-4990
▁ติดกับ	-4991
ph	-4992
▁ชั่น	-4993
▁เปลว	-4994
▁แฟล	-4995
ะนั้น	-4996
▁ทดแทน	-4997
ree	-4998
▁ห้าง	-4999
▁อบอุ่น	-5000
สมผล	-5001
เหตุสมผล	-5002
▁ห้องน้ํา	-5003
▁ยับ	-5004
▁ศึกษา	-5005
ริญ	-5006
ลาม	-5007
▁ห่อ	-5008
▁์	-5009
▁ว่างงาน	-5010
▁Hz	-5011
▁เนย	-5012
▁ให	-5013
▁Out	-5014
▁การวางแผน	-5015
ํอ	-5016
อัด	-5017
เวฟ	-5018
▁ซี่	-5019
▁รายจ่าย	-5020
แพ้	-5021
io	-5022
▁เว้น	-5023
▁สายตา	-5024
▁จอแสดง	-5025
เกาะ	-5026
▁สมเหตุสมผล	-5027
▁ทวน	-5028
▁ที่ว่าง	-5029
▁นานาชาติ	-5030
▁แลกเปลี่ยน	-5031
ition	-5032
ฟท์	-5033
▁องค์การ	-5034
มพูชา	-5035
▁สถาป	-5036
▁เม็กซิ	-5037
▁กัมพูชา	-5038
ประชาชาติ	-5039
▁นายกรัฐมนตรี	-5040
GE	-5041
▁อืม	-5042
▁ชุมชน	-5043
▁จอแสดงผล	-5044
าว์	-5045
เกล	-5046
▁ข้า	-5047
▁ใดๆ	-5048
▁คาร์บอน	-5049
TH	-5050
▁ต่างชาติ	-5051
▁การปรับปรุง	-5052
▁คุ	-5053
▁กลับบ้าน	-5054
แมน	-5055
▁สรุป	-5056
▁กลางคืน	-5057
▁พิก	-5058
▁มอค	-5059
AP	-5060
ual	-5061
▁ตาก	-5062
▁เปลวไฟ	-5063
▁เข็มขัด	-5064
▁น่ากลัว	-5065
af	-5066
▁ทอด	-5067
▁คิ้ว	-5068
▁อนุญาต	-5069
▁พร้อมด้วย	-5070
▁เต้า	-5071
▁53	-5072
▁ทําหน้าที่	-5073
▁ทวีป	-5074
▁กล้าม	-5075
▁เช่นนั้น	-5076
วนิ	-5077
▁SK	-5078
▁นวนิ	-5079
▁เจ็บ	-5080
▁มอคค่า	-5081
▁นวนิยาย	-5082
▁หรือเปล่า	-5083
▁สัตว์เลี้ยง	-5084
less	-5085
▁กลัว	-5086
▁ข้างใน	-5087
▁นิรภัย	-5088
▁ฟื้นฟู	-5089
▁จัดตั้ง	-5090
▁พร้อมกัน	-5091
▁ลาก	-5092
▁ต้นทุน	-5093
บุ๊ค	-5094
▁ท้าทาย	-5095
▁ย้อน	-5096
▁สกปรก	-5097
▁บาย	-5098
▁เลว	-5099
▁เศษ	-5100
▁ภาชนะ	-5101
▁เจนท์	-5102
▁e	-5103
age	-5104
ื่อม	-5105
▁นอร์	-5106
▁โปแลนด์	-5107
▁คอร์	-5108
▁อาทิตย์	-5109
▁เครื่องดูด	-5110
▁เทียม	-5111
▁Th	-5112
เท่า	-5113
▁ในกรณีที่	-5114
▁Cle	-5115
ต่อสู้	-5116
▁ไขมัน	-5117
เผ	-5118
มวล	-5119
▁มินิ	-5120
ak	-5121
▁คลื่น	-5122
▁ต้นฉบับ	-5123
▁เพิ่มประ	-5124
ECT	-5125
มุน	-5126
▁น่าเชื่อ	-5127
act	-5128
▁ผิ	-5129
▁ตัวอย่างเช่น	-5130
แซ	-5131
▁51	-5132
▁นอ	-5133
ทึก	-5134
▁OS	-5135
▁ลอ	-5136
ติเมตร	-5137
▁อิตาเล	-5138
▁จักรยาน	-5139
▁ล๎าน	-5140
▁การเลือกตั้ง	-5141
▁กฎ	-5142
▁การเช่า	-5143
▁ปลด	-5144
▁92	-5145
▁นค	-5146
▁ฮี	-5147
UP	-5148
▁He	-5149
▁ผ่า	-5150
▁สแกน	-5151
กซ์	-5152
ชิด	-5153
▁โก้	-5154
▁เซราม	-5155
▁เปลี่ยนแปลง	-5156
ase	-5157
▁โคม	-5158
▁MS	-5159
▁หยด	-5160
▁คล้อง	-5161
▁ผู้เช	-5162
▁ตั้งเวลา	-5163
▁ผู้เชี่ยวชาญ	-5164
รบกวน	-5165
▁ฝั่ง	-5166
▁เลิฟ	-5167
▁ขาดดุล	-5168
▁นิวยอร์ก	-5169
▁ล้ําลึก	-5170
ian	-5171
มอบ	-5172
▁o	-5173
ick	-5174
รย์	-5175
▁IS	-5176
่องกง	-5177
▁การตัด	-5178
▁กองทัพเรือ	-5179
มัดระวัง	-5180
▁67	-5181
▁EU	-5182
▁ต้ม	-5183
▁แผ่นดิน	-5184
ect	-5185
▁Gre	-5186
▁Cream	-5187
▁ถ่ายภาพ	-5188
▁หมู่เกาะ	-5189
▁ทุกชนิด	-5190
▁Ser	-5191
▁อันตราย	-5192
pi	-5193
▁Ph	-5194
เคิล	-5195
ยาบาล	-5196
ุ้นเคย	-5197
▁พรีเมี่ยม	-5198
เนา	-5199
▁หลวม	-5200
▁อัลม	-5201
ึบ	-5202
สมา	-5203
▁Sup	-5204
▁พึง	-5205
▁รํา	-5206
▁ฮ่องกง	-5207
ลูก	-5208
▁Min	-5209
▁ขณะนี้	-5210
▁ลัก	-5211
▁เพอร์	-5212
▁คาราเมล	-5213
▁ภาพรวม	-5214
▁รูปลักษณ์	-5215
▁ภาคอุตสาหกรรม	-5216
▁พร้อมทั้ง	-5217
ยับ	-5218
ิร์ต	-5219
▁ย่อย	-5220
▁ผู้โดยสาร	-5221
ain	-5222
▁เคมี	-5223
ลุ	-5224
ประดับ	-5225
▁ฝาครอบ	-5226
▁ด้วยตัวเอง	-5227
▁86	-5228
▁ผลงาน	-5229
▁เป็นมิตร	-5230
๊ส	-5231
ies	-5232
tra	-5233
เข้ม	-5234
▁ชนะ	-5235
ly	-5236
ศ์	-5237
าดา	-5238
เส้น	-5239
▁เสน่ห์	-5240
▁ดร	-5241
ตั๋ว	-5242
ส้ม	-5243
ิทธิพล	-5244
โยง	-5245
▁09	-5246
รอ้ย	-5247
▁อวกาศ	-5248
▁วันเกิด	-5249
▁กล้ามเนื้อ	-5250
กัส	-5251
พอใจ	-5252
ีฬา	-5253
▁กลไก	-5254
ิกซ์	-5255
กอก	-5256
▁สอน	-5257
▁เพราะว่า	-5258
ble	-5259
รีส์	-5260
▁อะลูมิเนียม	-5261
39	-5262
▁รีโม	-5263
▁เค้า	-5264
▁มาสก	-5265
▁ไปหา	-5266
▁ธงชาติ	-5267
๊ต	-5268
▁TV	-5269
เวย์	-5270
▁ลี่	-5271
▁นิ่ม	-5272
ซีแลนด์	-5273
▁ทรงพลัง	-5274
▁ให้ความ	-5275
▁ฉลาก	-5276
▁ฮาร์ด	-5277
▁Mat	-5278
▁สะกด	-5279
เธ	-5280
คาม	-5281
▁มน	-5282
ซ้ํา	-5283
▁ฉีด	-5284
ธิการ	-5285
▁นิวซีแลนด์	-5286
เวียน	-5287
▁ถั่ว	-5288
▁น้ําหมึก	-5289
ong	-5290
ww	-5291
ids	-5292
ิ้ม	-5293
▁งด	-5294
▁บัน	-5295
▁โคตร	-5296
▁สงวนสิทธิ์	-5297
IGH	-5298
▁196	-5299
▁พันธมิตร	-5300
ood	-5301
▁น้	-5302
▁เอช	-5303
▁ซีรีส์	-5304
▁บริษัทฯ	-5305
ประจําวัน	-5306
▁พนักพิง	-5307
ซิส	-5308
▁มันดี	-5309
▁เบื่อ	-5310
IP	-5311
▁วาด	-5312
▁ทางทะเล	-5313
ams	-5314
พระ	-5315
ิทยา	-5316
สว่าง	-5317
▁เรื่อย	-5318
▁เคลื่อนที่	-5319
าร์ก	-5320
▁2548	-5321
▁ประหลาดใจ	-5322
▁นอกเหนือจาก	-5323
าวน์	-5324
▁ค้าง	-5325
ยากร	-5326
▁อัลมอนด์	-5327
▁ฟัน	-5328
วยงาม	-5329
▁เสาร์	-5330
▁ความสวยงาม	-5331
▁งก	-5332
▁ํอน	-5333
▁เชื่อมโยง	-5334
lex	-5335
รัส	-5336
▁รึ	-5337
งบประมาณ	-5338
pl	-5339
คิว	-5340
▁ไมโครเวฟ	-5341
enc	-5342
ตรา	-5343
▁ฟา	-5344
▁แอร์	-5345
▁ทศวรรษ	-5346
▁ระเบิด	-5347
▁เครื่องยนต์	-5348
▁ภาวะเศรษฐกิจ	-5349
▁เครื่องประดับ	-5350
▁คุกคาม	-5351
▁เลี้ยง	-5352
▁ชี้	-5353
▁Board	-5354
ราณ	-5355
▁CD	-5356
หลับ	-5357
▁EX	-5358
ticle	-5359
IZ	-5360
OU	-5361
เข็น	-5362
เนิด	-5363
▁ABS	-5364
▁Lif	-5365
▁รถเข็น	-5366
▁จอด	-5367
▁เลวร้าย	-5368
▁Fit	-5369
▁เย็นสบาย	-5370
▁กระทรวงการ	-5371
่ย	-5372
▁มู	-5373
กําหนด	-5374
▁การต่อสู้	-5375
▁ทรัพย์สิน	-5376
▁รับประทาน	-5377
▁ปีงบประมาณ	-5378
▁พวง	-5379
เชื้อ	-5380
▁ตอนจบ	-5381
▁ก่อนอื่น	-5382
▁หุง	-5383
▁ใยสังเคราะห์	-5384
โอน	-5385
▁คริสต	-5386
กี้	-5387
เยาว์	-5388
▁อิ่ม	-5389
▁ขาตั้ง	-5390
อการ	-5391
▁น้ําเย็น	-5392
▁2015	-5393
▁ชั้นนอก	-5394
▁2549	-5395
▁Notes	-5396
▁กล่าวถึง	-5397
▁รับสัญญาณ	-5398
▁เค้ก	-5399
▁เครื่องดูดฝุ่น	-5400
บริหาร	-5401
อล์ฟ	-5402
▁สับ	-5403
เดต	-5404
▁the	-5405
ข้อมือ	-5406
ปิ้ง	-5407
▁มั่นคง	-5408
▁สะดุดตา	-5409
▁ฟล	-5410
เข็บ	-5411
▁สระ	-5412
▁เงินฝาก	-5413
▁EL	-5414
▁el	-5415
▁แมทช์	-5416
▁ตะเข็บ	-5417
จ้าง	-5418
▁เชื้อเพลิง	-5419
PU	-5420
▁การปกครอง	-5421
▁ปีก	-5422
เครดิต	-5423
▁ผู้ให้	-5424
▁นิยม	-5425
▁ว่าที่	-5426
▁MIC	-5427
▁สีกร	-5428
▁โมเด	-5429
▁สมาคม	-5430
▁เงินทุน	-5431
▁สีกรมท่า	-5432
IA	-5433
PE	-5434
▁ถอน	-5435
▁ค่อย	-5436
▁ชงกาแฟ	-5437
▁ผิวหนัง	-5438
กลา	-5439
เนอร์	-5440
เรียบ	-5441
▁2547	-5442
กลาโหม	-5443
▁จักรพรร	-5444
▁ก้าวเดิน	-5445
▁มีชื่อเสียง	-5446
▁กระทรวงกลาโหม	-5447
▁ตํารวจ	-5448
▁สภาพอากาศ	-5449
pe	-5450
หาด	-5451
ริยา	-5452
▁Dri	-5453
ทึ่ง	-5454
สมัคร	-5455
เครียด	-5456
่อาศัย	-5457
▁น่าทึ่ง	-5458
▁ควรจะเป็น	-5459
▁เศรษฐ	-5460
▁คาดการณ์	-5461
▁การกระทํา	-5462
▁สับสน	-5463
▁สเปค	-5464
ญญา	-5465
▁อ่อนน	-5466
▁เสียชีวิต	-5467
▁คนเดียว	-5468
▁กลางแจ้ง	-5469
▁ประทับใจ	-5470
ู่อาศัย	-5471
กร้อง	-5472
▁รวมกัน	-5473
▁เสมือน	-5474
ารก	-5475
คราว	-5476
▁Particle	-5477
▁เส้นผ่าน	-5478
▁Be	-5479
▁เบน	-5480
▁บัตรเครดิต	-5481
ุษ	-5482
▁96	-5483
ปุ่ม	-5484
ond	-5485
▁วิทยุ	-5486
▁ทีหลัง	-5487
▁แคนาดา	-5488
็อบ	-5489
▁ละมุน	-5490
▁คงอยู่	-5491
▁อ่อนนุ่ม	-5492
▁เซนติเมตร	-5493
▁pro	-5494
▁Blue	-5495
เฉียงใต้	-5496
▁เป็นปัญหา	-5497
๊ด	-5498
▁จาง	-5499
▁ท้าย	-5500
▁มอน	-5501
กาลูก	-5502
▁พิพิ	-5503
▁ผู้จัด	-5504
ตื่นเต้น	-5505
▁จองตั๋ว	-5506
กาลูกลื่น	-5507
▁ปากกาลูกลื่น	-5508
ชิญ	-5509
▁พิพิธ	-5510
▁เทอร์	-5511
▁เผชิญ	-5512
▁Sl	-5513
▁2010	-5514
▁หุ่น	-5515
▁แต่งหน้า	-5516
▁MB	-5517
้นท์	-5518
▁พึ่ง	-5519
▁ลงมา	-5520
จํากัด	-5521
▁ออเดอร์	-5522
▁แฟลช	-5523
ําเข้า	-5524
▁จ้างงาน	-5525
▁ประโยชน์	-5526
เวลานาน	-5527
▁ใช้เวลานาน	-5528
▁การตัดสินใจ	-5529
▁เป็นอันตราย	-5530
yn	-5531
▁ทะ	-5532
▁ร่ม	-5533
▁น้องๆ	-5534
ตํา	-5535
▁กลา	-5536
▁กดปุ่ม	-5537
▁โลชั่น	-5538
▁ร่วง	-5539
รองเท้า	-5540
▁175	-5541
▁ชิน	-5542
▁พ่น	-5543
บีคิว	-5544
▁กึ่ง	-5545
▁รอ้ย	-5546
▁แข็งค่า	-5547
▁บาร์บีคิว	-5548
กีฬา	-5549
เต็ด	-5550
▁ชิค	-5551
▁สติ	-5552
▁ร่อง	-5553
ม่วง	-5554
▁ร้า	-5555
การค้า	-5556
48	-5557
▁จม	-5558
▁สํ	-5559
▁ปัด	-5560
▁มาย	-5561
▁โฟกัส	-5562
▁Light	-5563
แอ	-5564
จีน	-5565
้าส์	-5566
▁พรม	-5567
ขายาว	-5568
เด็กซ์	-5569
▁กางเกงขายาว	-5570
▁สรีระ	-5571
จําเป็น	-5572
ว่าย	-5573
▁ฝัน	-5574
่ารัก	-5575
▁กระท	-5576
เข้าใจ	-5577
▁ความน่ารัก	-5578
ial	-5579
รจา	-5580
เจ็บ	-5581
ไหล่	-5582
VD	-5583
เหมาะ	-5584
▁63	-5585
▁ลุ	-5586
▁ถัดไป	-5587
▁สีผิว	-5588
AX	-5589
▁Tr	-5590
▁รีดผ้า	-5591
▁ปอนด์	-5592
▁ได้ผล	-5593
▁เซ็กส์	-5594
▁69	-5595
▁เข้ากันได้	-5596
▁re	-5597
เปอร์	-5598
ว่ายน้ํา	-5599
▁ข้างหน้า	-5600
EF	-5601
▁กรี	-5602
นิ้ว	-5603
▁ปวด	-5604
ได	-5605
▁เดี่ยว	-5606
▁r	-5607
คาญ	-5608
▁dpi	-5609
▁เสรี	-5610
ลบ	-5611
ละออง	-5612
▁พิพิธภัณฑ์	-5613
▁บทความ	-5614
▁สวิตช์	-5615
▁เสียงดัง	-5616
กอ	-5617
▁elastane	-5618
▁ให้คะแนน	-5619
ขึน้	-5620
เซ็นต์	-5621
▁EC	-5622
▁Gl	-5623
▁สันติ	-5624
BL	-5625
ouch	-5626
▁ฝุ่นละออง	-5627
▁Smart	-5628
▁สเปรย์	-5629
▁บ้า	-5630
ฤษฎ	-5631
▁Foam	-5632
▁ถ่ายโอน	-5633
▁ความกังวล	-5634
กระด	-5635
▁ONE	-5636
▁ด่วน	-5637
▁โซลู	-5638
▁ไมโครโฟน	-5639
▁รัฐธรรมนูญ	-5640
ซิล	-5641
▁ภูเขา	-5642
igh	-5643
▁210	-5644
สงสัย	-5645
▁ตะกร	-5646
เทพ	-5647
บังคับ	-5648
▁จักรพรรดิ	-5649
▁แพทย์	-5650
▁ที่จับ	-5651
▁บาร์เรล	-5652
านิ	-5653
ular	-5654
▁เปอร์เซ็นต์	-5655
▁ยิ่งใหญ่	-5656
▁ครึ่งหลัง	-5657
อลล์	-5658
▁ข้อมือ	-5659
▁160	-5660
▁Lip	-5661
▁รีโมท	-5662
ep	-5663
▁เรียง	-5664
▁ความสุข	-5665
ม่า	-5666
▁ไหว	-5667
▁สกุล	-5668
▁ประกาย	-5669
▁แรงงาน	-5670
▁ป่า	-5671
▁ฝ่า	-5672
▁ไข่	-5673
▁มุ	-5674
▁เผยแ	-5675
owerbuy	-5676
ov	-5677
บ่าย	-5678
▁เที่ยง	-5679
oll	-5680
พิพ	-5681
ทดสอบ	-5682
▁ตอนบ่าย	-5683
▁MM	-5684
ited	-5685
▁AND	-5686
▁เด้	-5687
▁จังหวะ	-5688
ไน	-5689
๋ง	-5690
▁แป้น	-5691
▁ชุ่มชื้น	-5692
▁พั	-5693
ปลั่ง	-5694
▁สตรีท	-5695
▁หลักฐาน	-5696
38	-5697
▁Top	-5698
▁ส่อง	-5699
▁สินค้าน	-5700
▁สินค้านําเข้า	-5701
▁Ey	-5702
▁รั่ม	-5703
▁รัฐสภา	-5704
▁ศิลปิน	-5705
▁ผู้อ่าน	-5706
▁เปล่งปลั่ง	-5707
เสธ	-5708
▁สมมติ	-5709
▁Mix	-5710
▁Pad	-5711
ญากาศ	-5712
▁ทรัพ	-5713
▁เจรจา	-5714
เทม	-5715
รุ่น	-5716
▁ไอเทม	-5717
▁ปฏิเสธ	-5718
โรค	-5719
▁แฮม	-5720
▁กรุงเทพ	-5721
พร่	-5722
▁จอร์	-5723
co	-5724
โต๊ะ	-5725
▁โน่	-5726
▁ตัวแทน	-5727
29	-5728
เล่ม	-5729
▁เสียงรบกวน	-5730
erg	-5731
▁ไพ	-5732
▁ถือเป็น	-5733
▁ระดับเสียง	-5734
เก่า	-5735
amide	-5736
▁โดยอ	-5737
▁ช้อน	-5738
▁คุ้นเคย	-5739
▁นอนหลับ	-5740
▁แนวตั้ง	-5741
ปฏิบัติการ	-5742
▁แก้ไขปัญหา	-5743
พูด	-5744
▁ซัน	-5745
เหงื่อ	-5746
▁เอาชนะ	-5747
▁Can	-5748
▁2550	-5749
▁ซับเหงื่อ	-5750
▁วันพร	-5751
▁เสียใจ	-5752
▁ความสว่าง	-5753
▁fit	-5754
amine	-5755
็กซี่	-5756
▁ความต	-5757
เลอร์	-5758
78	-5759
▁ไบ	-5760
บันทึก	-5761
▁วันพรุ่งนี้	-5762
ust	-5763
▁2014	-5764
▁เพื่อที่จะ	-5765
▁White	-5766
▁COMP	-5767
44	-5768
▁61	-5769
▁ฟี	-5770
▁เบจ	-5771
▁นางแบบ	-5772
▁เอาไว้	-5773
ตะวันออก	-5774
▁สังเกตเห็น	-5775
▁ส่งมอบ	-5776
▁ชีวิตประจําวัน	-5777
▁กัก	-5778
▁ชายหาด	-5779
▁ธนาคารพาณิชย์	-5780
ิวน	-5781
▁350	-5782
▁cotton	-5783
PI	-5784
ํารง	-5785
▁อริ	-5786
▁ก่อตั้ง	-5787
▁ส่วนเกิน	-5788
ale	-5789
▁สนธิ	-5790
ฉะนั้น	-5791
▁AS	-5792
ปรับ	-5793
▁ลิง	-5794
ัมผัส	-5795
ตอบแทน	-5796
▁เข้าเล่ม	-5797
▁วิศ	-5798
ําร้อน	-5799
▁งบ	-5800
วลต์	-5801
▁โวลต์	-5802
▁การวิจัย	-5803
▁1200	-5804
▁กระป	-5805
▁ตัวเล็ก	-5806
AST	-5807
▁มีทาง	-5808
▁Sams	-5809
▁เด่น	-5810
▁คาเฟ่	-5811
▁ออยล์	-5812
ขัดแย้ง	-5813
ull	-5814
ดํา	-5815
▁My	-5816
สะพัด	-5817
▁เปิดตัว	-5818
▁โยก	-5819
▁เจอร์	-5820
สมาชิก	-5821
อลเลย์	-5822
▁วอลเลย์	-5823
สูตร	-5824
รู้จัก	-5825
▁ว่าด้วย	-5826
วงศ์	-5827
▁อิรัก	-5828
▁เหล่า	-5829
▁ต่อสู้	-5830
▁ชั้นนํา	-5831
▁รุก	-5832
ซักฟอก	-5833
▁เป็นสนิม	-5834
▁AR	-5835
▁เดน	-5836
▁เผยแพร่	-5837
▁นาฬิกาข้อมือ	-5838
ath	-5839
ord	-5840
▁FILA	-5841
▁วอลเลย์บอล	-5842
ans	-5843
อการร้าย	-5844
▁ต่างหาก	-5845
▁รุ	-5846
▁เวอร์ชั่น	-5847
pper	-5848
▁Mem	-5849
▁ทรงกลม	-5850
บายอากาศ	-5851
▁ถุงเท้า	-5852
▁เครื่องครัว	-5853
พารา	-5854
พยาบาล	-5855
▁เลือด	-5856
▁แว่นตา	-5857
การทดสอบ	-5858
▁ยางพารา	-5859
▁ผ่านการทดสอบ	-5860
เลย	-5861
▁โรแมน	-5862
ail	-5863
ขนาด	-5864
างค์	-5865
▁ต้าน	-5866
▁ยูวี	-5867
▁ประสบความ	-5868
▁เสา	-5869
▁แลนด์	-5870
▁โบราณ	-5871
▁นี้แหละ	-5872
▁ผิดปกติ	-5873
ASS	-5874
▁Ul	-5875
วิทย	-5876
ึดอัด	-5877
▁รางวัล	-5878
▁115	-5879
▁มีโอกาส	-5880
▁อิตาเลียน	-5881
าท์	-5882
▁บริหาร	-5883
▁อ่อนเยาว์	-5884
▁LA	-5885
▁บาด	-5886
▁บุคล	-5887
▁จับเวลา	-5888
▁สงครามโลก	-5889
▁เครื่องล้าง	-5890
สูจน์	-5891
▁Melamine	-5892
▁ราชอาณาจักร	-5893
sh	-5894
ษัต	-5895
▁74	-5896
▁มัง	-5897
สามารถ	-5898
▁พันธบัตร	-5899
able	-5900
ุมขน	-5901
▁มาร	-5902
ษัตริ	-5903
▁มือจับ	-5904
เดินสะพัด	-5905
▁บัญชีเดินสะพัด	-5906
▁a	-5907
▁ปลูก	-5908
รานซิส	-5909
ษัตริย์	-5910
▁สําเนา	-5911
▁เท่าไร	-5912
▁สนธิสัญญา	-5913
ปัน	-5914
▁__	-5915
▁กาย	-5916
▁สกรู	-5917
▁สมจริง	-5918
▁Samsung	-5919
ib	-5920
เดา	-5921
เด็จ	-5922
▁อักษร	-5923
▁ถุงมือ	-5924
จ์	-5925
▁Se	-5926
▁ล่าง	-5927
▁แทบจะ	-5928
▁ทรัพยากร	-5929
end	-5930
▁นิต	-5931
▁เลก	-5932
ขสิทธิ์	-5933
per	-5934
ฤษฎี	-5935
▁FL	-5936
กระดับ	-5937
▁มะกอก	-5938
▁วิศวก	-5939
รรย์	-5940
▁SPE	-5941
▁บัก	-5942
▁ตราบ	-5943
▁จัดระเบียบ	-5944
▁ผู้ให้บริการ	-5945
▁วิกฤ	-5946
บัญชาการ	-5947
oy	-5948
ith	-5949
นิเจอร์	-5950
▁เฟอร์นิเจอร์	-5951
▁Hy	-5952
ิสก์	-5953
เพรส	-5954
▁Oil	-5955
▁แพร่	-5956
้อนรับ	-5957
▁ยกระดับ	-5958
▁คาดเดา	-5959
▁ลูกไม้	-5960
▁ความสดชื่น	-5961
▁Fr	-5962
▁ซิต	-5963
▁รูข	-5964
▁เมท	-5965
▁รูขุมขน	-5966
▁ความขัดแย้ง	-5967
จญ	-5968
วิทยา	-5969
▁ไมล์	-5970
▁เคล็ด	-5971
▁Te	-5972
▁หล่น	-5973
ความสามารถ	-5974
UD	-5975
ence	-5976
แห่ง	-5977
จรรย์	-5978
เหตุผล	-5979
▁de	-5980
▁อาณ	-5981
▁โคล	-5982
▁ตั้งใจ	-5983
ประกอบการ	-5984
▁ผงซักฟอก	-5985
▁ไอร์แลนด์	-5986
▁Ar	-5987
▁คิ	-5988
▁พาส	-5989
▁การคาด	-5990
ร้อน	-5991
▁USD	-5992
▁ดัน	-5993
▁เงินบาท	-5994
▁Super	-5995
▁ของเหลว	-5996
▁ปลั๊กไฟ	-5997
gle	-5998
โมสร	-5999
▁วาน	-6000
▁สภาพแวดล้อม	-6001
ฝั่ง	-6002
▁EVA	-6003
▁LAN	-6004
▁ลิน	-6005
▁สโมสร	-6006
▁คลี	-6007
▁การผ	-6008
▁คอมม	-6009
▁ตกหล	-6010
ิญ	-6011
ค้าง	-6012
▁อนุม	-6013
▁ครึ่งหนึ่ง	-6014
้ด	-6015
dro	-6016
▁ทึบ	-6017
ถ่ายภาพ	-6018
▁รอบตัว	-6019
▁เคล็ดลับ	-6020
วิส	-6021
▁135	-6022
▁อาทิ	-6023
▁โปรโม	-6024
▁เครื่องหมาย	-6025
ASE	-6026
ile	-6027
▁ภั	-6028
lection	-6029
▁ส้นรองเท้า	-6030
▁แม้กระทั่ง	-6031
สังหาร	-6032
▁ร่วมใน	-6033
ัตโนมัติ	-6034
▁ผู้แต่ง	-6035
ภาษ	-6036
ama	-6037
ยืน	-6038
▁130	-6039
▁ไล่	-6040
▁โรมัน	-6041
66	-6042
▁ดุจ	-6043
ACO	-6044
เวน	-6045
▁ES	-6046
▁CM	-6047
▁ส่วนบุคคล	-6048
▁โดยอัตโนมัติ	-6049
▁เครื่องล้างจาน	-6050
เมล์	-6051
▁เกลี่ย	-6052
▁เกอร์	-6053
▁ใบพัด	-6054
▁อะไหล่	-6055
เริ่มต้น	-6056
▁เหมือนว่า	-6057
ISS	-6058
คุย	-6059
เร่ง	-6060
▁ดําน้ํา	-6061
▁77	-6062
▁ออนซ์	-6063
▁ประสาท	-6064
▁พูดคุย	-6065
เลว	-6066
▁หนวด	-6067
▁ยิ่งกว่า	-6068
ach	-6069
▁เหม	-6070
▁พิกเซล	-6071
▁เกษตรกร	-6072
TY	-6073
ชร	-6074
▁Or	-6075
▁ง่	-6076
▁จุก	-6077
▁มิกซ์	-6078
▁เบอร์โทรศัพท์	-6079
ปลีก	-6080
▁700	-6081
เกณฑ์	-6082
▁โพสต์	-6083
▁อีกแล้ว	-6084
▁วิว	-6085
▁สุก	-6086
▁มีชีวิตชีวา	-6087
old	-6088
ถัน	-6089
▁แปด	-6090
ะเลิศ	-6091
ตั้งแต่	-6092
▁นับตั้งแต่	-6093
anc	-6094
▁ก้าน	-6095
▁แข่ง	-6096
วาน	-6097
▁อด	-6098
จญภัย	-6099
ฝน	-6100
▁คิง	-6101
▁โอบ	-6102
เทือน	-6103
▁84	-6104
▁คอย	-6105
▁โกล	-6106
▁ตอนเช้า	-6107
▁73	-6108
▁เสียงเพลง	-6109
เหย	-6110
เกษตร	-6111
▁หนุ่ม	-6112
▁กันที่	-6113
▁ที่ตั้ง	-6114
▁เกือบจะ	-6115
▁ทัวร์	-6116
▁วิเคราะห์	-6117
man	-6118
lite	-6119
tern	-6120
ผิดชอบ	-6121
▁เบคอน	-6122
อยู่อาศัย	-6123
ขี่	-6124
coth	-6125
ัตเตอร์	-6126
▁ชื่อว่า	-6127
▁71	-6128
▁โบว์	-6129
▁ยุ่งยาก	-6130
▁ล้มเหลว	-6131
ony	-6132
▁Pe	-6133
จําหน่าย	-6134
▁หลักสูตร	-6135
▁เรียกร้อง	-6136
เผย	-6137
▁82	-6138
ฮอล์	-6139
▁คัดสรร	-6140
▁ทุกเวลา	-6141
▁ทางการค้า	-6142
rig	-6143
use	-6144
ยั้ง	-6145
▁มาส	-6146
พันธ์	-6147
▁เกลือ	-6148
▁แส	-6149
ถีพิ	-6150
ถีพิถัน	-6151
▁กลิ่นอ	-6152
SI	-6153
▁MAC	-6154
▁ม้า	-6155
เลียม	-6156
▁ศตวรรษ	-6157
ม์	-6158
พัน	-6159
▁ปาร	-6160
▁แชร์	-6161
▁ตรงกลาง	-6162
รค	-6163
▁พูล	-6164
▁polyester	-6165
IPS	-6166
ug	-6167
iver	-6168
▁ย่อ	-6169
▁มหภาค	-6170
▁ให้เช่า	-6171
▁กระเป๋าเดินทาง	-6172
คอย	-6173
นิค	-6174
ตรวจ	-6175
สนุก	-6176
▁140	-6177
▁Reg	-6178
▁Memory	-6179
๋า	-6180
▁บัล	-6181
▁ช็อก	-6182
▁การบริหาร	-6183
แถ	-6184
ราย	-6185
ิร์ม	-6186
▁กรด	-6187
านิคม	-6188
▁ทรงตัว	-6189
▁ประกันตัว	-6190
▁อัปเดต	-6191
▁นึ่ง	-6192
ิวนิสต์	-6193
▁แค่นี้	-6194
▁สตั	-6195
▁หัวหอม	-6196
▁ชายฝั่ง	-6197
ดาน	-6198
ting	-6199
▁เจ๋ง	-6200
▁ปรับเปลี่ยน	-6201
▁RE	-6202
ผึ้ง	-6203
ารีด	-6204
▁ป้อน	-6205
▁สีม่วง	-6206
▁เตารีด	-6207
▁เปลี่ยนเป็น	-6208
▁แต้ม	-6209
ให	-6210
▁ซ่า	-6211
▁ประชุม	-6212
ลาบ	-6213
เร็ง	-6214
ather	-6215
ITE	-6216
▁185	-6217
▁โคมไฟ	-6218
▁ระยะยาว	-6219
fer	-6220
▁ชวน	-6221
▁เล่า	-6222
▁ไปมา	-6223
▁ดังนี้	-6224
USE	-6225
ดอน	-6226
เกส	-6227
กรอง	-6228
หลาบ	-6229
▁ตํอ	-6230
ตุเกส	-6231
พร้าว	-6232
าสั้น	-6233
▁โปรตุเกส	-6234
พาน	-6235
▁SC	-6236
▁กู้	-6237
่อกัน	-6238
ิมทรัพย์	-6239
▁รับทราบ	-6240
ัศจรรย์	-6241
▁ความงาม	-6242
ประทับใจ	-6243
▁อาณานิคม	-6244
INI	-6245
▁For	-6246
▁กรมท่า	-6247
▁ห้องนอน	-6248
▁กี้	-6249
ํานวย	-6250
▁ค่ํา	-6251
▁พฤติ	-6252
▁ปารีส	-6253
BO	-6254
สวน	-6255
▁No	-6256
▁Sw	-6257
เนียน	-6258
▁เช็ก	-6259
ส่วนตัว	-6260
▁แอม	-6261
▁ยอดนิยม	-6262
▁แบ่งปัน	-6263
ool	-6264
▁รบ	-6265
▁กุด	-6266
▁แกะ	-6267
▁อึดอัด	-6268
isc	-6269
XL	-6270
▁97	-6271
เจาะ	-6272
28	-6273
ade	-6274
▁อ่า	-6275
▁เป็นประจํา	-6276
▁เด็กผู้หญิง	-6277
▁เป็นที่รู้จัก	-6278
▁เลอะ	-6279
เทิร์น	-6280
▁นําไปสู่	-6281
อท	-6282
ERA	-6283
are	-6284
รถไฟ	-6285
▁Max	-6286
▁มัค	-6287
▁www	-6288
▁เท่านี้	-6289
▁ที่อยู่อาศัย	-6290
▁เทศกาล	-6291
▁ซัม	-6292
ิวัติ	-6293
▁มัลติ	-6294
az	-6295
มอน	-6296
▁94	-6297
▁ซะ	-6298
▁สีส้ม	-6299
ความเป็น	-6300
▁ยานยนต์	-6301
▁ทานอาหาร	-6302
ความเป็นจริง	-6303
ฟ่า	-6304
หน๎า	-6305
เท็จ	-6306
ซักผ้า	-6307
ตตา	-6308
ใหล	-6309
▁ระบ	-6310
ากรรม	-6311
▁ผลตอบแทน	-6312
บอก	-6313
▁FIT	-6314
▁แพท	-6315
อบอุ่น	-6316
▁MICRO	-6317
▁ตอนกลาง	-6318
▁โซเวียต	-6319
▁ความอบอุ่น	-6320
▁เครื่องซักผ้า	-6321
▁อสังหาร	-6322
▁ย่างก้าว	-6323
▁Collection	-6324
▁บ่น	-6325
▁พ้น	-6326
▁มะพร้าว	-6327
ก่อการร้าย	-6328
ไบ	-6329
วิธี	-6330
▁ครอง	-6331
▁ในขณะ	-6332
เท็จจริง	-6333
▁โรแมนติก	-6334
▁ข้อเท็จจริง	-6335
▁Lim	-6336
▁โปโล	-6337
พืช	-6338
▁ยุติ	-6339
▁เต้น	-6340
สิบ	-6341
ขาสั้น	-6342
▁เกลียว	-6343
▁กางเกงขาสั้น	-6344
ตีน	-6345
ั้ว	-6346
▁รึเปล่า	-6347
▁BE	-6348
▁แร	-6349
ound	-6350
▁Blu	-6351
▁บัค	-6352
▁Edge	-6353
▁สลับ	-6354
กระดุม	-6355
▁สันติภาพ	-6356
▁โซลูชั่น	-6357
▁ความเข้าใจ	-6358
▁อัง	-6359
▁เลอร์	-6360
▁โปรตีน	-6361
▁กว้างขวาง	-6362
▁การคาดการณ์	-6363
ทรีย์	-6364
▁ค่าเงินบาท	-6365
ux	-6366
RAN	-6367
าน์	-6368
▁แร่	-6369
▁2012	-6370
▁Skin	-6371
ผู้ชาย	-6372
ื่อสาร	-6373
▁ติดกระดุม	-6374
ซิ	-6375
PUT	-6376
atch	-6377
▁มาร์ค	-6378
ิร์ก	-6379
▁คําตอบ	-6380
▁โรงพยาบาล	-6381
โค	-6382
▁ฟิต	-6383
▁แบล็ค	-6384
NA	-6385
ซีดี	-6386
▁เปิดเผย	-6387
▁เชื่อถือ	-6388
▁คอมมิวนิสต์	-6389
ศร	-6390
▁TO	-6391
▁102	-6392
▁สหประชาชาติ	-6393
ปะรด	-6394
▁iPhone	-6395
▁ลิขสิทธิ์	-6396
▁ระมัดระวัง	-6397
▁แกร	-6398
▁ย่าน	-6399
look	-6400
ทันที	-6401
▁ซ่อน	-6402
ไพร	-6403
▁ชู	-6404
▁คาส	-6405
รักษ์	-6406
▁ใช้ไม่ได้	-6407
trol	-6408
▁สมมติฐาน	-6409
▁WH	-6410
ปรัส	-6411
▁มืด	-6412
▁สู้	-6413
▁หัน	-6414
▁บรรเทา	-6415
▁ไซปรัส	-6416
รานซิสโก	-6417
▁ราชวงศ์	-6418
▁แมค	-6419
▁ทารก	-6420
วิทยาศาสตร์	-6421
หลาก	-6422
▁ชั้นดี	-6423
▁รีบ	-6424
▁วงจร	-6425
▁ปรุงอาหาร	-6426
ธา	-6427
▁CON	-6428
ผลไม้	-6429
▁Char	-6430
▁เซ็นเซอร์	-6431
งค์	-6432
บางอย่าง	-6433
▁อย่างหนึ่ง	-6434
▁บางสิ่งบางอย่าง	-6435
31	-6436
หญ้า	-6437
▁แมตต์	-6438
PP	-6439
เชย	-6440
โดด	-6441
▁กรีซ	-6442
กอฮอล์	-6443
▁คล้ํา	-6444
▁กลาโหม	-6445
▁นักแสดง	-6446
▁ด์	-6447
FC	-6448
▁กอล์ฟ	-6449
▁ฉีกขาด	-6450
▁ให้อ	-6451
ศตวรรษ	-6452
น้ําหนัก	-6453
▁แพ็คเกจ	-6454
▁อสังหาริมทรัพย์	-6455
อรี	-6456
▁Ind	-6457
โซเวียต	-6458
▁จริงจัง	-6459
▁ตีพิมพ์	-6460
▁สหภาพโซเวียต	-6461
พร้อม	-6462
▁รีไซ	-6463
▁งดงาม	-6464
▁รีไซเคิล	-6465
vel	-6466
ฟิศ	-6467
หรู	-6468
▁มิส	-6469
▁มีข้อ	-6470
บัญญัติ	-6471
▁สมเด็จ	-6472
▁มีเหตุผล	-6473
▁st	-6474
▁บก	-6475
OOTH	-6476
ooth	-6477
โดว์	-6478
▁พิธี	-6479
ราชทูต	-6480
▁นํามาใช้	-6481
ENS	-6482
▁โยน	-6483
ดนตรี	-6484
▁กระโดด	-6485
TI	-6486
▁Wi	-6487
▁ชาม	-6488
▁โหลด	-6489
แชโดว์	-6490
▁ผู้ช่วย	-6491
▁ชุ่มชื่น	-6492
▁ข้อแนะนํา	-6493
▁อายแชโดว์	-6494
กู้	-6495
วัด	-6496
สีสัน	-6497
็กซัส	-6498
บา	-6499
▁DVD	-6500
▁THE	-6501
▁lot	-6502
ating	-6503
▁ออฟฟิศ	-6504
▁มีสีสัน	-6505
▁ม่วง	-6506
▁น้ําร้อน	-6507
▁โปรโมชั่น	-6508
LS	-6509
ซอน	-6510
ตน	-6511
▁ไต	-6512
▁Mas	-6513
▁iPad	-6514
▁ทางการเงิน	-6515
▁มีข้อบกพร่อง	-6516
ai	-6517
▁วิชา	-6518
▁สนทนา	-6519
▁ช็อกโกแลต	-6520
▁รายชื่อ	-6521
▁ใกล้ชิด	-6522
▁ทั้งสิ้น	-6523
▁เม็กซิโก	-6524
iss	-6525
▁SS	-6526
▁Play	-6527
▁เพอร์เฟ	-6528
▁น่าตื่นเต้น	-6529
▁190	-6530
▁คุณแม่	-6531
▁ในความเป็นจริง	-6532
▁for	-6533
▁เพชร	-6534
▁ประจุ	-6535
▁คิดถึง	-6536
▁เหนื่อย	-6537
▁SPF	-6538
▁2018	-6539
▁ปลอด	-6540
▁อนุภาค	-6541
▁Gal	-6542
▁พฤหัส	-6543
▁แอปเป	-6544
▁ขีดความสามารถ	-6545
▁High	-6546
▁IPHONE	-6547
▁ความมัน	-6548
▁การระบายอากาศ	-6549
ks	-6550
ฟเฟ	-6551
37	-6552
ลิน	-6553
▁แทรก	-6554
▁ลิฟต์	-6555
ดม	-6556
ิกิ	-6557
๋อง	-6558
▁อือ	-6559
oogle	-6560
ทิศ	-6561
▁วํา	-6562
▁อาช	-6563
owder	-6564
▁จากกัน	-6565
▁เท็กซัส	-6566
ยัง	-6567
▁Per	-6568
▁กระทํา	-6569
ยอม	-6570
▁ฉันท	-6571
ปกครอง	-6572
INE	-6573
▁Lo	-6574
▁นคร	-6575
▁พันธุ์	-6576
▁ประจําปี	-6577
▁โน้ตบุ๊ค	-6578
▁สี่เหลี่ยม	-6579
ครอน	-6580
▁900	-6581
▁Rose	-6582
▁ภัตตา	-6583
▁ไมครอน	-6584
▁ความหลาก	-6585
▁ท่องเที่ยว	-6586
▁PO	-6587
▁Ess	-6588
▁เป็นที่นิยม	-6589
▁Res	-6590
ฟอร์ม	-6591
▁ข้อมูลทั่วไป	-6592
88	-6593
led	-6594
▁79	-6595
เปื้อน	-6596
▁เคาน์	-6597
▁ภัตตาคาร	-6598
▁การถ่ายภาพ	-6599
▁ถ่ายเอกสาร	-6600
GB	-6601
ช่วง	-6602
▁แถลง	-6603
▁วิจัย	-6604
▁ปาร์ตี้	-6605
▁เกษตรกรรม	-6606
▁แอลกอฮอล์	-6607
▁ตอ	-6608
▁อาชญ	-6609
▁การทด	-6610
▁ลองดู	-6611
▁แมตช์	-6612
ภาย	-6613
▁ลุก	-6614
เมอร์	-6615
▁จอภาพ	-6616
▁รุ่นใหม่	-6617
INS	-6618
ฝึก	-6619
กุญแจ	-6620
▁สีตก	-6621
▁มหาสมุทร	-6622
EB	-6623
โป๊	-6624
▁สงบ	-6625
▁แพน	-6626
▁กั้น	-6627
▁อ่าง	-6628
นมาร์ก	-6629
▁ความรุนแรง	-6630
▁ความหลากหลาย	-6631
eb	-6632
oud	-6633
ณิต	-6634
▁SY	-6635
▁แฉ	-6636
เขือ	-6637
▁BTU	-6638
▁เพดาน	-6639
▁ยะ	-6640
▁นิค	-6641
ําคาญ	-6642
ETOOTH	-6643
▁ทั่วถึง	-6644
บวน	-6645
ารกิจ	-6646
▁บรรทัด	-6647
▁หนังโป๊	-6648
มิ	-6649
▁ปืน	-6650
▁คงที่	-6651
▁ผลประโยชน์	-6652
ษฐ	-6653
axy	-6654
▁ชด	-6655
▁มี่	-6656
▁เดนมาร์ก	-6657
▁Op	-6658
▁ฝน	-6659
▁101	-6660
▁Dis	-6661
ประวัติ	-6662
▁กิโลเมตร	-6663
ด่วน	-6664
▁ชีว	-6665
▁ช็อป	-6666
▁น่าอ	-6667
▁ไลท์	-6668
แม่นยํา	-6669
▁การเกษตร	-6670
▁กระแสไฟฟ้า	-6671
▁โต๊ะทํางาน	-6672
▁ความแม่นยํา	-6673
▁ประชาธิปไตย	-6674
▁165	-6675
▁ก้น	-6676
▁การช	-6677
▁ทฤษฎี	-6678
▁ทาวน์	-6679
▁ลอนดอน	-6680
▁พิถีพิถัน	-6681
▁ประเมิน	-6682
▁ไซเบอร์	-6683
โยค	-6684
▁กลู	-6685
▁ดัก	-6686
AND	-6687
▁SW	-6688
▁บล็อก	-6689
▁เชอร์	-6690
tick	-6691
ซึ้ง	-6692
▁2020	-6693
▁นัดหมาย	-6694
ปรับอากาศ	-6695
▁หลายชนิด	-6696
ราง	-6697
ATION	-6698
▁2008	-6699
จิ	-6700
ACOAL	-6701
▁กรุ่น	-6702
▁แนวทาง	-6703
รรศ	-6704
▁DC	-6705
เกีย	-6706
▁Pan	-6707
▁Sil	-6708
▁แตะ	-6709
สังคม	-6710
เมนต์	-6711
ไม่ช้า	-6712
กําเนิด	-6713
▁EN	-6714
▁ธน	-6715
เบิ้ล	-6716
▁มาส์	-6717
▁เชีย	-6718
▁ขั้นสูง	-6719
▁เว้นแต่	-6720
▁เห็นด้วย	-6721
▁PR	-6722
▁Ste	-6723
▁ศรี	-6724
ม่ขึน้	-6725
▁หอ	-6726
▁2011	-6727
▁คลาย	-6728
▁WACOAL	-6729
▁ประโยค	-6730
ซิน	-6731
แซม	-6732
มวลผล	-6733
กระแทก	-6734
▁สตั๊ด	-6735
▁แผนที่	-6736
▁น้ําผลไม้	-6737
UB	-6738
เกรด	-6739
▁แฉก	-6740
21	-6741
ริบ	-6742
▁PLAY	-6743
ธรรมเนียม	-6744
▁การสัมผัส	-6745
▁ลงทะเบียน	-6746
65	-6747
▁Tw	-6748
IGHT	-6749
สลาย	-6750
▁2017	-6751
▁ให้เสียง	-6752
ign	-6753
ณฑล	-6754
▁งา	-6755
▁ําง	-6756
▁145	-6757
▁170	-6758
▁ISO	-6759
▁แคบ	-6760
ational	-6761
GO	-6762
▁นิ่ง	-6763
▁หลุม	-6764
ปา	-6765
มาน	-6766
▁ซ์	-6767
▁รัล	-6768
บรื่น	-6769
▁ราบรื่น	-6770
▁เปลี่ยนไป	-6771
▁ฮิต	-6772
สาธาร	-6773
▁เปล่า	-6774
▁คริสตัล	-6775
▁Pri	-6776
▁Star	-6777
ประชุม	-6778
▁เที่ยวบิน	-6779
▁อับ	-6780
▁ปุ่มกด	-6781
▁ํอนหน๎า	-6782
▁เป็นไปตาม	-6783
ys	-6784
กระจ	-6785
เชิง	-6786
▁FOR	-6787
▁นิก	-6788
▁เน็ต	-6789
▁ไมค์	-6790
▁ตามปกติ	-6791
▁เสียค่า	-6792
ฉาย	-6793
เพศ	-6794
สัมพันธ์	-6795
▁บีบ	-6796
▁รูด	-6797
▁อิมพ	-6798
▁ตราบใด	-6799
▁ไม่เลว	-6800
ทูธ	-6801
ิร์ด	-6802
▁คุกกี้	-6803
▁บลูทูธ	-6804
▁ผิดพลาด	-6805
ATH	-6806
วัย	-6807
▁GU	-6808
▁อะเม	-6809
▁การเมือง	-6810
▁Body	-6811
▁อะเมซอน	-6812
yc	-6813
▁NY	-6814
▁วัยรุ่น	-6815
▁การกระแทก	-6816
▁กระป๋อง	-6817
สร้างสรรค์	-6818
▁ยื่น	-6819
ความคิด	-6820
▁เปลือก	-6821
ตําแหน่ง	-6822
▁กันกระแทก	-6823
อัน	-6824
อบรม	-6825
อยส์	-6826
▁เบื้องต้น	-6827
49	-6828
au	-6829
▁สิ่งใด	-6830
▁ไปเที่ยว	-6831
▁ความผิดพลาด	-6832
บาก	-6833
ิโอ	-6834
▁ซุป	-6835
▁วิล	-6836
▁รอยด่าง	-6837
▁83	-6838
สมควร	-6839
▁ปลุก	-6840
▁สปริง	-6841
วาว	-6842
ANCE	-6843
VERTER	-6844
สุดท้าย	-6845
▁ที่ดิน	-6846
▁เคาน์เตอร์	-6847
ดิบ	-6848
โซ่	-6849
▁87	-6850
▁ในทันที	-6851
วกาย	-6852
▁ชัย	-6853
▁ผืน	-6854
▁ผิวกาย	-6855
▁มีความรู้	-6856
oh	-6857
หมู่	-6858
▁DIS	-6859
▁ซานฟ	-6860
▁นเด็กซ์	-6861
ตะวันออกเฉียงใต้	-6862
CS	-6863
เนส	-6864
▁พุธ	-6865
▁ดํารง	-6866
ิกิริยา	-6867
▁จดหมาย	-6868
ภาพยนตร์	-6869
▁เยี่ยมชม	-6870
▁หนาว	-6871
▁แก๊ส	-6872
▁ตกค้าง	-6873
▁อินเตอร์	-6874
▁แก้ปัญหา	-6875
ชิง	-6876
ทรรศ	-6877
ภาระ	-6878
▁บีช	-6879
▁สไล	-6880
▁สนอง	-6881
▁คนรัก	-6882
▁ตรงเวลา	-6883
▁ไร้ประโยชน์	-6884
▁235	-6885
▁ใช้การ	-6886
▁เป็นจริง	-6887
▁น่ารําคาญ	-6888
▁โชค	-6889
ากรณ์	-6890
▁คลุม	-6891
▁แฮร์	-6892
▁เมื่อวาน	-6893
▁ตราบใดที่	-6894
▁เป็นไปไม่ได้	-6895
ด้า	-6896
แคล	-6897
หรี่	-6898
▁ครู่	-6899
เขือเทศ	-6900
▁Galaxy	-6901
▁รับมือ	-6902
RY	-6903
ถาน	-6904
▁PI	-6905
▁เรือน	-6906
วยากรณ์	-6907
▁การคลัง	-6908
▁หัวหน้า	-6909
▁แต่งงาน	-6910
▁ต้า	-6911
EY	-6912
▁KID	-6913
▁ไวยากรณ์	-6914
▁SE	-6915
ารย์	-6916
บทบาท	-6917
▁กระต	-6918
▁รอยต่อ	-6919
▁ใช้ชีวิต	-6920
▁ประจําวัน	-6921
42	-6922
iv	-6923
own	-6924
▁ชํ	-6925
▁ร้าย	-6926
▁เจ็ด	-6927
▁แหละ	-6928
ั่งยืน	-6929
▁Class	-6930
▁เลโก้	-6931
▁ดูก่อน	-6932
▁แสงสว่าง	-6933
ode	-6934
▁SA	-6935
▁จมูก	-6936
▁สเต็ก	-6937
▁ความน่า	-6938
▁อิทธิพล	-6939
ราจร	-6940
▁สตร	-6941
มกลาง	-6942
▁ผลัก	-6943
▁ท่ามกลาง	-6944
▁นําไปใช้	-6945
HERS	-6946
อัคร	-6947
▁Fin	-6948
▁Pre	-6949
▁Lock	-6950
▁สีเข้ม	-6951
▁พฤติกรรม	-6952
อัครราชทูต	-6953
▁การสื่อสาร	-6954
ark	-6955
▁240	-6956
▁Outlook	-6957
▁พิสูจน์	-6958
▁ความเป็นไป	-6959
ยุ	-6960
▁Eye	-6961
▁ข้อกําหนด	-6962
▁ประหยัดเวลา	-6963
▁81	-6964
ริยะ	-6965
▁Aut	-6966
▁พาร์	-6967
▁Canon	-6968
▁สมัคร	-6969
▁BLUETOOTH	-6970
ฟัน	-6971
▁ขั้ว	-6972
▁เนีย	-6973
▁Google	-6974
▁เงินกู้	-6975
▁ครั้งก่อน	-6976
ษฐ์	-6977
ไหว	-6978
▁โว	-6979
▁ลิฟท์	-6980
▁เงินสด	-6981
▁ส้นเท้า	-6982
▁สมัยใหม่	-6983
▁PM	-6984
ัตรู	-6985
▁ฝัง	-6986
▁Regular	-6987
รียว	-6988
▁สํารวจ	-6989
วาย	-6990
▁Ultra	-6991
▁ฟื้นตัว	-6992
▁ในไม่ช้า	-6993
▁ชําระเงิน	-6994
แก้	-6995
▁ซาก	-6996
▁ลอย	-6997
▁ละคร	-6998
OCK	-6999
out	-7000
รรถ	-7001
ulti	-7002
▁104	-7003
▁มวล	-7004
ดินสอ	-7005
เศร้า	-7006
▁ช็อต	-7007
▁ช้าง	-7008
owerbuycoth	-7009
▁วะ	-7010
▁หมอง	-7011
▁ระยะสั้น	-7012
ron	-7013
ฉัน	-7014
▁ชว	-7015
▁RES	-7016
▁สรร	-7017
▁เล็บ	-7018
▁ของใช้	-7019
▁Edition	-7020
▁ความพร้อม	-7021
แง่	-7022
▁AL	-7023
▁106	-7024
▁108	-7025
▁หลังคา	-7026
▁ใช้ประโยชน์	-7027
วาด	-7028
▁าร	-7029
ี่ยน	-7030
▁มาส์ก	-7031
▁ศัตรู	-7032
▁ซานฟรานซิสโก	-7033
▁หนังสือพิมพ์	-7034
HD	-7035
▁กบ	-7036
▁มัส	-7037
ดิษฐ์	-7038
▁ราวกับว่า	-7039
▁225	-7040
▁Powder	-7041
▁เดี๋ยวนี้	-7042
▁TY	-7043
▁2013	-7044
ank	-7045
oss	-7046
้วง	-7047
▁อม	-7048
ตต์	-7049
▁แคป	-7050
▁หล่อ	-7051
▁เหนอะ	-7052
▁ความคาด	-7053
▁คริสต์ศตวรรษ	-7054
▁ค่าธรรมเนียม	-7055
ทอด	-7056
หยวก	-7057
▁ฮืม	-7058
▁โง่	-7059
▁2019	-7060
▁wwwp	-7061
▁โน๊ต	-7062
▁รวมตัว	-7063
▁ลําดับ	-7064
▁พริกหยวก	-7065
▁ระดับโลก	-7066
▁วิทยาลัย	-7067
▁DI	-7068
คอัพ	-7069
▁Fly	-7070
พาหนะ	-7071
ุนไพร	-7072
▁ต่ําสุด	-7073
car	-7074
เฉิน	-7075
▁คาน	-7076
▁แกล	-7077
▁เตาอบ	-7078
▁แคมป์	-7079
▁ศูนย์กลาง	-7080
▁wwwpowerbuycoth	-7081
ิเค	-7082
แท้	-7083
ิสระ	-7084
▁ขี้	-7085
ุกเฉิน	-7086
▁ชุดนอน	-7087
ครั้งที่	-7088
▁ยานพาหนะ	-7089
พี	-7090
▁ดั่ง	-7091
▁น้ํานม	-7092
▁ที่หนึ่ง	-7093
▁MO	-7094
▁ซุ	-7095
พลิเค	-7096
▁แผนการ	-7097
▁ผู้อื่น	-7098
HI	-7099
ต้ม	-7100
อรีน	-7101
▁ตึง	-7102
▁อัจ	-7103
ตางค์	-7104
▁CARD	-7105
▁เหลา	-7106
etooth	-7107
ชนะเลิศ	-7108
▁ติดตัว	-7109
ศิล	-7110
▁II	-7111
▁มิด	-7112
▁อังคาร	-7113
▁เหนอะหนะ	-7114
▁วันอาทิตย์	-7115
ข์	-7116
ซาบ	-7117
เบีย	-7118
▁หลอก	-7119
▁ออสเตรีย	-7120
FT	-7121
▁แลน	-7122
สนิยม	-7123
บรรทุก	-7124
▁ลินิน	-7125
▁ใส่ใจ	-7126
▁บ่อยครั้ง	-7127
▁ดัด	-7128
▁เผา	-7129
ฝรั่ง	-7130
▁คอวี	-7131
▁ทางเท	-7132
▁เสื่อม	-7133
▁War	-7134
▁บ่ง	-7135
▁Sport	-7136
ผวน	-7137
▁Cor	-7138
▁เลีย	-7139
▁คดี	-7140
มีชีวิต	-7141
▁แช่แข็ง	-7142
ah	-7143
oom	-7144
▁New	-7145
▁นท	-7146
▁ระยะทาง	-7147
ECH	-7148
▁สวี	-7149
▁ข้อดี	-7150
▁ภารกิจ	-7151
▁มะเร็ง	-7152
▁INVERTER	-7153
จง	-7154
▁เมคอัพ	-7155
▁น้ํามันดิบ	-7156
▁ลาด	-7157
ยกรรม	-7158
▁คว่ํา	-7159
▁แอปเปิ้ล	-7160
yle	-7161
ปล่อย	-7162
▁แหลม	-7163
▁รสนิยม	-7164
เสื้อผ้า	-7165
▁ทางอากาศ	-7166
▁กระเป๋าสตางค์	-7167
กะ	-7168
ซึม	-7169
▁ว์	-7170
กล้า	-7171
ท้อง	-7172
เปรียบ	-7173
▁หายใจ	-7174
▁คุ้มครอง	-7175
โจ	-7176
▁TS	-7177
▁บอส	-7178
เข้าร	-7179
▁สมุนไพร	-7180
▁น้ําผึ้ง	-7181
77	-7182
▁ส์	-7183
เกียจ	-7184
▁พลิก	-7185
▁ผ้าปู	-7186
▁ทองแดง	-7187
▁ตระหนัก	-7188
▁สถาบันการ	-7189
ric	-7190
าวร	-7191
ครัน	-7192
▁แทร	-7193
เตือน	-7194
▁1080	-7195
▁Full	-7196
▁อัจฉ	-7197
▁แมลง	-7198
▁ติดขัด	-7199
▁รถบรรทุก	-7200
และ	-7201
▁คิน	-7202
▁บูธ	-7203
▁ปิโ	-7204
▁ตัวเร่ง	-7205
▁มิฉะนั้น	-7206
▁อย่างเช่น	-7207
▁อาชญากรรม	-7208
air	-7209
เตน	-7210
ีมือ	-7211
รางวัล	-7212
▁ซึมซับ	-7213
▁กระแสไฟ	-7214
MS	-7215
TS	-7216
ณีต	-7217
ป่วย	-7218
▁ลาว	-7219
▁ดีแต่	-7220
▁กระดูก	-7221
▁ข้อบกพร่อง	-7222
ive	-7223
โลม	-7224
▁91	-7225
ated	-7226
▁โฮม	-7227
▁เปี่ยม	-7228
▁วัสดุสังเคราะห์	-7229
▁450	-7230
▁แก้ม	-7231
▁ไฮไล	-7232
▁ปิโตร	-7233
▁คืนเงิน	-7234
▁นอร์เวย์	-7235
95	-7236
▁ตะแก	-7237
▁ครบครัน	-7238
▁Bluetooth	-7239
▁เลน	-7240
▁กลมกล	-7241
▁ลูกบอล	-7242
▁งานเขียน	-7243
หัก	-7244
เงา	-7245
ญญาณ	-7246
▁ธนบัตร	-7247
▁ปกครอง	-7248
▁สัมภาระ	-7249
แสงอาทิตย์	-7250
▁ภายในบ้าน	-7251
ู้ด	-7252
▁SKEC	-7253
▁กระทบ	-7254
▁ต้นไม้	-7255
▁ครู	-7256
▁ขยับ	-7257
▁กิจการ	-7258
▁ตั้งขึ้น	-7259
▁Sk	-7260
แข่ง	-7261
▁ซึมซาบ	-7262
▁Limited	-7263
โพด	-7264
▁สืบ	-7265
▁ขบวน	-7266
▁ซิตี้	-7267
▁ตะแกรง	-7268
▁ผู้ตรวจ	-7269
▁ความเรียบ	-7270
▁โดยประมาณ	-7271
▁Lin	-7272
▁การร้อง	-7273
▁Gr	-7274
▁โค้ด	-7275
▁ปาล์ม	-7276
▁พึงประสงค์	-7277
▁หง	-7278
▁ถอย	-7279
ันผวน	-7280
▁คราว	-7281
▁Water	-7282
▁มีระดับ	-7283
▁ผู้ประกอบการ	-7284
รรณ	-7285
ตลาด	-7286
▁XXL	-7287
▁หมดจด	-7288
▁เยือน	-7289
▁๎ม	-7290
▁297	-7291
▁Print	-7292
▁สไลด์	-7293
▁การระคายเคือง	-7294
ตัด	-7295
นัด	-7296
OWER	-7297
▁เนอ	-7298
ขับขี่	-7299
▁ที่พัก	-7300
▁SKECHERS	-7301
ther	-7302
อ้อม	-7303
▁230	-7304
▁คอล	-7305
▁ทรงผม	-7306
▁โรงภาพยนตร์	-7307
ภิ	-7308
IND	-7309
ance	-7310
รรูป	-7311
▁ช้าๆ	-7312
▁ผู้รับ	-7313
yst	-7314
วงจร	-7315
▁215	-7316
▁กอด	-7317
▁ญแจ	-7318
▁Free	-7319
ความสะดวก	-7320
▁นักศึกษา	-7321
โบ	-7322
▁AM	-7323
▁Mini	-7324
▁รีย์	-7325
▁กันสนิม	-7326
▁ส่งผ่าน	-7327
▁Sony	-7328
▁หมื่น	-7329
ต้านทาน	-7330
▁พอสมควร	-7331
ning	-7332
สมุด	-7333
▁สากล	-7334
▁บทบาท	-7335
▁เจมส์	-7336
▁โดเมน	-7337
ถั่ว	-7338
วิสา	-7339
▁ฮาว	-7340
▁เพิ	-7341
▁ญแจล	-7342
▁พอเหมาะ	-7343
BI	-7344
▁แคร	-7345
ผ้าใบ	-7346
▁ตลอดจน	-7347
▁วงเงิน	-7348
▁ต้อนรับ	-7349
▁รองเท้าผ้าใบ	-7350
▁155	-7351
เมียม	-7352
▁กระบอก	-7353
▁แปรรูป	-7354
▁Cr	-7355
ยินดี	-7356
▁ละเม	-7357
การบิน	-7358
สาเหตุ	-7359
▁SPEED	-7360
▁มิลลิ	-7361
▁การสํารวจ	-7362
▁เป็นสาเหตุ	-7363
▁ได้รับอนุญาต	-7364
▁คา้	-7365
▁ชิล	-7366
▁เมทัล	-7367
▁ดังที่	-7368
ถั่วเหลือง	-7369
▁แพทเทิร์น	-7370
LUM	-7371
▁Clim	-7372
เฉลี่ย	-7373
▁ระดับน้ํา	-7374
หู	-7375
ork	-7376
▁ลุย	-7377
▁ดิสก์	-7378
▁รุ่นเก่า	-7379
▁อย่างนี้	-7380
▁ตู้เสื้อผ้า	-7381
▁Plus	-7382
สาธารณะ	-7383
ความต้องการ	-7384
PER	-7385
นอง	-7386
0000	-7387
▁Fry	-7388
▁คาบ	-7389
▁ฉลาด	-7390
▁บันได	-7391
▁อุบัติ	-7392
▁เลขที่	-7393
▁อัจฉริยะ	-7394
▁ระบบปฏิบัติการ	-7395
▁สนองความต้องการ	-7396
46	-7397
ให๎	-7398
ที่นอน	-7399
26	-7400
ซู	-7401
ital	-7402
▁จ้า	-7403
▁Strip	-7404
ัตยกรรม	-7405
▁ไนล่อน	-7406
▁สายการบิน	-7407
▁ทองคํา	-7408
▁สบายดี	-7409
▁ผ้าปูที่นอน	-7410
47	-7411
วนอน	-7412
▁TPU	-7413
▁เปร	-7414
▁การบ	-7415
▁วอร์	-7416
▁ยูฟ่า	-7417
▁แนวนอน	-7418
▁เด็กหญิง	-7419
สอย	-7420
หกิจ	-7421
▁ฟิว	-7422
▁Look	-7423
วิสาหกิจ	-7424
▁การประเมิน	-7425
▁จุดประสงค์	-7426
OLO	-7427
ปวด	-7428
▁to	-7429
ABLE	-7430
olog	-7431
คราบ	-7432
▁ซีด	-7433
▁ชดเชย	-7434
▁แฟกซ์	-7435
▁ในแง่	-7436
▁กระทัดรัด	-7437
OME	-7438
วี่	-7439
คล่อง	-7440
▁พม่า	-7441
▁Cloud	-7442
▁บรรดา	-7443
▁ตัดสิน	-7444
▁พ่อแม่	-7445
▁เซรามิค	-7446
▁จั	-7447
▁กรีน	-7448
▁SMART	-7449
สะเทือน	-7450
▁ในเวลา	-7451
▁เจ้าหญิง	-7452
▁น่าจะเป็น	-7453
▁ในเวลาเดียวกัน	-7454
ene	-7455
▁เยน	-7456
▁สถาปัตยกรรม	-7457
ome	-7458
ล้า	-7459
าหาร	-7460
สัปดาห์	-7461
▁ให้อาหาร	-7462
▁ความต้านทาน	-7463
ost	-7464
๊อป	-7465
ยธรรม	-7466
แชมป์	-7467
้ารับ	-7468
▁ขอบเขต	-7469
▁เต้ารับ	-7470
▁รัฐวิสาหกิจ	-7471
ATE	-7472
▁Red	-7473
▁ลาน	-7474
▁เวย์	-7475
▁หยา	-7476
▁หนุน	-7477
บรรทัด	-7478
▁ขวดนม	-7479
▁ร่วมมือ	-7480
▁หรือยัง	-7481
▁มิลลิเมตร	-7482
▁สั่นสะเทือน	-7483
▁ลด์	-7484
▁เอ๊	-7485
▁ถาวร	-7486
▁โรมา	-7487
▁เป็นความ	-7488
▁โรมาเนีย	-7489
▁ไส้ดินสอ	-7490
▁Tech	-7491
▁ซาติน	-7492
▁ฝันดี	-7493
▁มิได้	-7494
▁อีกที	-7495
▁ฮาวาย	-7496
▁การตลาด	-7497
รมิต	-7498
▁ผ้าขน	-7499
▁เนรมิต	-7500
▁นมถั่วเหลือง	-7501
AW	-7502
อส	-7503
▁หาร	-7504
▁เกลียด	-7505
▁เด็กโต	-7506
▁Elastane	-7507
หลักทรัพย์	-7508
ภาวะ	-7509
▁245	-7510
▁ขูด	-7511
▁แม็กซ์	-7512
▁แสดงว่า	-7513
รดก	-7514
เดน	-7515
reen	-7516
ิทัล	-7517
ณาเขต	-7518
▁อ่อนแอ	-7519
ฝ่าย	-7520
▁PORT	-7521
▁ฝึกอบรม	-7522
ตล	-7523
๊ป	-7524
ปาก	-7525
▁AV	-7526
▁ก้า	-7527
รี่ส์	-7528
เจริญ	-7529
▁Soft	-7530
▁มิ่ง	-7531
ปรึกษา	-7532
▁การปฏ	-7533
▁บรรลุ	-7534
▁เนี่ย	-7535
▁บริเตน	-7536
▁ค่าเฉลี่ย	-7537
DF	-7538
▁All	-7539
▁เปราะ	-7540
▁ผู้ตรวจสอบ	-7541
ms	-7542
▁สารพิษ	-7543
▁ดิจิทัล	-7544
หง	-7545
ออน	-7546
▁93	-7547
▁Me	-7548
▁BPA	-7549
▁NEW	-7550
▁ครา	-7551
▁ดูไบ	-7552
▁ไอโฟน	-7553
▁ไฮไลท์	-7554
▁เลอ	-7555
▁ประสาน	-7556
▁แหล่งข	-7557
▁สิ้นเดือน	-7558
▁เวสต์	-7559
▁อุปโภค	-7560
▁มีบทบาท	-7561
▁Compress	-7562
Fi	-7563
▁128	-7564
▁Set	-7565
▁สิว	-7566
ไนเต็ด	-7567
▁สักพัก	-7568
▁ห้องสมุด	-7569
▁กระดาษแข็ง	-7570
ok	-7571
ป่า	-7572
▁ฮัง	-7573
▁Role	-7574
เติบโต	-7575
▁ทิ	-7576
▁กัป	-7577
เลื่อน	-7578
▁ตรวจจับ	-7579
▁เลือกตั้ง	-7580
ม้า	-7581
ยุทธ	-7582
เน้น	-7583
พิพาท	-7584
่างาม	-7585
▁ชํวง	-7586
amazon	-7587
▁เสียด	-7588
นิ้วมือ	-7589
▁Intern	-7590
▁คลอรีน	-7591
▁มุ่งเน้น	-7592
▁ค่าโดยสาร	-7593
▁ออร์เดอร์	-7594
INT	-7595
ิลลา	-7596
▁555	-7597
▁กัล	-7598
▁เดอร์	-7599
▁ตรงไหน	-7600
▁จุดด่าง	-7601
▁วานิลลา	-7602
▁เชื้อรา	-7603
▁จุดเริ่มต้น	-7604
ise	-7605
▁BU	-7606
▁แชมป์	-7607
▁หุงข้าว	-7608
▁กรม	-7609
▁อุท	-7610
▁ไซร	-7611
▁ยั่งยืน	-7612
▁UN	-7613
▁XP	-7614
ator	-7615
▁สถิติ	-7616
ความสูง	-7617
▁ประณีต	-7618
▁ระดับความสูง	-7619
▁ตลาดหลักทรัพย์	-7620
แช่	-7621
ชิงตัน	-7622
▁ฟอร์ด	-7623
▁บราซิล	-7624
▁วอชิงตัน	-7625
าวด์	-7626
▁เด้ง	-7627
▁ลูกศร	-7628
▁บรรยาย	-7629
OSE	-7630
กุม	-7631
ยาม	-7632
▁คิม	-7633
พิบัติ	-7634
▁ภัยพิบัติ	-7635
ตาร์	-7636
▁ฮ๋า	-7637
asonic	-7638
อันดับ	-7639
▁Color	-7640
▁ยึดติด	-7641
▁เครื่องใน	-7642
▁ตอนกลางคืน	-7643
▁เนื้อสัตว์	-7644
เข็ม	-7645
▁325	-7646
่อสร้าง	-7647
ray	-7648
▁ยุง	-7649
▁ฮอล	-7650
▁เคน	-7651
▁เนเธ	-7652
▁กํามะ	-7653
▁ผ้าขนหนู	-7654
▁พวงกุญแจ	-7655
▁เฉพาะตัว	-7656
▁ค่าบริการ	-7657
▁ความไม่	-7658
▁กระเทียม	-7659
▁หุ้นส่วน	-7660
▁เหมือนเดิม	-7661
▁เนเธอร์แลนด์	-7662
กรธ	-7663
TION	-7664
▁ยิม	-7665
▁ไลน์	-7666
▁กราฟฟ	-7667
▁ยับยั้ง	-7668
▁เข้าที่	-7669
▁เร่งรัด	-7670
▁Compressor	-7671
UI	-7672
UAL	-7673
▁DS	-7674
สรรพ	-7675
▁วสี	-7676
▁อัก	-7677
▁Cool	-7678
▁สนิม	-7679
ิจารณา	-7680
▁ระยะไกล	-7681
▁ใช้แล้ว	-7682
ame	-7683
▁ฮอน	-7684
▁2004	-7685
▁Anti	-7686
▁พีซี	-7687
▁Multi	-7688
▁อาชีพ	-7689
การเมือง	-7690
▁ลูกเล่น	-7691
▁ช่องว่าง	-7692
▁เขียนหนังสือ	-7693
▁ลําตัว	-7694
จอด	-7695
ชี้	-7696
บี้	-7697
▁มีอ	-7698
ไปถึง	-7699
▁คํานึง	-7700
▁รวมไปถึง	-7701
▁แจ็คเก็ต	-7702
▁ในขณะเดียวกัน	-7703
▁UP	-7704
HERM	-7705
▁การย	-7706
▁เบียร์	-7707
▁BO	-7708
▁GL	-7709
enti	-7710
ซ้อม	-7711
ด้าย	-7712
▁Mid	-7713
เดียม	-7714
▁ล้วน	-7715
▁สภาวะ	-7716
▁เปลือ	-7717
▁อ้างว่า	-7718
▁ขจัดคราบ	-7719
▁มะเขือเทศ	-7720
▁BB	-7721
ด้าน	-7722
สภาพ	-7723
หยี่	-7724
▁กรีก	-7725
▁Rolex	-7726
▁ให้สี	-7727
กิจกรรม	-7728
▁ความสนุก	-7729
▁มันฝรั่ง	-7730
▁กํามะหยี่	-7731
▁เมืองหลวง	-7732
85	-7733
▁ร์	-7734
การี	-7735
ค่ํา	-7736
droid	-7737
right	-7738
รกรรม	-7739
▁กัปตัน	-7740
▁ย้อนกลับ	-7741
▁Bro	-7742
▁น่าน	-7743
▁ร้อนที่	-7744
23	-7745
▁Ah	-7746
▁นักวิ	-7747
▁เวลาน	-7748
▁เป็นไง	-7749
▁นามบัตร	-7750
ELL	-7751
ถ้วน	-7752
ใกล้	-7753
▁Bal	-7754
▁ALUM	-7755
▁จดจํา	-7756
▁amazon	-7757
▁ด้วยซ้ํา	-7758
▁Panasonic	-7759
▁การพิจารณา	-7760
ถัง	-7761
▁หวี	-7762
จอดรถ	-7763
เพียง	-7764
▁พอที่	-7765
▁สมาธิ	-7766
▁โกลด์	-7767
▁การปรุง	-7768
เฮ	-7769
▁Em	-7770
STEM	-7771
ซื้อขาย	-7772
▁ข้าวโพด	-7773
าส์	-7774
▁PS	-7775
ylon	-7776
พุทธ	-7777
็กต์	-7778
▁Tre	-7779
▁Pink	-7780
▁ปลอบ	-7781
▁อิสลาม	-7782
▁ซีรี่ส์	-7783
▁ชั่วคราว	-7784
nit	-7785
und	-7786
ห่ม	-7787
▁ปิ	-7788
▁Mag	-7789
▁สํง	-7790
▁LEGO	-7791
▁ทดลอง	-7792
▁สะพาน	-7793
าวเวอร์	-7794
▁หลงรัก	-7795
▁ฮังการี	-7796
▁ข้อจํากัด	-7797
▁การก่อการร้าย	-7798
96	-7799
ส้น	-7800
▁999	-7801
▁ซีล	-7802
▁เศร้า	-7803
▁นึกถึง	-7804
▁ชุดชั้นใน	-7805
ina	-7806
len	-7807
ไก๋	-7808
▁ปุ	-7809
book	-7810
▁กาก	-7811
▁มังส	-7812
▁เก๋ไก๋	-7813
▁เส้นด้าย	-7814
ake	-7815
ผนึก	-7816
▁แชมพู	-7817
▁การบรร	-7818
▁การปฏิวัติ	-7819
งวด	-7820
▁จัดหา	-7821
▁รอคอย	-7822
▁อยู่ดี	-7823
▁Android	-7824
▁ตอนนั้น	-7825
▁ลายเส้น	-7826
▁ความหมาย	-7827
▁ทางเทคนิค	-7828
STON	-7829
tical	-7830
เลือด	-7831
▁ถ่ายเท	-7832
▁อยู่ใน	-7833
▁รอยเตอร์	-7834
ASH	-7835
▁บี้	-7836
▁PHIL	-7837
▁ความสําเร็จ	-7838
ทราย	-7839
▁ชายแดน	-7840
▁ที่นอน	-7841
▁แถลงการณ์	-7842
GH	-7843
ัมภ	-7844
▁123	-7845
กล้าม	-7846
▁มาลา	-7847
▁เบรก	-7848
▁ระบอบ	-7849
▁กระติก	-7850
▁ตลอดไป	-7851
▁ความเป็นไปได้	-7852
ปิด	-7853
▁Tim	-7854
▁อิง	-7855
ystem	-7856
▁การผจญภัย	-7857
▁ไฟฉาย	-7858
▁เรื่องสั้น	-7859
AK	-7860
แยก	-7861
▁จ๊ะ	-7862
ใบไม้	-7863
▁ประมง	-7864
▁ฤดูใบไม้	-7865
27	-7866
มห	-7867
▁AT	-7868
ุส	-7869
ott	-7870
โซน	-7871
cess	-7872
▁Finish	-7873
▁เอกราช	-7874
▁หลักการ	-7875
▁หุ่นยนต์	-7876
▁มีส่วนร่วม	-7877
ฟา	-7878
ห้า	-7879
▁1500	-7880
▁ห้องพัก	-7881
SW	-7882
ิทิน	-7883
▁เพน	-7884
▁ซีเรีย	-7885
▁น้ําอุ่น	-7886
็อง	-7887
เกิล	-7888
้ายวน	-7889
▁Face	-7890
▁มลภาวะ	-7891
▁เย้ายวน	-7892
98	-7893
▁กรร	-7894
▁เพรียว	-7895
▁เซรามิก	-7896
aw	-7897
▁OF	-7898
เชื่อถือ	-7899
▁แค่นั้น	-7900
ิ์	-7901
▁DE	-7902
ือ่ง	-7903
▁178	-7904
▁อ่น	-7905
▁2546	-7906
▁CASE	-7907
▁ช็อค	-7908
การผลิต	-7909
▁ละเมิด	-7910
▁ซัพพอร์ต	-7911
▁เชื้อโรค	-7912
▁สุดสัปดาห์	-7913
▁เสื้อกล้าม	-7914
มพร	-7915
▁ทริ	-7916
▁จําย	-7917
▁วิกฤต	-7918
▁หน่าย	-7919
ตะวันตก	-7920
▁จับได้	-7921
▁รายรับ	-7922
▁ฝัก	-7923
▁เปื้อน	-7924
▁มีความสําคัญ	-7925
ยุทธ์	-7926
▁ช่องแช่	-7927
▁ปิดผนึก	-7928
▁ข้อพิพาท	-7929
▁วิศวกรรม	-7930
▁ส่งสัญญาณ	-7931
สท์	-7932
▁ราก	-7933
▁นิตยสาร	-7934
▁ac	-7935
สรรค	-7936
▁บัง	-7937
จราจร	-7938
เตียน	-7939
▁ยุคใหม่	-7940
▁อุปสรรค	-7941
▁ปฏิกิริยา	-7942
▁อยู่ในเกณฑ์	-7943
KO	-7944
ซูล	-7945
▁เซ็ท	-7946
▁TB	-7947
5555	-7948
รัติ	-7949
▁HEPA	-7950
ไม่นาน	-7951
▁ยอดขาย	-7952
▁ท่าเรือ	-7953
▁แต่ละคน	-7954
▁อุบัติเหตุ	-7955
amp	-7956
bon	-7957
▁GS	-7958
านคร	-7959
▁ฝาก	-7960
▁หนี	-7961
▁WiFi	-7962
▁การฝึก	-7963
▁นักกีฬา	-7964
ินี	-7965
พติด	-7966
▁กลิ่นอับ	-7967
▁จดบันทึก	-7968
▁เป็นหลัก	-7969
▁การซื้อขาย	-7970
▁ตี้	-7971
วิรัติ	-7972
▁ถึงแม้	-7973
▁อยากรู้	-7974
▁ผู้ปกครอง	-7975
▁เหนือกว่า	-7976
▁ความเครียด	-7977
▁มังสวิรัติ	-7978
▁ช่องแช่แข็ง	-7979
ีเอ	-7980
สนาม	-7981
▁BOD	-7982
▁แพค	-7983
▁Cros	-7984
▁Ther	-7985
▁ออร์แก	-7986
▁ใช้สอย	-7987
▁ตั้งโต๊ะ	-7988
รษณ	-7989
▁ลอส	-7990
idsole	-7991
▁อุดตัน	-7992
▁ต่อไปนี้	-7993
ยู	-7994
มเป	-7995
เยซู	-7996
▁103	-7997
▁ลงนาม	-7998
▁พระเยซู	-7999
▁เสรีภาพ	-8000
▁มีเรื่อง	-8001
▁เป็นระบบ	-8002
แลกเปลี่ยน	-8003
▁สินค้าส่งออก	-8004
น็	-8005
โช	-8006
▁วน	-8007
▁โปเก	-8008
▁เหลืออยู่	-8009
ความคิดเห็น	-8010
▁เป็นสมาชิก	-8011
sp	-8012
OUR	-8013
หุ้น	-8014
ากษา	-8015
▁BRO	-8016
▁Coo	-8017
▁หลา	-8018
▁ไพร	-8019
สนับสนุน	-8020
▁กรรมการ	-8021
▁อากาศยาน	-8022
ยุก	-8023
▁She	-8024
ีดกัน	-8025
▁CATH	-8026
▁ผ้าอ้อม	-8027
▁จดทะเบียน	-8028
▁อัตราแลกเปลี่ยน	-8029
OOK	-8030
uri	-8031
เลิศ	-8032
▁But	-8033
▁แพคเกจ	-8034
▁KIDSTON	-8035
ld	-8036
▁205	-8037
▁ผ้าห่ม	-8038
▁แตกหัก	-8039
▁กระเป๋าถือ	-8040
ก้า	-8041
▁โฟล	-8042
ประตู	-8043
ส้นสูง	-8044
▁สองเท่า	-8045
▁Croslite	-8046
▁การทดลอง	-8047
▁คาบสมุทร	-8048
▁ฟิลเตอร์	-8049
▁ร้องเพลง	-8050
▁ออร์แกนิค	-8051
▁รองเท้าส้นสูง	-8052
▁จี้	-8053
▁วาย	-8054
▁DriF	-8055
▁บุคลิก	-8056
ส่วนใหญ่	-8057
▁ลื่นไหล	-8058
▁ผู้บัญชาการ	-8059
สาบ	-8060
▁2009	-8061
▁อ่าว	-8062
▁เพรส	-8063
รษณีย์	-8064
▁ขอเวลา	-8065
▁ปฏิทิน	-8066
▁รณ	-8067
INDOW	-8068
▁Upper	-8069
▁หรือว่า	-8070
▁สภาพคล่อง	-8071
ัค	-8072
พับ	-8073
▁Prot	-8074
▁เอเช	-8075
▁คริสเตียน	-8076
gl	-8077
ITY	-8078
▁AAA	-8079
▁ดึก	-8080
▁น่ง	-8081
▁หัด	-8082
▁แคปซูล	-8083
▁หลานชาย	-8084
▁เด็กผู้ชาย	-8085
▁ความคาดหวัง	-8086
43	-8087
▁LT	-8088
ประโลม	-8089
▁ปลอบประโลม	-8090
▁สถาบันการเงิน	-8091
แม	-8092
▁112	-8093
▁ทวิ	-8094
ELESS	-8095
อนุรักษ์	-8096
▁มีความหมาย	-8097
ถนน	-8098
กว้าง	-8099
▁ไฟฟ้าสถ	-8100
▁นั้นแหละ	-8101
▁การอนุรักษ์	-8102
▁On	-8103
การ์	-8104
▁WIR	-8105
▁Leather	-8106
▁อัพเกรด	-8107
▁เอสเพรส	-8108
EE	-8109
amb	-8110
ขัน	-8111
▁One	-8112
ศาสนา	-8113
▁พ่วง	-8114
มพร้อม	-8115
เบิร์ก	-8116
▁เอกชน	-8117
▁ความตึง	-8118
ียมพร้อม	-8119
▁เส้นบรรทัด	-8120
les	-8121
ขยะ	-8122
ทิศทาง	-8123
▁จัดวาง	-8124
▁เคี้ยว	-8125
▁อาณาเขต	-8126
▁ล้อเลื่อน	-8127
ไท	-8128
▁ip	-8129
▁Int	-8130
ทรงจํา	-8131
▁สตรีม	-8132
▁ป้ายชื่อ	-8133
▁คํานึงถึง	-8134
▁เสร็จสิ้น	-8135
▁ความทรงจํา	-8136
รู	-8137
▁เชฟ	-8138
▁ซูชิ	-8139
▁พุทธ	-8140
ESSION	-8141
▁ถ่ายรูป	-8142
▁y	-8143
ich	-8144
าวชน	-8145
▁Net	-8146
คุณค่า	-8147
▁ปลายทาง	-8148
▁สับปะรด	-8149
▁โทรทัศน์	-8150
คุก	-8151
ดอก	-8152
ผ่า	-8153
▁พระม	-8154
▁ม็อบ	-8155
▁Melody	-8156
บัว	-8157
▁Fil	-8158
▁ดาด	-8159
▁ลําคอ	-8160
▁ไวรัส	-8161
▁นักงาน	-8162
76	-8163
UE	-8164
ไกร	-8165
▁Ke	-8166
พริบ	-8167
เครน	-8168
เล่า	-8169
▁PER	-8170
เยียม	-8171
็คชั่น	-8172
▁promo	-8173
▁คอนเฟ	-8174
▁ยูเครน	-8175
▁เปลือง	-8176
▁อย่างใด	-8177
▁เบลเยียม	-8178
ชู	-8179
▁XS	-8180
▁งู	-8181
▁อส	-8182
▁CAR	-8183
▁Des	-8184
▁แพล	-8185
▁โพง	-8186
▁วิลล์	-8187
▁โปรเจ	-8188
▁กุหลาบ	-8189
▁polyamide	-8190
ธยม	-8191
▁Am	-8192
▁Mon	-8193
ental	-8194
▁CHAR	-8195
เอเชีย	-8196
▁ครีเอ	-8197
▁สุภาพ	-8198
▁ความดัน	-8199
▁ชิงแชมป์	-8200
▁สูญญากาศ	-8201
▁วันทํางาน	-8202
▁ปิโตรเลียม	-8203
ผ่	-8204
ุฒ	-8205
▁315	-8206
▁GEN	-8207
▁ว้าว	-8208
▁กํากับ	-8209
▁ความสําคัญ	-8210
▁หวัด	-8211
▁ตะกร้า	-8212
▁คอนเฟิร์ม	-8213
▁ชั้นเรียน	-8214
▁CAM	-8215
ivers	-8216
▁แหวน	-8217
▁คินเด	-8218
▁การสอน	-8219
▁น้องสาว	-8220
▁รังสรรค์	-8221
ติ้ง	-8222
▁เวท	-8223
▁แขก	-8224
▁เยาวชน	-8225
▁ยึดครอง	-8226
▁เอเชียน	-8227
▁โครเมียม	-8228
▁sp	-8229
▁275	-8230
▁บุก	-8231
▁มณฑล	-8232
▁Control	-8233
ความยินดี	-8234
▁รหัสผ่าน	-8235
▁ไหลเวียน	-8236
ty	-8237
ary	-8238
▁NO	-8239
▁ข้าวเย็น	-8240
ครั้งที่สอง	-8241
ZZ	-8242
UND	-8243
เพาะ	-8244
▁อนา	-8245
▁เนื้อใน	-8246
▁กางเกงใน	-8247
▁พารา	-8248
▁ซูเปอร์	-8249
▁ทั้งตัว	-8250
▁ผู้ป่วย	-8251
▁จัดอันดับ	-8252
▁น่าเชื่อถือ	-8253
เปล	-8254
▁Su	-8255
entr	-8256
▁พาย	-8257
▁เกร	-8258
หรูหรา	-8259
▁ความหรูหรา	-8260
▁ดําเนินงาน	-8261
REE	-8262
▁คาแ	-8263
ศิลปะ	-8264
สวัสด	-8265
▁แกรนด์	-8266
▁ทองเหลือง	-8267
คลัง	-8268
ทิ้ง	-8269
▁750	-8270
▁SAM	-8271
ลักษณะ	-8272
▁หลงใหล	-8273
▁อาหรับ	-8274
bo	-8275
UTO	-8276
for	-8277
▁FG	-8278
▁SET	-8279
▁ทัศ	-8280
▁ผู้ซื้อ	-8281
▁ดุลการค้า	-8282
79	-8283
สงบ	-8284
▁ปอน	-8285
▁Hand	-8286
▁สนามหญ้า	-8287
▁อินทรีย์	-8288
▁เบื้องหลัง	-8289
▁ความนุ่มนวล	-8290
GA	-8291
ไอ	-8292
eng	-8293
ins	-8294
▁โฉ	-8295
ธาตุ	-8296
สรุป	-8297
▁Gas	-8298
▁ลิต	-8299
▁ฮัน	-8300
▁โซ่	-8301
▁บาเรล	-8302
▁ดาดฟ้า	-8303
▁สวีเดน	-8304
▁PHILIPS	-8305
▁สหพันธ์	-8306
▁แต่งตั้ง	-8307
▁เชิงพาณิชย์	-8308
▁การร้องเรียน	-8309
afe	-8310
▁Day	-8311
▁NYX	-8312
▁ตัก	-8313
็อกซ์	-8314
▁แสงไฟ	-8315
กลางวัน	-8316
▁คําพูด	-8317
▁โปเกมอน	-8318
▁ตลอดทั้ง	-8319
▁ปลดปล่อย	-8320
▁น้อยที่สุด	-8321
บัด	-8322
▁ระเหย	-8323
▁FILTER	-8324
▁ภาพวาด	-8325
▁แป้นพิมพ์	-8326
41	-8327
ทส์	-8328
สนทนา	-8329
▁แน่นหนา	-8330
▁เราเตอร์	-8331
▁การปฏิบัติ	-8332
ย่า	-8333
▁แปร	-8334
▁HOME	-8335
▁เป๊ะ	-8336
ผู้แทน	-8337
▁ไอเดีย	-8338
▁ในเวลาน	-8339
▁ที่จอดรถ	-8340
IE	-8341
ORE	-8342
▁Green	-8343
บังคับใช้	-8344
rop	-8345
▁บัส	-8346
▁เขม	-8347
▁Flex	-8348
▁สุ่ม	-8349
▁แอมป์	-8350
▁การปรุงอาหาร	-8351
240	-8352
ิมะ	-8353
▁วู	-8354
ดูแล	-8355
แถลง	-8356
▁ไอศ	-8357
▁BUIL	-8358
▁ให้น	-8359
ียเตอร์	-8360
▁ER	-8361
นนิส	-8362
▁ลับ	-8363
▁ผู้ว	-8364
ืบหน้า	-8365
เสพติด	-8366
▁ฮอนด้า	-8367
▁รร	-8368
▁Pol	-8369
▁บิล	-8370
▁CONT	-8371
▁จ่ายไฟ	-8372
▁สิบห้า	-8373
▁งานศิลปะ	-8374
▁เนื่องใน	-8375
▁เดือนก่อน	-8376
ิจฉ	-8377
ไหม้	-8378
▁ค่าย	-8379
▁Lifting	-8380
▁บาดเจ็บ	-8381
▁คัดเลือก	-8382
MA	-8383
ATER	-8384
▁COOL	-8385
▁อิหร	-8386
▁แสดงถึง	-8387
▁ช็อคโกแลต	-8388
ค้น	-8389
LINE	-8390
▁ควัน	-8391
ระเบิด	-8392
▁นับแต่	-8393
eed	-8394
นาว	-8395
▁ML	-8396
▁Fed	-8397
ภายใน	-8398
▁ทัศน	-8399
▁มรดก	-8400
▁เขมร	-8401
อย่างมาก	-8402
▁ส่วนมาก	-8403
▁อิหร่าน	-8404
▁เป็นอย่างมาก	-8405
ทอ	-8406
ANI	-8407
fort	-8408
คลึง	-8409
ซ้าย	-8410
หงิด	-8411
▁ดี้	-8412
▁Elec	-8413
▁Wire	-8414
ุดหงิด	-8415
▁คู่แข่ง	-8416
▁รายใหญ่	-8417
▁ช้อปปิ้ง	-8418
▁เอกอัครราชทูต	-8419
ts	-8420
รุษ	-8421
ตรอน	-8422
ห่าง	-8423
อิ่ม	-8424
▁โอ๊ค	-8425
INDOWS	-8426
เสน่ห์	-8427
ําร้าย	-8428
▁มีอํานาจ	-8429
หากษัตริย์	-8430
▁ครั้งหนึ่ง	-8431
PT	-8432
IST	-8433
แปล	-8434
ITAL	-8435
▁ชัก	-8436
▁หมี	-8437
▁แดด	-8438
มากขึ้น	-8439
▁อะไรก็ตาม	-8440
▁เพิ่มมากขึ้น	-8441
▁DB	-8442
▁ลัท	-8443
▁Cath	-8444
▁โกรธ	-8445
รับรอง	-8446
▁ชัยชนะ	-8447
▁ชื่นชม	-8448
▁พระมหากษัตริย์	-8449
ซ่อม	-8450
▁จําคุก	-8451
▁WIRELESS	-8452
▁เตรียมพร้อม	-8453
ซอ	-8454
ohn	-8455
แตก	-8456
amic	-8457
▁Gel	-8458
▁ชิม	-8459
▁หลบ	-8460
▁ม่าน	-8461
▁หยาบ	-8462
▁เลียน	-8463
▁ค่าที่	-8464
▁บทสนทนา	-8465
▁พฤหัสบดี	-8466
▁เป็นช่วง	-8467
by	-8468
fl	-8469
อริ	-8470
ีร์	-8471
▁Bra	-8472
▁MBS	-8473
▁กุ้ง	-8474
สวัสดิ์	-8475
▁การกรอง	-8476
▁แช่เย็น	-8477
PL	-8478
ลีท	-8479
▁SL	-8480
▁kg	-8481
อร์น	-8482
▁โซฟา	-8483
ใต้ดิน	-8484
▁ความผ	-8485
▁คอมพลีท	-8486
▁อันนั้น	-8487
▁แร่ธาตุ	-8488
▁ผู้ใช้งาน	-8489
▁สินทรัพย์	-8490
▁ผู้จัดจําหน่าย	-8491
ips	-8492
ype	-8493
ภาคี	-8494
▁Dry	-8495
▁Met	-8496
▁คว้า	-8497
▁บุตร	-8498
▁ย่อม	-8499
▁Serum	-8500
▁มีพลัง	-8501
▁ฉุกเฉิน	-8502
▁ทางเดิน	-8503
▁บทเรียน	-8504
▁บ่ายโมง	-8505
▁สายพันธุ์	-8506
▁ทํากิจกรรม	-8507
▁on	-8508
ท้วง	-8509
ปลาย	-8510
▁สุญ	-8511
▁Kids	-8512
เกี่ยว	-8513
▁SYSTEM	-8514
▁คําเตือน	-8515
▁สุญญากาศ	-8516
▁ผู้บริหาร	-8517
▁อาหารกลางวัน	-8518
foam	-8519
สาระ	-8520
▁SIZ	-8521
สงคราม	-8522
▁ซ่อมแซม	-8523
▁รับผิดชอบ	-8524
▁International	-8525
ley	-8526
กาก	-8527
คติ	-8528
มุม	-8529
▁FM	-8530
itch	-8531
▁You	-8532
▁ปลอม	-8533
▁หิมะ	-8534
เพื่อน	-8535
▁ต้นขา	-8536
▁ปีใหม่	-8537
▁ผู้แทน	-8538
▁เข้มงวด	-8539
▁โปร่งใส	-8540
▁หมวดหมู่	-8541
งับ	-8542
แรงงาน	-8543
▁Cooled	-8544
▁ลึกซึ้ง	-8545
▁เท่ากัน	-8546
ME	-8547
AIN	-8548
▁อล	-8549
ปราน	-8550
▁ลูกบ	-8551
▁โฆษก	-8552
▁เรียล	-8553
▁ตามคํา	-8554
▁ได้ขนาด	-8555
▁ร่วมสมัย	-8556
▁ผี	-8557
โทรล	-8558
▁116	-8559
▁156	-8560
▁BAL	-8561
▁Cleans	-8562
▁มอบให้	-8563
▁JP	-8564
▁นู	-8565
▁WOR	-8566
▁ทราย	-8567
เบื้อง	-8568
▁เรือง	-8569
▁การแก้	-8570
▁จัดทํา	-8571
▁กลยุทธ์	-8572
▁โปรดปราน	-8573
▁การเคลือบ	-8574
▁รับรางวัล	-8575
▁สําเร็จรูป	-8576
CO	-8577
๊บ	-8578
▁sh	-8579
▁โทษ	-8580
▁ดูจะ	-8581
▁เชิญ	-8582
▁ซิงค์	-8583
แม่เหล็ก	-8584
บัส	-8585
▁SF	-8586
▁Non	-8587
▁Rem	-8588
▁ติดต	-8589
▁ติดต่อกัน	-8590
▁สิ้นสุดลง	-8591
▁อาหารเย็น	-8592
▁ระบบเศรษฐกิจ	-8593
ตระ	-8594
▁GPS	-8595
▁OUT	-8596
างเกง	-8597
IGITAL	-8598
▁วงกลม	-8599
▁กําแพง	-8600
▁ปราสาท	-8601
▁เสี่ยง	-8602
▁หลานสาว	-8603
▁เซ็กซี่	-8604
▁ครั้งสุดท้าย	-8605
ano	-8606
▁ดอน	-8607
ยุกต์	-8608
▁Auto	-8609
iscose	-8610
▁มีเสน่ห์	-8611
ควง	-8612
▁Wh	-8613
กลุ่ม	-8614
▁ร็อค	-8615
▁Fresh	-8616
▁กรรไกร	-8617
▁กองทุน	-8618
▁ความจํา	-8619
ตลก	-8620
ํอน	-8621
▁Bu	-8622
ไซด์	-8623
▁ว้า	-8624
▁Gold	-8625
▁ทรวง	-8626
กํากับ	-8627
▁POWER	-8628
▁เอียง	-8629
▁เบอร์เกอร์	-8630
73	-8631
ABY	-8632
เสบ	-8633
soft	-8634
มนุษ	-8635
ุกรม	-8636
▁เย้	-8637
▁รุกราน	-8638
▁เซิร์ฟ	-8639
ที่เหลือ	-8640
▁ภาพประกอบ	-8641
กิ	-8642
CLU	-8643
ปลา	-8644
▁Di	-8645
▁ดะ	-8646
คงทน	-8647
▁อิล	-8648
▁ฉนวน	-8649
▁เว้า	-8650
▁ภาคพื้น	-8651
▁ความคงทน	-8652
▁ยูไนเต็ด	-8653
▁ผู้จัดการ	-8654
▁อพ	-8655
▁118	-8656
▁DRI	-8657
ative	-8658
▁ระเบียง	-8659
ical	-8660
▁330	-8661
ology	-8662
▁ไขควง	-8663
▁ถังขยะ	-8664
ELF	-8665
▁FW	-8666
▁ไค	-8667
▁ทัง	-8668
▁หาว	-8669
▁Croc	-8670
▁กลาส	-8671
▁ตํานาน	-8672
▁อนุมูล	-8673
▁เป่าผม	-8674
gan	-8675
ดิ์	-8676
สมรส	-8677
▁ทีละ	-8678
▁หญ้า	-8679
▁เก่ง	-8680
▁แผ่นซีดี	-8681
EAT	-8682
OOM	-8683
ลอก	-8684
แหล	-8685
▁BK	-8686
idas	-8687
▁425	-8688
▁ทริป	-8689
▁วิเศษ	-8690
▁โมเดล	-8691
▁กลางวัน	-8692
▁น์	-8693
▁เจริญ	-8694
▁ขาดหาย	-8695
▁คอนโทรล	-8696
▁SO	-8697
เช็ด	-8698
▁SUP	-8699
▁ขี่	-8700
▁ซิง	-8701
▁มาน	-8702
▁อภิ	-8703
▁Grey	-8704
▁John	-8705
▁ผลักดัน	-8706
▁เหลี่ยม	-8707
▁เชอร์รี่	-8708
ELS	-8709
inn	-8710
lic	-8711
ชิโน	-8712
▁คาปู	-8713
▁คาปูชิโน	-8714
โมย	-8715
▁เรต	-8716
▁ให๎	-8717
คาร่า	-8718
▁สู้รบ	-8719
▁ตกหลุม	-8720
▁ฝ่าเท้า	-8721
▁มาสคาร่า	-8722
▁ส่วนกลาง	-8723
▁หงุดหงิด	-8724
▁คุณผู้หญิง	-8725
to	-8726
ูท	-8727
omp	-8728
ลัด	-8729
สถ์	-8730
▁265	-8731
▁LIT	-8732
▁อวด	-8733
▁โรม	-8734
▁สลัด	-8735
▁จอร์จ	-8736
▁ลัทธิ	-8737
▁แล้วแต่	-8738
▁กรรมวิธี	-8739
▁สักหน่อย	-8740
▁เต็มอิ่ม	-8741
▁ความตึงเครียด	-8742
XT	-8743
แบ	-8744
ไฮ	-8745
ura	-8746
นวณ	-8747
▁CR	-8748
▁ไอพ	-8749
▁อนาคต	-8750
▁เอาท์	-8751
▁ครีเอท	-8752
อย่างนั้น	-8753
▁ทั้งหลาย	-8754
▁สารอาหาร	-8755
▁แบบฟอร์ม	-8756
▁ให้ความสําคัญ	-8757
▁ME	-8758
นั่ง	-8759
▁Rec	-8760
▁ตรม	-8761
▁เก้	-8762
▁โบสถ์	-8763
▁พาสต้า	-8764
▁เหมือง	-8765
▁Comfort	-8766
▁รับเงิน	-8767
▁การกีดกัน	-8768
หด	-8769
els	-8770
มาตร	-8771
▁Rev	-8772
▁สูท	-8773
▁หาง	-8774
ียรติ	-8775
▁เพาะ	-8776
▁แสวง	-8777
▁ไฮโด	-8778
▁ครบรอบ	-8779
▁ยอมแพ้	-8780
▁เม้าส์	-8781
▁ให้ราคา	-8782
▁สัมพันธ์	-8783
▁เพื่อนบ้าน	-8784
▁ความคืบหน้า	-8785
กูล	-8786
▁Med	-8787
▁ป้า	-8788
คํานวณ	-8789
▁ตกหล่น	-8790
ํานวยการ	-8791
▁ทะเลสาบ	-8792
▁โดยปกติ	-8793
▁การเจริญ	-8794
▁ปลายเดือน	-8795
91	-8796
ษฎ	-8797
oost	-8798
rans	-8799
▁Adv	-8800
▁CRO	-8801
้อมูล	-8802
▁สีสด	-8803
▁บาล์ม	-8804
▁แหล่งข้อมูล	-8805
ITA	-8806
จิต	-8807
▁TR	-8808
ปลูก	-8809
▁con	-8810
▁ขัน	-8811
▁วู้	-8812
▁กษัตริย์	-8813
ั่งน้ําหนัก	-8814
▁เครื่องเทศ	-8815
▁เครื่องเขียน	-8816
ขยาย	-8817
▁320	-8818
▁คณิต	-8819
อาบน้ํา	-8820
▁เชี่ยวชาญ	-8821
ITH	-8822
บคู่	-8823
▁Wal	-8824
▁ทางใน	-8825
▁ควบคู่	-8826
▁ตราสาร	-8827
วัฒนธรรม	-8828
▁Stripes	-8829
▁ถอยหลัง	-8830
▁ประยุกต์	-8831
▁อาณาจักร	-8832
▁เวอร์ชัน	-8833
▁ทางการแพทย์	-8834
REEN	-8835
กภัย	-8836
อภัย	-8837
แหลม	-8838
▁916	-8839
▁Off	-8840
▁Run	-8841
▁Back	-8842
▁วรรณ	-8843
▁เยื่อ	-8844
▁ตวัรอ้ย	-8845
ier	-8846
ยชน	-8847
โร่	-8848
๎าง	-8849
▁ฆา	-8850
▁ชิป	-8851
าส่วน	-8852
▁SHOP	-8853
▁Midsole	-8854
▁กักเก็บ	-8855
▁ล้างหน้า	-8856
▁การคํานวณ	-8857
▁เพิม่ขึน้	-8858
บาด	-8859
▁รีม	-8860
▁แซม	-8861
▁กระช	-8862
▁ตื้น	-8863
▁ฟาร์	-8864
กระดาษ	-8865
▁จิตใจ	-8866
▁เพลย์	-8867
▁ความคม	-8868
▁ดอกเบี้ย	-8869
▁OT	-8870
SIVE	-8871
▁พีช	-8872
▁คัมภ	-8873
▁เกีย	-8874
▁ฮีโร่	-8875
▁คัมภีร์	-8876
▁ตอนท้าย	-8877
๊อก	-8878
▁Ro	-8879
orld	-8880
▁Gog	-8881
▁แวว	-8882
▁BODY	-8883
▁Fire	-8884
▁ห่วย	-8885
▁แม็ก	-8886
▁มะนาว	-8887
▁วีซ่า	-8888
▁โอโซน	-8889
▁ฝักบัว	-8890
▁ความหวาน	-8891
▁เครื่องทํา	-8892
ik	-8893
▁ทอม	-8894
▁เอ็ด	-8895
▁หาว่า	-8896
▁เดือด	-8897
▁ทําร้าย	-8898
▁ตะวันออกกลาง	-8899
LD	-8900
สัต	-8901
▁As	-8902
หวัด	-8903
▁ชํา	-8904
▁มุก	-8905
ภาษณ์	-8906
▁Mesh	-8907
▁SAMS	-8908
▁คลัง	-8909
▁ขายดี	-8910
▁ทุกปี	-8911
▁ลักซ์	-8912
▁เฉียบ	-8913
▁เพียงใด	-8914
▁ครอบครอง	-8915
▁การฟื้นฟู	-8916
▁กองทัพอากาศ	-8917
DR	-8918
จี	-8919
ini	-8920
หิน	-8921
▁Gu	-8922
▁ไก	-8923
▁1920	-8924
▁ความว	-8925
▁ครบถ้วน	-8926
เฉียงเหนือ	-8927
▁เป็นเพื่อน	-8928
ern	-8929
ยาง	-8930
ista	-8931
ming	-8932
ดีโอ	-8933
ข้อมูล	-8934
▁Moist	-8935
▁ความใน	-8936
▁วีดีโอ	-8937
▁สถาปนา	-8938
▁ความแรง	-8939
▁สื่อสาร	-8940
▁เด็กชาย	-8941
▁Wireless	-8942
▁การจราจร	-8943
▁อิมพอร์ต	-8944
▁สังคมนิยม	-8945
▁เม็กซิกัน	-8946
GL	-8947
ee	-8948
▁BR	-8949
LING	-8950
ก็ดี	-8951
▁Rub	-8952
▁ลูบ	-8953
▁Sens	-8954
▁พี่ชาย	-8955
▁รับสาย	-8956
▁หัวเข็ม	-8957
▁ใช้กําลัง	-8958
▁น่าประทับใจ	-8959
▁การเจริญเติบโต	-8960
ACE	-8961
▁Li	-8962
▁ฟิน	-8963
▁เซีย	-8964
▁EXCLU	-8965
▁พัสดุ	-8966
▁บ่งบอก	-8967
▁กรุงเทพฯ	-8968
▁EXCLUSIVE	-8969
▁การแก้ปัญหา	-8970
IGE	-8971
ฝัน	-8972
ารพ	-8973
▁Gen	-8974
▁ซิม	-8975
▁MAKE	-8976
▁Touch	-8977
▁เรซิน	-8978
▁ONLINE	-8979
▁Silver	-8980
▁ความหวัง	-8981
▁โมเดิร์น	-8982
▁เป็นเจ้าภาพ	-8983
ดี้	-8984
เทน	-8985
ไล่	-8986
แล้ง	-8987
▁รอด	-8988
ittle	-8989
ตัวอย่าง	-8990
▁Univers	-8991
▁กลมกลืน	-8992
▁ใบอนุญาต	-8993
หม้อ	-8994
วรรค์	-8995
ารถนา	-8996
▁BABY	-8997
▁ตัวตน	-8998
▁BALANCE	-8999
▁ตกหลุมรัก	-9000
ouble	-9001
▁ซิ่ง	-9002
▁ฟอกสี	-9003
▁เอื้อ	-9004
▁ขออภัย	-9005
▁ทรวงอก	-9006
▁จุดหมาย	-9007
▁ด้วยว่า	-9008
▁อย่างไรก็ดี	-9009
100	-9010
รกี	-9011
บาตร	-9012
ี้ยน	-9013
โค้ง	-9014
▁ตุรกี	-9015
▁ละออง	-9016
▁Lotion	-9017
▁ตระกูล	-9018
▁ลูชั่น	-9019
▁ร้ายแรง	-9020
▁กําหนดให้	-9021
▁คว่ําบาตร	-9022
ave	-9023
ลวง	-9024
สัก	-9025
จ่าง	-9026
▁NOT	-9027
▁ดัม	-9028
▁Lite	-9029
▁สํวน	-9030
▁ในทาง	-9031
▁อักเสบ	-9032
ก้าวหน้า	-9033
▁สง่างาม	-9034
▁อุทกภัย	-9035
▁มาลาเรีย	-9036
▁แต่ละครั้ง	-9037
▁ความกระจ่าง	-9038
dle	-9039
tte	-9040
ทอง	-9041
▁บิต	-9042
กระจาย	-9043
▁คาแรค	-9044
▁หน้าปก	-9045
▁Kidston	-9046
▁สัมภาษณ์	-9047
▁Microsoft	-9048
▁หมุนเวียน	-9049
▁คาแรคเตอร์	-9050
▁เสียค่าเช่า	-9051
62	-9052
▁๎ย	-9053
เปิด	-9054
▁107	-9055
▁248	-9056
▁2002	-9057
▁Mask	-9058
▁เขย่า	-9059
ฟอกอากาศ	-9060
▁สวนสาธารณะ	-9061
▁เครื่องฟอกอากาศ	-9062
▁ฮู	-9063
ภาษี	-9064
▁๎อย	-9065
ASTIC	-9066
▁1996	-9067
▁เฉียง	-9068
▁งานวิจัย	-9069
▁ยาเสพติด	-9070
▁เร่งด่วน	-9071
ONS	-9072
▁an	-9073
▁Dual	-9074
▁Plan	-9075
▁เก่าแก่	-9076
▁สถานีรถไฟ	-9077
สนิท	-9078
▁กาล	-9079
พัฒนา	-9080
▁สต็อก	-9081
มนุษยชน	-9082
▁ที่จริง	-9083
▁บะ	-9084
ZZION	-9085
▁ป๊อป	-9086
คมนาคม	-9087
▁INPUT	-9088
▁ชาร์ต	-9089
▁เทรนด์	-9090
▁PAZZION	-9091
▁ประกอบอาหาร	-9092
ษ์	-9093
DER	-9094
eld	-9095
ตาย	-9096
กชัน	-9097
ิลด์	-9098
▁Bar	-9099
▁ตอบกลับ	-9100
▁คอลเลกชัน	-9101
▁แผ่นดินไหว	-9102
MB	-9103
ฝ้า	-9104
▁Up	-9105
▁PLU	-9106
เรียง	-9107
▁ที่รวม	-9108
ซา	-9109
ารี	-9110
▁ลน	-9111
ัมป์	-9112
ิบัต	-9113
ุฒิส	-9114
▁ขุด	-9115
▁เหง	-9116
▁แอป	-9117
เมื่อ	-9118
▁LAUR	-9119
▁แบล็ก	-9120
▁คนเขียน	-9121
▁ผ้าเช็ด	-9122
▁ส่วนที่เหลือ	-9123
บาน	-9124
นิธิ	-9125
▁พร่อง	-9126
ทันสมัย	-9127
แรกเกิด	-9128
▁คิดค้น	-9129
▁ทางออก	-9130
▁ปฏิบัต	-9131
▁Optical	-9132
▁มูลนิธิ	-9133
▁เจ้าชาย	-9134
▁ผู้เข้าร	-9135
▁หนังกลับ	-9136
▁ชิงชนะเลิศ	-9137
▁แอฟริกาใต้	-9138
▁ความทันสมัย	-9139
▁เด็กแรกเกิด	-9140
ล้ม	-9141
▁แง	-9142
หร่าย	-9143
▁ผู้วิจ	-9144
▁สาหร่าย	-9145
▁เป็นงาน	-9146
▁เป็นอิสระ	-9147
▁ผู้อํานวยการ	-9148
211	-9149
son	-9150
▁CE	-9151
ํารา	-9152
▁Man	-9153
▁กริ	-9154
▁ตอก	-9155
▁Goga	-9156
▁Grip	-9157
▁ปราบ	-9158
พลังงาน	-9159
▁อีเมล์	-9160
▁ค้าปลีก	-9161
▁ลูชั่นส์	-9162
▁แอปพลิเค	-9163
▁สิ่งมีชีวิต	-9164
สห	-9165
UNG	-9166
รัง	-9167
วิน	-9168
▁ด้	-9169
ูงใจ	-9170
▁025	-9171
▁DPI	-9172
▁ทาส	-9173
▁อัญ	-9174
press	-9175
▁IPAD	-9176
▁ไซต์	-9177
ยอมรับ	-9178
▁ที่ใด	-9179
▁การคืน	-9180
▁ตอนเย็น	-9181
▁ผู้เข้าร่วม	-9182
๊อ	-9183
๋น	-9184
▁ฮิล	-9185
light	-9186
กลิ่น	-9187
ไม่ดี	-9188
▁ซ้อน	-9189
▁พายุ	-9190
▁ระดม	-9191
▁ติดกัน	-9192
▁คินเดิล	-9193
▁ทางหลวง	-9194
▁รูปถ่าย	-9195
มพิวเตอร์	-9196
ตส์	-9197
ึง่	-9198
ิจฉัย	-9199
ตั้งใจ	-9200
้าร้อน	-9201
▁จําได้	-9202
นั่งเล่น	-9203
▁หญิงสาว	-9204
▁หน้าร้อน	-9205
▁เซ็นเตอร์	-9206
▁ห้องนั่งเล่น	-9207
▁ดํารงตําแหน่ง	-9208
iti	-9209
▁La	-9210
▁ตู	-9211
เทิล	-9212
▁บูร	-9213
▁ไอซ์	-9214
▁สิทธิ์	-9215
▁ปรับอากาศ	-9216
คอมพิวเตอร์	-9217
92	-9218
HZ	-9219
ือ่	-9220
▁กน	-9221
roup	-9222
▁ทัช	-9223
▁ทิว	-9224
▁WITH	-9225
▁เกราะ	-9226
▁Little	-9227
▁อํานวย	-9228
▁ความประทับใจ	-9229
▁พรรคการเมือง	-9230
▁ด้วยความยินดี	-9231
ICK	-9232
ote	-9233
กรี	-9234
▁แฝ	-9235
ฉลอง	-9236
แปลก	-9237
▁คัล	-9238
▁สวิท	-9239
▁หั่น	-9240
และกัน	-9241
▁System	-9242
▁ชั้นใน	-9243
▁ปลายปี	-9244
▁เลี้ยว	-9245
▁ผู้สมัคร	-9246
its	-9247
ker	-9248
▁พน	-9249
ling	-9250
แขวน	-9251
▁นัย	-9252
▁บลัช	-9253
ล่าช้า	-9254
▁อนุมัติ	-9255
▁Polyamide	-9256
▁ความล่าช้า	-9257
เลก	-9258
▁กม	-9259
▁ฟอ	-9260
จริต	-9261
▁Chro	-9262
▁TYPE	-9263
▁บุ๊ค	-9264
▁อรุณ	-9265
▁แวววาว	-9266
▁ผู้วิจารณ์	-9267
WN	-9268
๊อต	-9269
▁ปอ	-9270
▁AIR	-9271
▁Fir	-9272
▁ตึก	-9273
เรือง	-9274
โยต้า	-9275
ําบัด	-9276
▁Slim	-9277
▁นมสด	-9278
▁สเกล	-9279
▁คนไทย	-9280
▁เรื่อ	-9281
▁Series	-9282
▁โดยไม่	-9283
▁ถ่ายทอด	-9284
▁ส่งกลับ	-9285
▁โตโยต้า	-9286
▁รู้เรื่อง	-9287
▁เธียเตอร์	-9288
▁สระว่ายน้ํา	-9289
ube	-9290
▁ซีน	-9291
▁ลุ่ม	-9292
▁ล้อม	-9293
▁หัวร	-9294
▁ยางลบ	-9295
▁สบายใจ	-9296
ica	-9297
หนี	-9298
หลง	-9299
อัล	-9300
▁355	-9301
▁ผลัด	-9302
ิสิกส์	-9303
ุ่นวาย	-9304
▁Energ	-9305
▁สมควร	-9306
▁กระชาก	-9307
▁บุคลากร	-9308
▁ระยะห่าง	-9309
▁โฟลเดอร์	-9310
▁หัวรุนแรง	-9311
▁ปฏิบัติตาม	-9312
เถ	-9313
ero	-9314
เดท	-9315
▁คี	-9316
ามัย	-9317
▁ข่า	-9318
ีสถาน	-9319
เพิ่ม	-9320
▁การปฏิ	-9321
▁อัพเดท	-9322
▁ปากีสถาน	-9323
▁สิทธิมนุษยชน	-9324
67	-9325
ฟุต	-9326
▁305	-9327
▁720	-9328
▁บ่า	-9329
▁หมู	-9330
หนุ่ม	-9331
หมดจด	-9332
เสียบ	-9333
▁King	-9334
▁ความย	-9335
▁ลังเล	-9336
▁เวิร์	-9337
▁เออร์	-9338
ค่ําคืน	-9339
น้ํามัน	-9340
▁Cloudfoam	-9341
▁เต้าเสียบ	-9342
▁ยามค่ําคืน	-9343
▁สะอาดหมดจด	-9344
ี๊	-9345
โธ	-9346
แพด	-9347
▁Book	-9348
▁ก๊อก	-9349
▁เซาท์	-9350
▁DIGITAL	-9351
▁ความผันผวน	-9352
▁ความก้าวหน้า	-9353
ศึก	-9354
▁EM	-9355
▁ฟุ	-9356
▁001	-9357
▁อืน	-9358
▁มอยส์	-9359
▁หารือ	-9360
▁ออกซิ	-9361
▁ชั้นล่าง	-9362
▁เลือกสรร	-9363
▁ดูแลตัวเอง	-9364
▁กระบวนการผลิต	-9365
▁ex	-9366
pson	-9367
▁รอน	-9368
▁เมีย	-9369
ลําบาก	-9370
▁CROCS	-9371
▁สิ่งใหม่	-9372
▁ที่ปรึกษา	-9373
▁ผิดกฎหมาย	-9374
▁มีผลกระทบ	-9375
200	-9376
คว้า	-9377
▁Cup	-9378
▁JBL	-9379
▁ซุปเป	-9380
▁บนสุด	-9381
พิพากษา	-9382
▁แต่ละวัน	-9383
IDE	-9384
เตา	-9385
ลังกา	-9386
▁Time	-9387
▁ฟอร์	-9388
▁ทางเพศ	-9389
▁ส่วนสูง	-9390
▁ตอนเหนือ	-9391
▁การปฏิรูป	-9392
ซุง	-9393
▁Fu	-9394
▁ขโมย	-9395
อํานวย	-9396
▁Brother	-9397
▁ทุกวันนี้	-9398
▁น่าอัศจรรย์	-9399
เทอะ	-9400
แคลน	-9401
▁กวาง	-9402
▁ฉลอง	-9403
ential	-9404
▁เลอะเทอะ	-9405
▁การอธิบาย	-9406
68	-9407
ata	-9408
wear	-9409
กั้น	-9410
ตัรา	-9411
▁ด้า	-9412
▁มาด	-9413
▁แคว	-9414
▁2007	-9415
▁กิ้ง	-9416
▁รักษ	-9417
ตระเวน	-9418
▁กาต้ม	-9419
▁วิจารณ์	-9420
▁กองทัพบก	-9421
▁กาต้มน้ํา	-9422
▁ส่องสว่าง	-9423
▁เซิร์ฟเวอร์	-9424
หก	-9425
USB	-9426
แต่น	-9427
▁Dyn	-9428
▁PAN	-9429
ening	-9430
บุรุษ	-9431
าว่าง	-9432
▁กราน	-9433
▁ขอรับ	-9434
▁มายัง	-9435
▁ทรัมป์	-9436
▁ดับเบิ้ล	-9437
▁เวลาว่าง	-9438
▁แบบอย่าง	-9439
อนุม	-9440
▁วิถี	-9441
▁ระงับ	-9442
▁ไฮโดร	-9443
เหมาะสม	-9444
▁มองว่า	-9445
▁นอกบ้าน	-9446
▁ทั่วประเทศ	-9447
▁ความเหมาะสม	-9448
▁Bi	-9449
▁KSW	-9450
▁อาบ	-9451
▁โล่	-9452
▁ไข้	-9453
กันแดด	-9454
▁การตาม	-9455
▁ตะกรัน	-9456
▁ประมวลผล	-9457
ถ่ายเอกสาร	-9458
ADA	-9459
ROID	-9460
▁260	-9461
▁Cap	-9462
▁PLASTIC	-9463
▁คนอื่นๆ	-9464
▁คณิตศาสตร์	-9465
ญั	-9466
ภ์	-9467
มูล	-9468
ไส้	-9469
▁113	-9470
▁2006	-9471
▁POLY	-9472
▁คลับ	-9473
▁ภาระ	-9474
▁โล่ง	-9475
รัฐบาล	-9476
▁นิ้วมือ	-9477
▁ผ้าคลุม	-9478
▁ดาวเทียม	-9479
▁เหล็กกล้า	-9480
AV	-9481
คซ	-9482
บัง	-9483
ฝีมือ	-9484
▁2003	-9485
▁การทูต	-9486
▁วันหนึ่ง	-9487
IFI	-9488
arm	-9489
ไร้	-9490
▁le	-9491
▁Low	-9492
▁CLAR	-9493
▁ตกใจ	-9494
▁ป่วย	-9495
▁จําลอง	-9496
▁Essence	-9497
▁ภูมิศาสตร์	-9498
ประวัติศาสตร์	-9499
▁CT	-9500
▁Mil	-9501
ESSOR	-9502
▁Phil	-9503
▁บักส์	-9504
▁ทําตาม	-9505
▁ยกตัวอย่าง	-9506
▁เรื่องใหญ่	-9507
▁พระราชบัญญัติ	-9508
ANO	-9509
▁ทัพ	-9510
เซียม	-9511
▁Bott	-9512
▁Pure	-9513
igital	-9514
▁กันแดด	-9515
▁เนื้อที่	-9516
▁ใครก็ตาม	-9517
พูล	-9518
▁We	-9519
▁สแ	-9520
สากล	-9521
▁375	-9522
▁APP	-9523
▁Gra	-9524
▁หมุด	-9525
อนามัย	-9526
▁World	-9527
▁คําขอ	-9528
▁เชิงลบ	-9529
▁แต่ต้น	-9530
▁SAMSUNG	-9531
▁ความประ	-9532
▁มีอิทธิพล	-9533
mp	-9534
โส	-9535
ํน	-9536
นิต	-9537
ิติช	-9538
▁EAS	-9539
▁Ink	-9540
▁กวน	-9541
▁USBC	-9542
มหานคร	-9543
▁Rubber	-9544
▁การจับ	-9545
▁บริติช	-9546
▁ความหนา	-9547
▁จุดเด่น	-9548
▁พลเมือง	-9549
▁เรื่อยๆ	-9550
▁เดินเล่น	-9551
▁รอบทิศทาง	-9552
▁อาหารทะเล	-9553
▁กรุงเทพมหานคร	-9554
▁GT	-9555
▁ล้า	-9556
อริโอ	-9557
▁การร	-9558
▁พึ่งพา	-9559
▁ทางสังคม	-9560
▁สเตอริโอ	-9561
▁เข้าใจผิด	-9562
▁ทั้งสองฝ่าย	-9563
▁แหล่งพลังงาน	-9564
ทิ	-9565
เรน	-9566
▁Bre	-9567
▁RAM	-9568
▁วาร	-9569
▁เจิด	-9570
ทําการ	-9571
▁นักบิน	-9572
▁การทหาร	-9573
▁น่านน้ํา	-9574
▁แพร่หลาย	-9575
▁โชคไม่ดี	-9576
▁ในเวลานั้น	-9577
tim	-9578
▁RC	-9579
▁ญา	-9580
▁รฐ	-9581
atur	-9582
รรมา	-9583
ษฐาน	-9584
▁ฮอร์	-9585
▁เก็ต	-9586
▁เมือ	-9587
▁ข้าวส	-9588
อนุมัติ	-9589
ไรเซอร์	-9590
▁ต่อกัน	-9591
▁ทางวิทยาศาสตร์	-9592
ga	-9593
มณี	-9594
udio	-9595
เปรส	-9596
▁Mer	-9597
▁1600	-9598
▁ของแท้	-9599
▁อัญมณี	-9600
▁ดัดแปลง	-9601
▁นิ้วเท้า	-9602
▁ฮาร์ดแวร์	-9603
PR	-9604
▁Ter	-9605
▁สีด	-9606
▁โนะ	-9607
กลิ้ง	-9608
▁PROF	-9609
▁เอสเปรส	-9610
▁พรีเมียม	-9611
▁ฟองอากาศ	-9612
▁เฉพาะที่	-9613
asy	-9614
avy	-9615
▁จง	-9616
หมอน	-9617
▁295	-9618
▁OEM	-9619
▁TEF	-9620
▁สปา	-9621
▁แฟร์	-9622
▁โยคะ	-9623
▁ข่าวก	-9624
▁ผู้ใด	-9625
▁แมนเช	-9626
▁ประทับ	-9627
เวอร์พูล	-9628
▁ปลอกหมอน	-9629
▁ปลายนิ้ว	-9630
▁ลิเวอร์พูล	-9631
▁แมนเชสเตอร์	-9632
64	-9633
ัจ	-9634
▁PE	-9635
กเว้น	-9636
▁ซัมซุง	-9637
▁ต่อรอง	-9638
▁วิศวกร	-9639
▁พลเรือน	-9640
▁ติดเชื้อ	-9641
97	-9642
▁Av	-9643
▁REM	-9644
▁อวย	-9645
▁พุ่ง	-9646
▁Brush	-9647
ดําน้ํา	-9648
๊กเกอร์	-9649
▁ศรีลังกา	-9650
▁แปลกใหม่	-9651
เคลื่อนไหว	-9652
▁เรือดําน้ํา	-9653
บล	-9654
าช	-9655
้ท	-9656
UDIO	-9657
▁DOU	-9658
▁เตะ	-9659
▁ไผ่	-9660
▁เอ่อ	-9661
▁สูญหาย	-9662
▁เครดิต	-9663
ุ่งเรือง	-9664
▁ข่าวกรอง	-9665
▁โอกาสพิเศษ	-9666
osh	-9667
▁BA	-9668
มาจาก	-9669
▁iPod	-9670
▁ตามมา	-9671
▁Bright	-9672
เก็บเงิน	-9673
▁การแถลง	-9674
▁จิตรกรรม	-9675
▁ดอลลาร์ส	-9676
▁แสดงความคิดเห็น	-9677
ลอน	-9678
ลัก	-9679
▁510	-9680
▁LEE	-9681
▁บรู	-9682
▁1800	-9683
▁มาหา	-9684
▁ล่อง	-9685
▁Epson	-9686
▁มลพิษ	-9687
▁จองที่	-9688
▁ดักจับ	-9689
▁ลดราคา	-9690
▁ลูกบิด	-9691
▁วิกฤติ	-9692
▁ถั่วเหลือง	-9693
▁ตามคําแนะนํา	-9694
▁Go	-9695
▁148	-9696
▁บัต	-9697
▁Crocs	-9698
▁ค่อยๆ	-9699
ลิมฉลอง	-9700
ก่อสร้าง	-9701
▁ธุรกรรม	-9702
▁อาจารย์	-9703
▁คุณลักษณะ	-9704
▁ความหนาแน่น	-9705
ยพ	-9706
▁Dr	-9707
▁pl	-9708
่มุม	-9709
▁รัน	-9710
▁หาด	-9711
▁เบรค	-9712
สักครู่	-9713
▁ฐานทัพ	-9714
▁แง่มุม	-9715
▁CLARINS	-9716
▁หนึ่งเดียว	-9717
▁อีกสักครู่	-9718
eth	-9719
า่ง	-9720
เด็ก	-9721
▁MINI	-9722
▁Nylon	-9723
▁Middle	-9724
▁SPEEDO	-9725
▁คลาวด์	-9726
▁รถเมล์	-9727
▁บัญญัติ	-9728
▁นักวิจัย	-9729
▁ให้ความสนใจ	-9730
93	-9731
itan	-9732
▁ผู้ส	-9733
คริสต์	-9734
▁พอแล้ว	-9735
▁โน๊ตบุ๊ค	-9736
▁ละเอียดอ่อน	-9737
▁ความเรียบง่าย	-9738
วกล	-9739
แขน	-9740
▁bl	-9741
บุรี	-9742
ยุติ	-9743
สกุล	-9744
▁Jet	-9745
ชันส์	-9746
▁สกอต	-9747
ushion	-9748
▁Night	-9749
▁มอลล์	-9750
▁ข้าวกล	-9751
▁เซนเซอร์	-9752
▁รวมตัวกัน	-9753
▁สกอตแลนด์	-9754
RES	-9755
▁RP	-9756
▁เนา	-9757
เบิร์ต	-9758
▁Spenc	-9759
▁TEFAL	-9760
▁จิตวิ	-9761
ทรรศการ	-9762
▁Double	-9763
▁ประท้วง	-9764
▁เวลานี้	-9765
▁ผิวเนียน	-9766
▁แต่งเติม	-9767
อย่างหนึ่ง	-9768
▁นิทรรศการ	-9769
▁ตกแต่งภายใน	-9770
▁ประเทศสมาชิก	-9771
▁Tra	-9772
▁ปีน	-9773
▁สปีด	-9774
▁เข่า	-9775
▁เทียน	-9776
▁แฮนด์	-9777
▁ข้อต่อ	-9778
▁หน้ากาก	-9779
▁หน้าเตา	-9780
▁ยุติธรรม	-9781
▁ใบรับรอง	-9782
รช	-9783
เอส	-9784
▁มง	-9785
ONIC	-9786
อ่าน	-9787
▁ANG	-9788
▁งค์	-9789
▁ซูม	-9790
▁นูน	-9791
สนีย์	-9792
▁2005	-9793
▁สลัก	-9794
คิดเลข	-9795
จําลอง	-9796
ุฒิสภา	-9797
▁THERM	-9798
▁Vista	-9799
▁วารสาร	-9800
ESSIONAL	-9801
▁ดิสนีย์	-9802
▁ตรงข้าม	-9803
▁ต้นเดือน	-9804
▁กระเบื้อง	-9805
▁ชื่อเรื่อง	-9806
▁เครื่องคิดเลข	-9807
ANT	-9808
IES	-9809
▁ชาน	-9810
▁มูฟ	-9811
▁1990	-9812
ฟุตบอล	-9813
▁ฝ่ามือ	-9814
▁ฟิตเนส	-9815
▁สองหน้า	-9816
▁ความอ่อน	-9817
▁ความผิดหวัง	-9818
▁ชุดว่ายน้ํา	-9819
โท	-9820
ลส์	-9821
เภอ	-9822
เอล	-9823
ปลุก	-9824
▁188	-9825
▁SIL	-9826
▁Sec	-9827
▁ชาญ	-9828
▁หิว	-9829
างวัน	-9830
▁แผนก	-9831
nology	-9832
▁เผื่อ	-9833
▁เฮาส์	-9834
▁ขายของ	-9835
▁ภาคใต้	-9836
▁เมื่อไร	-9837
▁ฆ่าเชื้อ	-9838
ไข้	-9839
adow	-9840
เพณี	-9841
▁ดอท	-9842
▁ตาล	-9843
▁เวจ	-9844
เชื่อม	-9845
▁ในนาม	-9846
▁Spencer	-9847
▁ค่ําคืน	-9848
▁ทั้งที่	-9849
▁สําคัญๆ	-9850
▁น่าเศร้า	-9851
▁ขั้นพื้นฐาน	-9852
คซีน	-9853
เป้า	-9854
▁310	-9855
▁Home	-9856
▁กลีบ	-9857
▁สแตน	-9858
▁ดิฉัน	-9859
▁มาสู่	-9860
▁แอ็คชั่น	-9861
▁เมื่อไม่นาน	-9862
▁PROFESSIONAL	-9863
▁ดอลลาร์สหรัฐ	-9864
URE	-9865
▁LG	-9866
หนา้	-9867
▁ลอรี	-9868
▁สมรรถ	-9869
▁แชมเป	-9870
▁Bottom	-9871
การศึกษา	-9872
▁สนามกีฬา	-9873
พุต	-9874
▁TAX	-9875
▁รอยนิ้วมือ	-9876
ORY	-9877
uit	-9878
atic	-9879
knit	-9880
▁Log	-9881
ional	-9882
▁80211	-9883
STATION	-9884
▁สตาร์ท	-9885
▁ลอรีอัล	-9886
เพลิดเพลิน	-9887
▁ส่งสินค้า	-9888
สหประชาชาติ	-9889
▁ท้ายที่สุด	-9890
▁เช่นเดียวกัน	-9891
GY	-9892
ct	-9893
ors	-9894
ราษฎ	-9895
▁คุม	-9896
▁นวล	-9897
stick	-9898
การัง	-9899
สัตย์	-9900
▁3000	-9901
▁เดย์	-9902
▁เลตต์	-9903
▁ไอแพด	-9904
▁แสวงหา	-9905
▁ซุปเปอร์	-9906
▁เทียบเท่า	-9907
▁การอนุมัติ	-9908
▁อรุณสวัสดิ์	-9909
▁นักวิทยาศาสตร์	-9910
▁ความเป็นส่วนตัว	-9911
ศาล	-9912
▁คื	-9913
เครือ	-9914
▁1400	-9915
▁ฟลอร	-9916
▁มิตร	-9917
▁วาระ	-9918
▁LIGHT	-9919
▁Marks	-9920
▁โปร่งแสง	-9921
ลอย	-9922
▁ฉุน	-9923
▁ซอก	-9924
▁ผัด	-9925
▁ฮู้	-9926
▁นาโน	-9927
เที่ยง	-9928
▁มีลูก	-9929
▁ตามกฎหมาย	-9930
▁PLAYSTATION	-9931
CT	-9932
▁ะ	-9933
▁Cal	-9934
▁โรล	-9935
ูดิโอ	-9936
▁รอยย	-9937
▁ห้อย	-9938
▁KSWISS	-9939
▁สตูดิโอ	-9940
▁ห่างไกล	-9941
oundation	-9942
▁ประดิษฐ์	-9943
▁จิตวิญญาณ	-9944
▁ฎ	-9945
ผลิ	-9946
▁MG	-9947
▁OR	-9948
ควร์	-9949
▁Pig	-9950
▁SAB	-9951
ีวีซี	-9952
เขียว	-9953
▁พีวีซี	-9954
▁เท็กซ์	-9955
▁Digital	-9956
Ex	-9957
าทาง	-9958
▁340	-9959
▁เฮล	-9960
ชิแกน	-9961
▁ขับไล่	-9962
▁ขาดแคลน	-9963
▁มิชิแกน	-9964
▁พื้นสนาม	-9965
▁นาฬิกาปลุก	-9966
BA	-9967
ONG	-9968
▁บอด	-9969
▁สลาย	-9970
▁เฟรม	-9971
่ายแพ้	-9972
▁คู่ใจ	-9973
▁ต้นปี	-9974
▁ไซรัป	-9975
▁สแควร์	-9976
▁กรอบรูป	-9977
▁เรื่องจริง	-9978
li	-9979
NUS	-9980
ner	-9981
ไก่	-9982
▁MOD	-9983
▁Perf	-9984
เหนียว	-9985
กระนั้น	-9986
▁MAKEUP	-9987
▁การตอบ	-9988
▁ALUMNUS	-9989
▁การแพทย์	-9990
▁วรรณกรรม	-9991
▁หมู่บ้าน	-9992
▁ไดรเวอร์	-9993
▁เรียกเก็บเงิน	-9994
ILL	-9995
ลิง	-9996
▁เทพ	-9997
▁แคช	-9998
▁ผู้เสีย	-9999
▁รับประโยชน์	-10000
WH	-10001
บบุ	-10002
บทวน	-10003
▁Bad	-10004
▁ซีซ	-10005
▁สตี	-10006
▁เมม	-10007
▁แมก	-10008
▁แวน	-10009
▁แวะ	-10010
alite	-10011
▁1980	-10012
▁ไบโอ	-10013
▁Speed	-10014
▁ชชั่น	-10015
▁ไอออน	-10016
บบุหรี่	-10017
▁ตัวถัง	-10018
▁อุปทาน	-10019
▁แปลกใจ	-10020
▁การชะลอ	-10021
▁สถานทูต	-10022
เรียบร้อย	-10023
ARS	-10024
arg	-10025
รอด	-10026
เพิ	-10027
ไอน	-10028
ัลด์	-10029
▁นิส	-10030
▁Hard	-10031
▁สมาส	-10032
ไอน้ํา	-10033
▁ความอ	-10034
▁คณะรัฐ	-10035
▁เพิ่งจะ	-10036
LT	-10037
ผง	-10038
ไพ	-10039
ats	-10040
▁SU	-10041
play	-10042
▁เธอร์	-10043
▁แคลอรี่	-10044
▁ลูกกลิ้ง	-10045
▁อาหารเช้า	-10046
▁บํารุงรักษา	-10047
SD	-10048
ft	-10049
aser	-10050
▁Mod	-10051
▁บาส	-10052
▁ราบ	-10053
▁โกะ	-10054
สันต์	-10055
▁ยิ้ม	-10056
▁ไหม้	-10057
▁ศักดิ์	-10058
▁ช่วงต้น	-10059
▁ราคาขาย	-10060
▁ไร้สาระ	-10061
กลางเมือง	-10062
▁สุขสันต์	-10063
▁สงครามกลางเมือง	-10064
ธิ์	-10065
แลน	-10066
PORT	-10067
▁Tri	-10068
▁พลอ	-10069
▁Line	-10070
▁with	-10071
▁แอนด	-10072
ึงพอใจ	-10073
เจาะจง	-10074
ื่อสัตย์	-10075
▁ชิ้นงาน	-10076
▁ปริ้นท์	-10077
▁ฟิสิกส์	-10078
▁อาหารจีน	-10079
▁เตรียมตัว	-10080
▁เฉพาะเจาะจง	-10081
cl	-10082
▁CF	-10083
▁FC	-10084
▁420	-10085
▁EST	-10086
▁ภูม	-10087
▁เฮ้าส์	-10088
▁ชั้นวาง	-10089
▁ตัวใหม่	-10090
▁พื้นดิน	-10091
▁รั่วไหล	-10092
▁สูบบุหรี่	-10093
IME	-10094
▁GAM	-10095
▁MUL	-10096
▁สไป	-10097
▁ใช๎	-10098
▁BROWN	-10099
▁MOUSE	-10100
▁Matte	-10101
▁วอลล์	-10102
▁สเก็ต	-10103
▁ชํารุด	-10104
▁นักวิเคราะห์	-10105
SC	-10106
app	-10107
วิด	-10108
านา	-10109
▁HZ	-10110
ฉลาด	-10111
ุทโธ	-10112
โครง	-10113
▁109	-10114
▁114	-10115
▁ดัล	-10116
▁ระย	-10117
tract	-10118
เลกุล	-10119
▁1100	-10120
▁BUILD	-10121
▁INTER	-10122
▁ยี่สิบ	-10123
สิ้นเชิง	-10124
▁โมเลกุล	-10125
▁ทางวัฒนธรรม	-10126
▁โดยสิ้นเชิง	-10127
ORG	-10128
▁ad	-10129
▁270	-10130
▁ฮับ	-10131
itech	-10132
▁EASY	-10133
ทรรศน์	-10134
ลําโพง	-10135
▁นิกาย	-10136
▁ผู้มี	-10137
▁เหยื่อ	-10138
▁คล้ายคลึง	-10139
▁การฝึกซ้อม	-10140
RAY	-10141
enn	-10142
ศนา	-10143
▁RO	-10144
▁th	-10145
▁122	-10146
▁กัง	-10147
▁Steel	-10148
▁ลิงก์	-10149
▁นับว่า	-10150
▁ปริศนา	-10151
▁ดื่มได้	-10152
ภูมิอากาศ	-10153
▁เข้าใกล้	-10154
▁สภาพภูมิอากาศ	-10155
ปป	-10156
HOP	-10157
โคล	-10158
▁HO	-10159
▁To	-10160
▁ชะ	-10161
รนช์	-10162
▁สมม	-10163
▁ซาร์	-10164
เปี่ยม	-10165
▁SFERA	-10166
▁ผู้ชม	-10167
▁วงการ	-10168
▁อวยพร	-10169
▁ไอพอด	-10170
สมบูรณ์	-10171
▁ความระ	-10172
▁ต้านทาน	-10173
▁มีผลต่อ	-10174
▁เรืองแสง	-10175
▁เต็มเปี่ยม	-10176
ฐม	-10177
กิน	-10178
ตแลน	-10179
andex	-10180
▁Mark	-10181
▁ฟาร์ม	-10182
▁ฟิลล์	-10183
▁มัธยม	-10184
▁มีหน้า	-10185
ต่อไปนี้	-10186
▁เข้าออก	-10187
▁ดอกลําโพง	-10188
▁นักวิจารณ์	-10189
▁คณะรัฐมนตรี	-10190
▁ดังต่อไปนี้	-10191
▁เครื่องกรอง	-10192
ดัม	-10193
▁Si	-10194
ด่ํา	-10195
▁Eau	-10196
▁mic	-10197
▁ม่า	-10198
▁ยืม	-10199
▁แฝง	-10200
astic	-10201
กรรมา	-10202
▁5000	-10203
▁Port	-10204
▁บราว	-10205
กุหลาบ	-10206
▁ELECT	-10207
ณาธิการ	-10208
ถ่ายรูป	-10209
▁ตวัของ	-10210
▁แอตแลน	-10211
▁Classic	-10212
▁ตลอดกาล	-10213
▁บัตเตอร์	-10214
▁Essential	-10215
▁ดอกกุหลาบ	-10216
▁เสียงดนตรี	-10217
▁ซิน	-10218
▁ตอ่	-10219
▁วัว	-10220
▁แผ่	-10221
▁1992	-10222
▁เอี้ย	-10223
▁เสื่อมสภาพ	-10224
▁ฤดูใบไม้ผลิ	-10225
RID	-10226
▁bu	-10227
พรรณ	-10228
▁Mus	-10229
▁ซัล	-10230
▁อิม	-10231
เดียน	-10232
▁วรรค	-10233
▁Trans	-10234
▁ทั้งคืน	-10235
▁นามสกุล	-10236
▁เปลือกตา	-10237
ki	-10238
ney	-10239
▁พย	-10240
EIGE	-10241
azer	-10242
▁Sol	-10243
▁ตะก	-10244
ราเอล	-10245
▁2500	-10246
▁HEAD	-10247
▁บอดี้	-10248
▁เด่นชัด	-10249
▁เสียดสี	-10250
▁ออกเสียง	-10251
▁อิสราเอล	-10252
▁เป็นตัวแทน	-10253
FER	-10254
ัชญา	-10255
▁จูบ	-10256
▁ปูน	-10257
innam	-10258
▁Comm	-10259
▁Over	-10260
▁ขึน้	-10261
▁นั่นแหละ	-10262
▁สติ๊กเกอร์	-10263
▁ความระมัดระวัง	-10264
71	-10265
CP	-10266
WOO	-10267
พ่อ	-10268
▁ID	-10269
▁124	-10270
▁280	-10271
▁ขํา	-10272
▁รีส	-10273
เกมส์	-10274
▁Sand	-10275
▁การอ	-10276
▁ถิ่น	-10277
ักผ่อน	-10278
▁WHITE	-10279
▁ช่องทาง	-10280
▁ที่ต่ํา	-10281
▁การพักผ่อน	-10282
▁ความลึกลับ	-10283
▁ความเพลิดเพลิน	-10284
▁พันธบัตรรัฐบาล	-10285
▁Sm	-10286
▁Sn	-10287
iner	-10288
สลาก	-10289
▁ARM	-10290
▁San	-10291
▁รัช	-10292
White	-10293
ราษฎร	-10294
▁ซ้อม	-10295
▁ดาร์	-10296
▁สร้อย	-10297
▁แมรี่	-10298
ให้ทราบ	-10299
▁เซ็กซ์	-10300
▁แยกกัน	-10301
รับผิดชอบ	-10302
▁เบอร์ลิน	-10303
▁ดวงอาทิตย์	-10304
▁แจ้งให้ทราบ	-10305
▁เข้ากันได้ดี	-10306
72	-10307
tif	-10308
▁Yo	-10309
▁up	-10310
▁าณ	-10311
▁138	-10312
▁Rad	-10313
▁ริก	-10314
▁ล่ม	-10315
▁กรอก	-10316
▁นีโอ	-10317
▁เด็ด	-10318
▁Stand	-10319
▁การนัด	-10320
▁ขูดขีด	-10321
▁กลิ่นอาย	-10322
▁คริสตจักร	-10323
▁ทางกฎหมาย	-10324
▁กองบัญชาการ	-10325
▁การประมวลผล	-10326
ูบ	-10327
unc	-10328
▁126	-10329
▁CLE	-10330
▁Nik	-10331
ution	-10332
บัญชี	-10333
มานี้	-10334
▁PLUS	-10335
▁ฮาร์	-10336
▁เข้าชม	-10337
▁เหยือก	-10338
▁ได้รูป	-10339
▁ขบวนการ	-10340
▁อ่นหนา้	-10341
▁แก้วน้ํา	-10342
put	-10343
rom	-10344
ลิส	-10345
AKER	-10346
ดื่ม	-10347
▁ECL	-10348
▁เซา	-10349
▁AUTO	-10350
ไปกว่า	-10351
▁ปริญญา	-10352
ไปกว่านั้น	-10353
▁เพรียวบาง	-10354
▁Foundation	-10355
▁โครงเรื่อง	-10356
▁ยิ่งไปกว่านั้น	-10357
BY	-10358
ino	-10359
ถอน	-10360
หนิ	-10361
▁ED	-10362
▁or	-10363
ield	-10364
กิ่ง	-10365
นิ่ง	-10366
ปราม	-10367
▁Sur	-10368
▁Prime	-10369
▁รับรู้	-10370
▁สเตอร์	-10371
▁รวมทั้งหมด	-10372
อํานวยความสะดวก	-10373
aco	-10374
rid	-10375
สก์	-10376
▁ทํ	-10377
น้อง	-10378
▁335	-10379
ละลาย	-10380
▁Zone	-10381
▁การท	-10382
▁มาร์ก	-10383
▁เมมโม	-10384
▁ลองของ	-10385
▁ของจริง	-10386
▁ปฏิกรณ์	-10387
▁ปักกิ่ง	-10388
▁อธิปไตย	-10389
▁ดื่มด่ํา	-10390
▁เปลี่ยนสี	-10391
hy	-10392
box	-10393
tiv	-10394
นอม	-10395
ล์ว	-10396
ซีย์	-10397
▁GAL	-10398
ARRAN	-10399
▁ผ้าน	-10400
บํารุง	-10401
▁ลึกลับ	-10402
▁สองชั้น	-10403
▁ที่ประชุม	-10404
▁อัตราส่วน	-10405
▁ความรับผิดชอบ	-10406
AXY	-10407
ild	-10408
แนะ	-10409
atin	-10410
sole	-10411
ward	-10412
▁MEL	-10413
ปกรณ์	-10414
▁บิดา	-10415
▁เปน็	-10416
ราชการ	-10417
เนือ่ง	-10418
▁ANGEL	-10419
▁GUESS	-10420
▁นิยาม	-10421
ARRANTY	-10422
▁ผ้านวม	-10423
เบอร์รี่	-10424
▁LANEIGE	-10425
▁เสียงดี	-10426
▁ไลเนอร์	-10427
ุทโธปกรณ์	-10428
▁สิ่งจําเป็น	-10429
uid	-10430
▁ขม	-10431
fera	-10432
ปราย	-10433
ร๎อย	-10434
▁365	-10435
▁ชีพ	-10436
ABEAR	-10437
KSHOP	-10438
acter	-10439
▁2001	-10440
▁PRET	-10441
▁ซึง่	-10442
▁ลิ้ม	-10443
พระช่วย	-10444
▁ราชการ	-10445
▁น่าพอใจ	-10446
▁การบรรจุ	-10447
▁อินเด็กซ์	-10448
▁เป็นต้นมา	-10449
▁BUILDABEAR	-10450
▁คุณพระช่วย	-10451
94	-10452
โข	-10453
ิตก	-10454
▁CA	-10455
▁HR	-10456
▁168	-10457
▁173	-10458
▁Leg	-10459
▁ทรอ	-10460
ุ้มค่า	-10461
▁Sfera	-10462
▁Rental	-10463
▁แย่จัง	-10464
ไปรษณีย์	-10465
▁WINDOWS	-10466
▁วันนั้น	-10467
▁คณะกรรมา	-10468
▁โรงไฟฟ้า	-10469
▁เหลือเชื่อ	-10470
▁ความคุ้มค่า	-10471
▁คณะกรรมาธิการ	-10472
bs	-10473
ROL	-10474
TON	-10475
วาล	-10476
หรอ	-10477
อีก	-10478
▁It	-10479
inal	-10480
▁202	-10481
ลูกไม้	-10482
▁ชีวภาพ	-10483
▁Dynamic	-10484
▁ชาญฉลาด	-10485
▁มิสเตอร์	-10486
ตินา	-10487
ัตรา	-10488
▁650	-10489
▁Vol	-10490
▁ธัญ	-10491
▁มัด	-10492
▁แดน	-10493
▁แอบ	-10494
▁อุ้ม	-10495
▁จับกุม	-10496
▁วัคซีน	-10497
▁ข้างหลัง	-10498
▁ทางเดียว	-10499
▁ปราบปราม	-10500
▁โปสเตอร์	-10501
▁เป็นอัตรา	-10502
▁ก๊าซธรรมชาติ	-10503
โปร	-10504
amin	-10505
mium	-10506
▁จุล	-10507
▁เติ	-10508
▁กล้า	-10509
▁สามัญ	-10510
▁ไอคอน	-10511
▁ส้นสูง	-10512
▁เทศบาล	-10513
▁งานหนัก	-10514
▁เทอร์โม	-10515
▁ความยุ่ง	-10516
▁ออกซิเจน	-10517
OF	-10518
ใช่	-10519
▁MR	-10520
แก๊ส	-10521
▁LIF	-10522
▁มติ	-10523
ชาร์ด	-10524
▁Twin	-10525
▁คลิน	-10526
▁พิกัด	-10527
▁มีมติ	-10528
▁ห้างสรรพ	-10529
▁ผ้าลูกไม้	-10530
▁ผู้สนับสนุน	-10531
▁ห้างสรรพสินค้า	-10532
TE	-10533
ภชน	-10534
ลวด	-10535
▁UR	-10536
▁เคา	-10537
▁เชล	-10538
เกิ้ล	-10539
▁Make	-10540
▁แน่ๆ	-10541
▁แพลต	-10542
▁ตัวนํา	-10543
▁กราฟฟิค	-10544
ผู้แทนราษฎร	-10545
eet	-10546
opy	-10547
▁Ge	-10548
▁กค	-10549
▁ไจ	-10550
over	-10551
▁MAM	-10552
▁TEM	-10553
▁ยิว	-10554
▁Card	-10555
▁Zoom	-10556
▁คั่น	-10557
▁มอร์	-10558
แน่นอน	-10559
▁พอใช้	-10560
ภชนาการ	-10561
▁ถึงที่	-10562
▁อําเภอ	-10563
▁กระต่าย	-10564
con	-10565
สุน	-10566
ิดา	-10567
▁สึ	-10568
กรีม	-10569
▁285	-10570
▁385	-10571
▁512	-10572
▁Har	-10573
กร่อน	-10574
▁บังก	-10575
บรรยาย	-10576
เจนตินา	-10577
▁PRETTY	-10578
▁ญแจล็อก	-10579
▁พระพุทธ	-10580
▁ฟีเจอร์	-10581
▁ไอศกรีม	-10582
▁ตั้งชื่อ	-10583
▁อาร์เจนตินา	-10584
นะ	-10585
▁Ag	-10586
▁Pa	-10587
▁ปน	-10588
ามีน	-10589
ิร์ล	-10590
▁USA	-10591
▁ปอด	-10592
ATING	-10593
▁BLUE	-10594
▁ด้าย	-10595
▁สก๊อต	-10596
▁เคอร์	-10597
▁เอฟเฟ	-10598
▁แอนน์	-10599
▁Chrome	-10600
▁บราวน์	-10601
▁โดยรอบ	-10602
▁ลูชันส์	-10603
▁แม่พิมพ์	-10604
▁ความน่าเชื่อถือ	-10605
ตนา	-10606
▁Hi	-10607
▁Rep	-10608
▁พู่	-10609
▁Fran	-10610
▁Clean	-10611
▁กําไร	-10612
▁ซอฟท์	-10613
▁พีทส์	-10614
▁GALAXY	-10615
▁คุณพ่อ	-10616
▁ตรงกัน	-10617
▁ตรงนั้น	-10618
ไข่	-10619
ROST	-10620
คณิต	-10621
คาโก	-10622
เอ็น	-10623
▁สกี	-10624
▁เลส	-10625
ประมง	-10626
▁TECH	-10627
▁GLASS	-10628
▁Watch	-10629
▁ชิคาโก	-10630
▁ตัดต่อ	-10631
▁เมื่อใด	-10632
▁เส้นผ่า	-10633
▁ออกเดินทาง	-10634
XS	-10635
ALL	-10636
let	-10637
ลัย	-10638
▁KEY	-10639
▁Ret	-10640
▁Boost	-10641
▁SUPER	-10642
▁เสื่อ	-10643
▁Design	-10644
▁ดูดซึม	-10645
▁เทนนิส	-10646
▁แผนงาน	-10647
▁ไฟต่ํา	-10648
▁ANDROID	-10649
▁ซัมเมอร์	-10650
▁หมดปัญหา	-10651
▁ในกรณีนี้	-10652
▁สํานักข่าว	-10653
▁แอปพลิเคชัน	-10654
▁มีความรู้สึก	-10655
ays	-10656
จาค	-10657
ICAL	-10658
รงค์	-10659
สด็จ	-10660
ิดจ์	-10661
▁127	-10662
▁ฉับ	-10663
▁นาว	-10664
▁สึก	-10665
▁อวบ	-10666
▁อัส	-10667
atter	-10668
range	-10669
เจลิส	-10670
▁Type	-10671
▁ลอสแ	-10672
▁Razer	-10673
▁Butter	-10674
▁พาวเวอร์	-10675
ผูก	-10676
กรีต	-10677
ม่าน	-10678
ห้าม	-10679
▁550	-10680
▁DOL	-10681
▁โภค	-10682
ลาเทศ	-10683
▁2400	-10684
▁ลา้น	-10685
▁สวิง	-10686
ailand	-10687
▁Treat	-10688
▁มิใช่	-10689
▁เตี้ย	-10690
▁ปกคลุม	-10691
แห่งชาติ	-10692
▁ฆาตกรรม	-10693
▁รีสอร์ท	-10694
▁ร้อนแรง	-10695
▁เตาแก๊ส	-10696
▁สไปเดอร์	-10697
▁สามเหลี่ยม	-10698
▁ปัจจัยเสี่ยง	-10699
II	-10700
ANE	-10701
หัน	-10702
ียส	-10703
ุระ	-10704
เวศ	-10705
ทยาน	-10706
▁111	-10707
▁345	-10708
▁สัป	-10709
▁สรีร	-10710
▁AUDIO	-10711
▁โรงรถ	-10712
▁นิสสัน	-10713
▁เป็นครั้งคราว	-10714
าต	-10715
ยืม	-10716
แนก	-10717
▁CN	-10718
ย้ํา	-10719
▁PDF	-10720
▁Saf	-10721
▁Ver	-10722
▁จีบ	-10723
▁ดาร	-10724
่างใด	-10725
▁6000	-10726
▁คนใด	-10727
▁ฉ่ํา	-10728
▁พลัส	-10729
▁สมูท	-10730
▁แต่อย	-10731
▁ซื้อขาย	-10732
▁Lightning	-10733
▁แต่อย่างใด	-10734
ari	-10735
เฟีย	-10736
▁พอล	-10737
จูงใจ	-10738
▁HIGH	-10739
▁Life	-10740
▁จรัส	-10741
▁ญาติ	-10742
▁เมดิ	-10743
▁ลมแรง	-10744
▁เอาใจ	-10745
เตอร์เร	-10746
▁ขาดตอน	-10747
▁ทางกาย	-10748
▁มันวาว	-10749
▁อุทยาน	-10750
▁เจ้นท์	-10751
ิตกกังวล	-10752
▁จัดแสดง	-10753
▁ประเพณี	-10754
▁เครื่องช	-10755
▁เมมโมรี่	-10756
▁สังเกตว่า	-10757
เตอร์เรเนียน	-10758
ape	-10759
ware	-10760
▁คีม	-10761
สีฟัน	-10762
▁Sing	-10763
ิทัศน์	-10764
▁เสด็จ	-10765
▁Cinnam	-10766
▁ความลับ	-10767
▁ล้ําสมัย	-10768
▁แปรงสีฟัน	-10769
▁อํานวยความสะดวก	-10770
74	-10771
HC	-10772
ARE	-10773
OND	-10774
▁MF	-10775
ายาง	-10776
▁ยอน	-10777
ณาการ	-10778
เลียน	-10779
▁1900	-10780
▁อ้อย	-10781
▁เวียน	-10782
▁งานการ	-10783
▁ตรายาง	-10784
▁ล่าช้า	-10785
▁สิ้นปี	-10786
▁แรงม้า	-10787
▁อยู่เลย	-10788
▁WORKSHOP	-10789
▁powerbuy	-10790
▁ไร้กังวล	-10791
▁ถนอมอาหาร	-10792
▁เพราะฉะนั้น	-10793
▁ยกตัวอย่างเช่น	-10794
ว่าน	-10795
▁คลา	-10796
▁ซอม	-10797
▁โรย	-10798
ิเตอร์	-10799
▁ผ่าตัด	-10800
▁ลาก่อน	-10801
▁Philips	-10802
▁ญแจล็อค	-10803
▁เจ็บปวด	-10804
▁เมลามีน	-10805
รป	-10806
ret	-10807
ตํอ	-10808
แกง	-10809
▁PT	-10810
acer	-10811
▁คิต	-10812
จารย์	-10813
▁เพลิง	-10814
▁กีตาร์	-10815
▁ทางได้	-10816
▁มันเงา	-10817
▁viscose	-10818
▁ของตลาด	-10819
▁Thailand	-10820
▁ความเจ็บ	-10821
▁มหัศจรรย์	-10822
▁สั่งอาหาร	-10823
▁แพลตฟอร์ม	-10824
net	-10825
▁SR	-10826
▁132	-10827
▁COP	-10828
▁เวที	-10829
verter	-10830
▁พาร์ท	-10831
▁ตอบรับ	-10832
▁ทางใต้	-10833
▁ธัญพืช	-10834
ยุติธรรม	-10835
▁Spandex	-10836
▁เจ้าตัว	-10837
▁อินเตอร์เน	-10838
▁cl	-10839
▁810	-10840
▁BOB	-10841
▁LTD	-10842
▁กัว	-10843
▁จิม	-10844
่งั้น	-10845
▁2200	-10846
▁SENS	-10847
▁ฉลาม	-10848
▁ดินส	-10849
▁ตุ๋น	-10850
▁ทนาย	-10851
▁Cover	-10852
▁กล้วย	-10853
▁คงคลัง	-10854
▁บีเอ็ม	-10855
▁ผ้าม่าน	-10856
▁ไม่งั้น	-10857
▁บังกลาเทศ	-10858
▁ลาดตระเวน	-10859
▁บรรณาธิการ	-10860
มัส	-10861
ามา	-10862
▁จร	-10863
ream	-10864
▁แลก	-10865
anced	-10866
▁ตําง	-10867
▁หยวน	-10868
ECTION	-10869
ตาตื่น	-10870
▁นอร์ท	-10871
▁ระวาง	-10872
▁Thermo	-10873
▁ความอด	-10874
▁สมาสต์	-10875
ตาตื่นใจ	-10876
▁ปริมาตร	-10877
▁ปีเตอร์	-10878
▁ฟินแลนด์	-10879
สิ	-10880
ครร	-10881
แซง	-10882
▁ra	-10883
▁ปท	-10884
็นท์	-10885
▁119	-10886
▁เบะ	-10887
ครรภ์	-10888
▁อรรถ	-10889
▁พาร์ค	-10890
▁ภูมิแพ้	-10891
▁ผู้เริ่มต้น	-10892
▁มาตรฐานสากล	-10893
ute	-10894
คา่	-10895
ดัก	-10896
▁ทบ	-10897
▁อ่	-10898
▁525	-10899
▁Cam	-10900
▁ศาส	-10901
▁เฉย	-10902
ylene	-10903
▁Real	-10904
atural	-10905
ัมพันธ	-10906
▁ชื่อดัง	-10907
▁มือใหม่	-10908
▁คัตเตอร์	-10909
▁งานฝีมือ	-10910
▁หลักทรัพย์	-10911
DA	-10912
alk	-10913
รุก	-10914
ุติ	-10915
IPSE	-10916
ISSA	-10917
▁เปป	-10918
ement	-10919
▁คั้น	-10920
▁BOBBI	-10921
▁วาล์ว	-10922
▁เจนต์	-10923
▁จัดสรร	-10924
▁ผจญภัย	-10925
▁ย่อหน้า	-10926
▁เวลาปิด	-10927
▁ขั้นต่ํา	-10928
61	-10929
๎ย	-10930
ขวา	-10931
ถูก	-10932
▁HT	-10933
▁นย	-10934
port	-10935
▁CAN	-10936
▁Rou	-10937
▁ช่อ	-10938
▁1960	-10939
▁เคิล	-10940
▁COVER	-10941
▁Clear	-10942
▁วิทยา	-10943
▁แทร็ก	-10944
▁กองเรือ	-10945
▁ค่าเช่า	-10946
▁Climalite	-10947
▁การแถลงข่าว	-10948
คู	-10949
ยศ	-10950
▁TN	-10951
land	-10952
่มุก	-10953
▁121	-10954
▁144	-10955
▁405	-10956
▁oil	-10957
▁หมอ	-10958
▁Care	-10959
▁FEAT	-10960
▁ถูกใจ	-10961
▁เชียง	-10962
▁เมื่อย	-10963
▁ไข่มุก	-10964
▁ทําเป็น	-10965
▁ครึ่งทาง	-10966
▁มีคุณค่า	-10967
▁งานเลี้ยง	-10968
▁เป็นสําคัญ	-10969
▁เครื่องปรุง	-10970
▁ผู้เสียชีวิต	-10971
bps	-10972
ดาว	-10973
ถอย	-10974
▁Ev	-10975
▁JR	-10976
▁แจก	-10977
ิสถาน	-10978
แคล่ว	-10979
▁Nick	-10980
▁เบิล	-10981
▁ดีเซล	-10982
▁ยักษ์	-10983
▁เหม็น	-10984
▁บอสตัน	-10985
▁เมื่อคืน	-10986
Es	-10987
ULL	-10988
ized	-10989
ทธิ์	-10990
ิบัญ	-10991
▁แตง	-10992
BLOOM	-10993
กําไร	-10994
▁Slip	-10995
▁เบีย	-10996
หลงใหล	-10997
เมี่ยม	-10998
ิบัญญัติ	-10999
เดินเรือ	-11000
▁ภาษาจีน	-11001
▁รอยยิ้ม	-11002
▁สัปปะรด	-11003
▁น่าหลงใหล	-11004
▁ความเป็นจริง	-11005
่ด	-11006
ชุด	-11007
ยอง	-11008
ster	-11009
หุ้ม	-11010
▁BAT	-11011
▁ริน	-11012
▁Cont	-11013
เปลือก	-11014
▁ECLIPSE	-11015
▁ความไม่แน่นอน	-11016
VES	-11017
แร่	-11018
พลัน	-11019
อยซ์	-11020
▁Ref	-11021
▁NEXT	-11022
▁ฝนตก	-11023
▁อดใจ	-11024
คําถาม	-11025
▁Laser	-11026
▁OUTPUT	-11027
▁น้ําส้ม	-11028
▁ออร์ก้า	-11029
▁เปราะบาง	-11030
▁ไฟฟ้าสถิต	-11031
BAN	-11032
fal	-11033
เบล	-11034
oint	-11035
▁Bea	-11036
▁ดัต	-11037
▁ริบ	-11038
▁เนป	-11039
ผลให๎	-11040
▁หยัก	-11041
เบิลยู	-11042
▁ทันใจ	-11043
▁ร้อนใน	-11044
▁กลับด้าน	-11045
▁เอสเพรสโซ่	-11046
ka	-11047
ตอ	-11048
ift	-11049
จุด	-11050
▁fl	-11051
▁ro	-11052
▁us	-11053
▁ไช	-11054
▁Bel	-11055
▁ยาส	-11056
เฟอร์	-11057
▁อาสา	-11058
▁micro	-11059
▁รถบัส	-11060
▁ปรัชญา	-11061
▁หลบหนี	-11062
▁แกลลอน	-11063
เป้าหมาย	-11064
▁อภิปราย	-11065
▁ออร์แกน	-11066
▁ปรากฏตัว	-11067
แปร	-11068
ไล้	-11069
▁HS	-11070
erry	-11071
ring	-11072
บนัส	-11073
เลย์	-11074
▁415	-11075
▁ปฐม	-11076
▁อาว	-11077
▁ไขว	-11078
เทอร์	-11079
▁DOUG	-11080
▁Stra	-11081
▁ข่วน	-11082
▁สตัน	-11083
ั่วไหล	-11084
ที่จริง	-11085
▁ดีแล้ว	-11086
▁ลูบไล้	-11087
▁หน้าตา	-11088
▁MELISSA	-11089
▁หลอกลวง	-11090
▁ทิวทัศน์	-11091
▁Cleansing	-11092
▁พระราชวัง	-11093
▁การรั่วไหล	-11094
63	-11095
ua	-11096
กั	-11097
key	-11098
เท่	-11099
▁ขด	-11100
umin	-11101
แก้ว	-11102
▁850	-11103
▁ดิส	-11104
▁ธีม	-11105
▁อัย	-11106
▁2545	-11107
▁การข	-11108
▁Nikon	-11109
▁ปัญญา	-11110
▁ไมเคิล	-11111
▁ขัดขวาง	-11112
▁ความเท่	-11113
▁ทางรถไฟ	-11114
▁หัวแหลม	-11115
▁ตระหนักถึง	-11116
▁ผู้พิพากษา	-11117
▁คุณประโยชน์	-11118
ฤก	-11119
ซัส	-11120
นัย	-11121
ศัก	-11122
▁IND	-11123
ทดแทน	-11124
ือรือ	-11125
กระบอก	-11126
▁นอร์ธ	-11127
▁เยิ้ม	-11128
▁แบงค์	-11129
▁จอร์เจ	-11130
▁รณรงค์	-11131
▁แคนนอน	-11132
▁โรเบิร์ต	-11133
▁เป็นประกาย	-11134
แยะ	-11135
UIRE	-11136
time	-11137
▁TOU	-11138
oroll	-11139
ดิสก์	-11140
▁Amer	-11141
▁inch	-11142
▁Flash	-11143
▁ของมี	-11144
▁ฟิวส์	-11145
▁โบนัส	-11146
▁DriFIT	-11147
▁Office	-11148
▁ซีซั่น	-11149
▁มีเงิน	-11150
▁เหยียบ	-11151
▁จอร์เจีย	-11152
▁โภชนาการ	-11153
▁ฮาร์ดดิสก์	-11154
ifi	-11155
ตาร	-11156
ล้อ	-11157
izer	-11158
▁TRI	-11159
▁นีน	-11160
▁ฟอร	-11161
▁ฟิช	-11162
▁เซล	-11163
▁RESP	-11164
แกเรีย	-11165
▁เซนส์	-11166
▁Cushion	-11167
▁ความถูก	-11168
▁ลุกขึ้น	-11169
▁คําศัพท์	-11170
▁ไฮโดรเจน	-11171
▁นัยสําคัญ	-11172
▁บทบัญญัติ	-11173
▁บัลแกเรีย	-11174
▁ประสบปัญหา	-11175
INA	-11176
LESS	-11177
อลิก	-11178
▁MAH	-11179
OSEPH	-11180
entral	-11181
ตินิยม	-11182
สูงสุด	-11183
▁APPLE	-11184
▁Energy	-11185
▁JOSEPH	-11186
▁ลงคะแนน	-11187
▁ตัวเมือง	-11188
▁ภูมิทัศน์	-11189
▁ดาราศาสตร์	-11190
▁เปลืองเงิน	-11191
▁เอนกประสงค์	-11192
gr	-11193
คิ	-11194
▁SI	-11195
RAPH	-11196
fess	-11197
ปปี้	-11198
าล่ะ	-11199
▁YoY	-11200
คร้าย	-11201
เยือน	-11202
▁MODE	-11203
▁Pack	-11204
เวิร์ด	-11205
▁วิญญาณ	-11206
▁เอาล่ะ	-11207
▁แฮปปี้	-11208
▁กินเวลา	-11209
▁ตัดแต่ง	-11210
▁พึงพอใจ	-11211
▁หนาแน่น	-11212
▁เต็มตัว	-11213
▁โชคร้าย	-11214
▁คุณผู้ชาย	-11215
▁เหลือเกิน	-11216
▁Cinnamoroll	-11217
▁สนามแม่เหล็ก	-11218
ตาก	-11219
▁al	-11220
หล่น	-11221
▁158	-11222
▁รัม	-11223
▁๎อง	-11224
▁1988	-11225
▁ขวาง	-11226
▁แบ็ค	-11227
ประกาศ	-11228
▁CABLE	-11229
▁Cross	-11230
▁คอนเส	-11231
▁Screen	-11232
▁ต้องหา	-11233
▁ผ้าพัน	-11234
▁มูฟวี่	-11235
▁รัดรูป	-11236
▁ล้าสมัย	-11237
▁เรตติ้ง	-11238
▁ความมุ่ง	-11239
▁ร่วงหล่น	-11240
▁กลางเมือง	-11241
▁ทรงกระบอก	-11242
▁เสียค่าใช้จ่าย	-11243
sc	-11244
ปฏ	-11245
RIG	-11246
หิต	-11247
๊อค	-11248
▁ยง	-11249
▁End	-11250
▁ทิช	-11251
▁เลค	-11252
▁PHASE	-11253
▁ทวิภาคี	-11254
▁ระบายสี	-11255
▁ชีวิตจริง	-11256
▁เล่าเรื่อง	-11257
▁แสงอาทิตย์	-11258
▁ิ	-11259
นุม	-11260
ฮัท	-11261
▁146	-11262
▁คลอ	-11263
▁แปะ	-11264
phone	-11265
ํานาญ	-11266
▁Dark	-11267
แกงลิง	-11268
▁TECHN	-11269
▁ชีพจร	-11270
▁ไวนิล	-11271
▁Adidas	-11272
▁คัดลอก	-11273
▁ชุมนุม	-11274
▁รอยแตก	-11275
▁สังหาร	-11276
▁Perfect	-11277
▁การทราบ	-11278
▁การเจาะ	-11279
▁รเมี่ยม	-11280
▁แนบสนิท	-11281
▁เผชิญหน้า	-11282
KI	-11283
ky	-11284
ออ	-11285
250	-11286
โหล	-11287
ycra	-11288
▁COL	-11289
▁Fre	-11290
▁Tur	-11291
▁อ้อ	-11292
อาวุธ	-11293
▁Nano	-11294
▁ชนบท	-11295
▁นาซี	-11296
ออกไซด์	-11297
▁ยอมให้	-11298
▁ของหวาน	-11299
▁ผู้ขับขี่	-11300
▁อารมณ์ขัน	-11301
▁ผ้าเช็ดตัว	-11302
ขวด	-11303
นึง	-11304
▁ne	-11305
▁วก	-11306
าร์ต	-11307
ิคอป	-11308
▁เวอ	-11309
▁โดะ	-11310
ender	-11311
▁Base	-11312
▁Plug	-11313
▁WIFI	-11314
▁Waco	-11315
▁ท่วง	-11316
▁ความยาก	-11317
▁จักรวาล	-11318
▁ซักล้าง	-11319
▁เฮลิคอป	-11320
▁แรกเกิด	-11321
▁พรีเมียร์	-11322
▁การอาบน้ํา	-11323
▁วิวัฒนาการ	-11324
▁อันที่จริง	-11325
▁เพื่อนร่วม	-11326
▁เฮลิคอปเตอร์	-11327
oot	-11328
▁ฟร	-11329
ATCH	-11330
▁290	-11331
▁395	-11332
▁410	-11333
▁Lum	-11334
▁MON	-11335
▁ทิป	-11336
▁วอน	-11337
▁เพา	-11338
สนเทศ	-11339
▁รถจักร	-11340
▁เกียร์	-11341
▁เพนซิล	-11342
▁อนุรักษ์	-11343
▁UH	-11344
▁129	-11345
บัญชา	-11346
▁Mode	-11347
▁สเปก	-11348
▁ศัพท์	-11349
▁ไว้ใจ	-11350
▁นิดนึง	-11351
▁แต่วัน	-11352
ข้าวหม้อ	-11353
▁RESPONS	-11354
▁วุฒิสภา	-11355
▁กล้องโทร	-11356
▁คอนเสิร์ต	-11357
▁น้ําสะอาด	-11358
▁หม้อข้าวหม้อ	-11359
SL	-11360
UX	-11361
uo	-11362
คี	-11363
ety	-11364
ger	-11365
บุญ	-11366
เนต	-11367
▁เร้า	-11368
▁Wacoal	-11369
▁ต่างหู	-11370
▁ผู้ชนะ	-11371
▁วาดภาพ	-11372
▁ถ่านหิน	-11373
▁น้ําดื่ม	-11374
▁มนุษยธรรม	-11375
▁ค่อนข้างจะ	-11376
Bl	-11377
ร้น	-11378
ลี่	-11379
เอา	-11380
▁ล์	-11381
มิโน	-11382
▁141	-11383
▁Rel	-11384
▁ฝูง	-11385
▁ลัด	-11386
▁อัม	-11387
▁เวต	-11388
▁HARD	-11389
▁หมัก	-11390
▁เลขา	-11391
▁FedEx	-11392
▁ข้างบน	-11393
▁วิลล่า	-11394
▁ความกลัว	-11395
▁ความตั้งใจ	-11396
▁ทางตะวันตก	-11397
▁ความพึงพอใจ	-11398
ze	-11399
IGN	-11400
USH	-11401
uty	-11402
ผล่	-11403
อาร	-11404
๊อบ	-11405
work	-11406
รอ๎ย	-11407
▁SUR	-11408
▁Van	-11409
▁ตีน	-11410
acool	-11411
▁โผล่	-11412
▁ไทมส์	-11413
▁GAMING	-11414
▁กองทหาร	-11415
▁เวนเดอร์	-11416
▁เอสเปรสโซ่	-11417
▁กล้องโทรทรรศน์	-11418
NEY	-11419
ซาน	-11420
เรก	-11421
▁Inf	-11422
▁เรท	-11423
▁Core	-11424
▁ควีน	-11425
▁บ็อบ	-11426
▁แคร์	-11427
▁โด่ง	-11428
▁วางใจ	-11429
▁ฉะนั้น	-11430
▁ถึงว่า	-11431
▁ชาเขียว	-11432
▁ล้างจาน	-11433
▁เห็นชอบ	-11434
▁ผ้าพันคอ	-11435
▁รถจักรยาน	-11436
▁เนื้อเพลง	-11437
In	-11438
นาย	-11439
ปืน	-11440
▁Fi	-11441
▁ก่	-11442
ames	-11443
ates	-11444
▁โระ	-11445
▁1970	-11446
▁1984	-11447
▁Inter	-11448
▁Tefal	-11449
▁ดีฉัน	-11450
▁แฟนซี	-11451
▁นับถือ	-11452
▁ส่งต่อ	-11453
▁Premium	-11454
▁เข้าใจง่าย	-11455
CC	-11456
FL	-11457
วา	-11458
ตาซี	-11459
▁รฐั	-11460
ลาเจน	-11461
▁Dell	-11462
▁Part	-11463
▁เฝ้า	-11464
ประสาท	-11465
ภายนอก	-11466
▁บล็อค	-11467
▁ซอมบี้	-11468
▁เรือรบ	-11469
▁Complex	-11470
▁แฟนตาซี	-11471
▁คอลลาเจน	-11472
▁Treatment	-11473
▁Universal	-11474
▁การขับขี่	-11475
▁Protection	-11476
▁ความตื่นเต้น	-11477
▁เอเชียนเกมส์	-11478
de	-11479
บู	-11480
ุโส	-11481
▁ธา	-11482
▁OPT	-11483
▁เฟส	-11484
▁พานา	-11485
ัดเลือก	-11486
แบบฉบับ	-11487
▁Natural	-11488
▁เงินตรา	-11489
▁เพอร์เฟค	-11490
▁ตามแบบฉบับ	-11491
▁การคัดเลือก	-11492
ธุรก	-11493
▁Pod	-11494
BOARD	-11495
▁Easy	-11496
▁อวัย	-11497
ธุรกิจ	-11498
ตราจารย์	-11499
ือรือร้น	-11500
▁เข้าคู่	-11501
▁บูรณาการ	-11502
▁น้ําเชื่อม	-11503
▁กระตือรือร้น	-11504
▁การบังคับใช้	-11505
ถม	-11506
uss	-11507
นนิ	-11508
▁KT	-11509
▁Mr	-11510
▁ถด	-11511
▁MFC	-11512
▁จ่ะ	-11513
berry	-11514
▁NANO	-11515
▁บ่อยๆ	-11516
นนิบัติ	-11517
▁อวัยวะ	-11518
▁ความตาย	-11519
▁คอนกรีต	-11520
▁ภัยแล้ง	-11521
▁เรื่องตลก	-11522
▁ความวิตกกังวล	-11523
ศช	-11524
TLE	-11525
จ๊ะ	-11526
นัล	-11527
ange	-11528
▁KIP	-11529
▁Sch	-11530
▁ฟลู	-11531
▁Case	-11532
▁Fuse	-11533
▁คั่ว	-11534
นิรภัย	-11535
▁Brown	-11536
▁นะจ๊ะ	-11537
▁ระยิบ	-11538
▁สว่าน	-11539
ซ่อมแซม	-11540
▁แล้วไป	-11541
▁นิวเคลียส	-11542
▁โครเอเชีย	-11543
▁การซ่อมแซม	-11544
▁ความถูกต้อง	-11545
CB	-11546
งด	-11547
บอ	-11548
MER	-11549
▁EF	-11550
▁ค่	-11551
▁สส	-11552
วกัส	-11553
เรย์	-11554
▁238	-11555
▁MER	-11556
▁มุส	-11557
▁แบก	-11558
▁Inst	-11559
▁ทะลุ	-11560
▁เผ่า	-11561
▁ดัตช์	-11562
▁วิสัย	-11563
▁วิชาการ	-11564
▁ความตกลง	-11565
ha	-11566
ii	-11567
pr	-11568
RAM	-11569
▁งิ	-11570
▁่ง	-11571
ense	-11572
▁BRA	-11573
▁COM	-11574
▁Syn	-11575
▁นิช	-11576
▁บาก	-11577
▁บิก	-11578
▁เครา	-11579
▁10000	-11580
▁ฝีมือ	-11581
▁เดวิด	-11582
▁เทือก	-11583
▁ลําบาก	-11584
▁อัยการ	-11585
▁คัดค้าน	-11586
▁จองแล้ว	-11587
▁ภาษาไทย	-11588
▁โซเดียม	-11589
▁หน้าท้อง	-11590
▁แรงจูงใจ	-11591
▁ภาพลักษณ์	-11592
▁Technology	-11593
OG	-11594
255	-11595
OLD	-11596
PEC	-11597
ําระ	-11598
▁BAR	-11599
▁Mir	-11600
▁มวย	-11601
▁เชน	-11602
▁เนส	-11603
aster	-11604
under	-11605
ลงนาม	-11606
▁DUAL	-11607
สุดยอด	-11608
▁เกล็ด	-11609
▁กราฟฟิก	-11610
▁ออร์แกนิก	-11611
▁อุปกรณ์ไฟฟ้า	-11612
▁เป็นส่วนใหญ่	-11613
▁ความเคลื่อนไหว	-11614
รต	-11615
▁BI	-11616
ount	-11617
▁Pur	-11618
▁กลบ	-11619
▁ลัน	-11620
▁ลู่	-11621
ระยับ	-11622
▁Navy	-11623
▁ค้ํา	-11624
▁สยอง	-11625
▁แวร์	-11626
▁ใครๆ	-11627
นาฬิกา	-11628
▁เวลส์	-11629
▁เอกซ์	-11630
▁Nickel	-11631
▁รําคาญ	-11632
▁สมมุติ	-11633
▁ระเบียบ	-11634
▁สมูทตี้	-11635
▁ทางเหนือ	-11636
▁สํงผลให๎	-11637
▁พิซซ่าฮัท	-11638
▁ภูมิอากาศ	-11639
▁ชั้นวางของ	-11640
▁ระยิบระยับ	-11641
๋อ	-11642
ทยา	-11643
ร์ก	-11644
อิน	-11645
▁AH	-11646
▁117	-11647
▁142	-11648
▁380	-11649
▁CAS	-11650
▁Pale	-11651
▁ฟูจิ	-11652
▁ฟู้ด	-11653
▁ร็อก	-11654
▁ลาร์	-11655
▁ล่อน	-11656
▁Index	-11657
▁กดดัน	-11658
▁นายพล	-11659
▁อีสต์	-11660
▁เดสก์	-11661
▁เนปาล	-11662
เหตุนี้	-11663
▁ความปร	-11664
▁เชียร์	-11665
▁เหงือก	-11666
▁KIPLING	-11667
▁ยุทธการ	-11668
▁รถไฟใต้ดิน	-11669
▁อินเตอร์เน็ต	-11670
▁เตารีดไอน้ํา	-11671
▁เป็นที่ยอมรับ	-11672
ym	-11673
ati	-11674
zer	-11675
ทิส	-11676
นยาว	-11677
▁ULT	-11678
▁พิน	-11679
▁ลาม	-11680
UBWOO	-11681
สร๎าง	-11682
แขนยาว	-11683
▁CHARG	-11684
ต้อนรับ	-11685
หัวเราะ	-11686
▁DISNEY	-11687
▁โต้ตอบ	-11688
▁กลับคืน	-11689
▁บางแห่ง	-11690
▁ความอดทน	-11691
▁ห้องเรียน	-11692
▁เงินลงทุน	-11693
▁ชี้ให้เห็น	-11694
▁การเดินเรือ	-11695
▁ความเจ็บปวด	-11696
▁เสื้อแขนยาว	-11697
wood	-11698
▁ACC	-11699
▁RGB	-11700
▁ขนาน	-11701
▁รถแท	-11702
ขนมปัง	-11703
จันทร์	-11704
เปเปอร์	-11705
▁Orange	-11706
▁ขายส่ง	-11707
▁ต่อหน้า	-11708
▁ล่มสลาย	-11709
▁แบ่งแยก	-11710
fessional	-11711
▁มุ่งหน้า	-11712
รัฐธรรมนูญ	-11713
▁ดาวเคราะห์	-11714
▁ปรากฏการณ์	-11715
▁ความมุ่งมั่น	-11716
▁ชั่งน้ําหนัก	-11717
ACT	-11718
ีนา	-11719
▁ธี	-11720
▁ยอ	-11721
ซ่อน	-11722
ราว์	-11723
ีม่า	-11724
เซโล	-11725
▁Cut	-11726
▁Hyd	-11727
▁กบฏ	-11728
▁กวาด	-11729
▁ฟ้อง	-11730
▁ผู้สูง	-11731
▁สิ่งทอ	-11732
▁เบราว์	-11733
▁เงินได้	-11734
▁Lipstick	-11735
▁กระดาษสี	-11736
▁กัดกร่อน	-11737
▁บาร์เซโล	-11738
ปิ้งขนมปัง	-11739
▁ผู้กํากับ	-11740
▁เบราว์เซอร์	-11741
▁เครื่องเสียง	-11742
สอน	-11743
▁co	-11744
▁จอน	-11745
OLOGY	-11746
กอล์ฟ	-11747
▁CLINI	-11748
▁หาทาง	-11749
ไม่เห็น	-11750
▁มิดชิด	-11751
▁ความฝัน	-11752
▁ตามเวลา	-11753
▁บอกเล่า	-11754
▁พริกไทย	-11755
▁ไหลผ่าน	-11756
▁เพาเวอร์	-11757
▁แอพพลิเค	-11758
▁ผู้ก่อการร้าย	-11759
69	-11760
ont	-11761
oop	-11762
เบน	-11763
illa	-11764
นานา	-11765
สถาน	-11766
▁Her	-11767
▁ตับ	-11768
▁ลิม	-11769
▁1972	-11770
▁Side	-11771
▁mini	-11772
▁กะทิ	-11773
▁เผ็ด	-11774
▁ไขว้	-11775
▁Sound	-11776
▁แนวปะ	-11777
▁เวิลด์	-11778
นานาชาติ	-11779
▁CONTROL	-11780
▁พ่ายแพ้	-11781
▁แทรกแซง	-11782
▁ขี้เกียจ	-11783
▁อิเล็กตรอน	-11784
▁เหนื่อยล้า	-11785
▁แนวปะการัง	-11786
▁ระดับนานาชาติ	-11787
elf	-11788
ump	-11789
ติค	-11790
นิก	-11791
▁ขี	-11792
▁ต๎	-11793
▁ธร	-11794
ness	-11795
ทารก	-11796
รภาพ	-11797
▁PIX	-11798
▁ติก	-11799
▁LEAT	-11800
▁Lift	-11801
▁ORIG	-11802
▁PIEC	-11803
▁Scan	-11804
▁ม่อน	-11805
▁เท่ห์	-11806
ล้มเหลว	-11807
▁220240	-11808
▁ค้าส่ง	-11809
▁ผ้าลาย	-11810
▁สวรรค์	-11811
ตั้งโต๊ะ	-11812
▁กูเกิ้ล	-11813
ัมพันธมิตร	-11814
เซอร์แลนด์	-11815
▁มองไม่เห็น	-11816
▁ความล้มเหลว	-11817
▁สวิตเซอร์แลนด์	-11818
ey	-11819
ศุ	-11820
BER	-11821
oto	-11822
เซส	-11823
่มข	-11824
▁oz	-11825
wire	-11826
▁133	-11827
▁API	-11828
▁บัฟ	-11829
▁ผู๎	-11830
หายใจ	-11831
▁คลอง	-11832
▁บรอด	-11833
▁เทอะ	-11834
▁BATTER	-11835
▁Sports	-11836
▁คอมเพรส	-11837
▁เป็นคุณ	-11838
ิสัมพันธ์	-11839
▁ทาวเวอร์	-11840
▁มีความหวัง	-11841
▁คอมเพรสเซอร์	-11842
กต์	-11843
มุข	-11844
านุ	-11845
เลน	-11846
โกน	-11847
ไห้	-11848
▁tr	-11849
คั่ง	-11850
▁Bur	-11851
▁Tem	-11852
▁วาว	-11853
าชการ	-11854
เสาร์	-11855
โซนิค	-11856
▁2100	-11857
▁ค้าน	-11858
▁สาวก	-11859
จดหมาย	-11860
▁ตํารา	-11861
รับเงิน	-11862
▁ช่วงแรก	-11863
▁ลูกหนี้	-11864
▁เอาหน้า	-11865
▁อาทิเช่น	-11866
▁พานาโซนิค	-11867
▁ใบเสร็จรับเงิน	-11868
RAD	-11869
นาง	-11870
เซน	-11871
โรย	-11872
ย่อย	-11873
▁480	-11874
▁BEN	-11875
▁Dol	-11876
▁พลา	-11877
▁ยุบ	-11878
▁สศช	-11879
▁DOLBY	-11880
▁CAMERA	-11881
▁การกู้	-11882
▁ประมุข	-11883
▁ปรึกษา	-11884
▁ท้องฟ้า	-11885
▁โด่งดัง	-11886
▁เทือกเขา	-11887
▁การระเบิด	-11888
▁บังคับใช้	-11889
▁การผ่อนคลาย	-11890
▁กล้องถ่ายรูป	-11891
▁กางเกงว่ายน้ํา	-11892
VA	-11893
อิ	-11894
LUX	-11895
oli	-11896
เปร	-11897
▁AG	-11898
คุ้ม	-11899
▁304	-11900
▁Win	-11901
▁ฝ้า	-11902
▁โฉม	-11903
▁จิตร	-11904
▁พบกัน	-11905
▁PIECES	-11906
▁ถ้าหาก	-11907
▁อรรถรส	-11908
▁แฮร์รี่	-11909
▁ระวางโทษ	-11910
▁เจ้าหนี้	-11911
▁อินเทรนด์	-11912
ศพ	-11913
ATA	-11914
row	-11915
▁กง	-11916
▁์ส	-11917
ORTH	-11918
iana	-11919
peed	-11920
กวาด	-11921
▁Def	-11922
▁MIN	-11923
▁บุช	-11924
▁วาม	-11925
▁เนต	-11926
▁เรย์	-11927
คาไลน์	-11928
▁Stick	-11929
▁คนไข้	-11930
▁THERMO	-11931
▁ตีความ	-11932
▁บรรทุก	-11933
▁เบี่ยง	-11934
▁แรงดูด	-11935
▁กาลเวลา	-11936
▁ความชอบ	-11937
▁โดยเร็ว	-11938
▁มุ่งมั่น	-11939
▁สยองขวัญ	-11940
▁เข้มแข็ง	-11941
▁เด็กทารก	-11942
▁เมื่อกี้	-11943
▁อัลคาไลน์	-11944
ACH	-11945
ENG	-11946
emy	-11947
▁CS	-11948
▁em	-11949
สตรี	-11950
แหวน	-11951
▁925	-11952
▁อิท	-11953
▁แอด	-11954
ระลึก	-11955
▁1998	-11956
▁Wash	-11957
▁แม่บ้าน	-11958
▁TECHNOLOGY	-11959
▁BRI	-11960
▁TSA	-11961
▁เบอ	-11962
▁เมต	-11963
▁Best	-11964
▁พัทยา	-11965
▁เพลิน	-11966
▁ศาสตร์	-11967
▁เทอะทะ	-11968
▁SPEAKER	-11969
▁ภาคเหนือ	-11970
▁กฎระเบียบ	-11971
▁ศักดิ์สิทธิ์	-11972
▁ความประหลาดใจ	-11973
ํง	-11974
INK	-11975
PRO	-11976
▁Cu	-11977
▁Vo	-11978
▁ใต	-11979
▁Ass	-11980
▁Mov	-11981
▁NET	-11982
ี้ภัย	-11983
▁NARS	-11984
สังเกต	-11985
เวเนีย	-11986
▁Drive	-11987
▁คลั่ง	-11988
▁คิงส์	-11989
▁ฟอร์ม	-11990
▁เยี่ย	-11991
ชื่นชอบ	-11992
▁การสึก	-11993
▁ตรงนี้	-11994
ช่วยเหลือ	-11995
▁จัดเรียง	-11996
▁จิตวิทยา	-11997
▁เตรียมการ	-11998
▁ข้อเสนอแนะ	-11999
▁เป็นที่ชื่นชอบ	-12000
EI	-12001
EAN	-12002
คิน	-12003
มิน	-12004
ยุค	-12005
▁DW	-12006
▁อค	-12007
▁โห	-12008
▁Bri	-12009
▁พนั	-12010
▁ลเล	-12011
round	-12012
▁นู้ด	-12013
▁ป้อม	-12014
▁เกิล	-12015
tional	-12016
ที่สาม	-12017
ฟเฟอร์	-12018
▁เอาต์	-12019
▁สวิทช์	-12020
▁ทะเบียน	-12021
▁ผู้เข้า	-12022
▁ศัตรูพืช	-12023
▁คําบรรยาย	-12024
▁เอ็ดเวิร์ด	-12025
EG	-12026
ดบั	-12027
บรม	-12028
▁GP	-12029
ella	-12030
otor	-12031
ร่วง	-12032
ห่วง	-12033
▁อิฐ	-12034
inger	-12035
ดาร์ด	-12036
ฟเฟิล	-12037
▁เหลว	-12038
ศุสัตว์	-12039
ื่อข่าว	-12040
▁ข้างต้น	-12041
▁หมดอายุ	-12042
▁ให้น้ํา	-12043
▁สแตนดาร์ด	-12044
▁ยุทโธปกรณ์	-12045
▁อิมพอร์ตส์	-12046
▁ผู้สื่อข่าว	-12047
TO	-12048
ฤด	-12049
uro	-12050
กาน	-12051
ฆ่า	-12052
ผลัก	-12053
สาวะ	-12054
▁134	-12055
▁470	-12056
▁610	-12057
▁ดบั	-12058
▁โพล	-12059
ทุกข์	-12060
▁สมใน	-12061
ัสสาวะ	-12062
▁ตามหา	-12063
▁TEMPER	-12064
▁ํางตํอ	-12065
UBWOOFER	-12066
▁จําเพาะ	-12067
▁วุ่นวาย	-12068
▁การลงนาม	-12069
▁Climacool	-12070
▁ตั้งครรภ์	-12071
▁ทางกายภาพ	-12072
▁แบบจําลอง	-12073
▁ในขณะนั้น	-12074
mal	-12075
▁MU	-12076
andy	-12077
ency	-12078
lock	-12079
คทีฟ	-12080
หล่อ	-12081
▁ION	-12082
▁Vel	-12083
▁บอย	-12084
▁บัด	-12085
▁หีบ	-12086
วิเศษ	-12087
▁ใช้บน	-12088
ainless	-12089
ปลายทาง	-12090
▁จิตรกร	-12091
▁เอ็กส์	-12092
▁แอคทีฟ	-12093
▁ข้ามคืน	-12094
▁ความสงบ	-12095
▁ริชาร์ด	-12096
▁ร้องไห้	-12097
▁ปริมาณมาก	-12098
▁สุขอนามัย	-12099
▁ความมีชีวิต	-12100
▁ศาสนาคริสต์	-12101
▁โดยส่วนใหญ่	-12102
▁จุดหมายปลายทาง	-12103
Fos	-12104
▁DL	-12105
▁Hot	-12106
▁มีต	-12107
▁ไมํ	-12108
ยุโรป	-12109
เอียง	-12110
▁YVES	-12111
▁ย้ํา	-12112
▁Titan	-12113
▁มังกร	-12114
▁HEATER	-12115
▁ต้นแบบ	-12116
▁วงแหวน	-12117
▁สายพาน	-12118
▁น่าแปลก	-12119
CL	-12120
005	-12121
กุฎ	-12122
▁ถก	-12123
UENC	-12124
▁ยาย	-12125
▁โตะ	-12126
RIDGE	-12127
ียวโต	-12128
่น้ํา	-12129
▁cFos	-12130
▁เอ้อ	-12131
▁บริบท	-12132
▁บรูไน	-12133
▁ฟอยล์	-12134
▁วิหาร	-12135
▁ให้นม	-12136
▁Active	-12137
▁งานแต่ง	-12138
▁ช่วงนี้	-12139
▁ผู้ต้อง	-12140
▁ร่วงโรย	-12141
▁เกียวโต	-12142
▁มาสเตอร์	-12143
▁อนุสัญญา	-12144
▁แต่เพียง	-12145
▁ซื่อสัตย์	-12146
▁เครื่องกรองน้ํา	-12147
GHT	-12148
att	-12149
ige	-12150
ขุย	-12151
▁รก	-12152
จนจบ	-12153
พราง	-12154
▁STE	-12155
ุกรรม	-12156
เถียง	-12157
เวนิว	-12158
▁FREE	-12159
▁FUSE	-12160
▁จับจ	-12161
▁ไดโน	-12162
ผู้ใหญ่	-12163
▁LITTLE	-12164
▁อเวนิว	-12165
▁เท่าใด	-12166
▁วงดนตรี	-12167
▁อําพราง	-12168
▁เคเบิ้ล	-12169
▁เป็นขุย	-12170
▁ซึมเศร้า	-12171
▁ตั้งแต่น	-12172
▁เลียนแบบ	-12173
▁ไดโนเสาร์	-12174
▁แต่ต้นจนจบ	-12175
NET	-12176
rag	-12177
มนา	-12178
เวต	-12179
อ้าง	-12180
ารุส	-12181
▁ง่า	-12182
▁ฮัล	-12183
▁เดท	-12184
ตร้อน	-12185
▁เทรด	-12186
▁สําลี	-12187
▁ําหนด	-12188
▁DriFit	-12189
▁Makeup	-12190
▁United	-12191
▁คลินิก	-12192
▁พลาซ่า	-12193
▁รับฟัง	-12194
▁เปลือย	-12195
▁ล้างมือ	-12196
▁สั่งการ	-12197
▁เขตร้อน	-12198
▁เบลารุส	-12199
▁สิ้นเชิง	-12200
▁โภคภัณฑ์	-12201
ANK	-12202
น่า	-12203
▁cc	-12204
▁ตบ	-12205
ถนอม	-12206
▁430	-12207
▁AST	-12208
board	-12209
ั้นมา	-12210
▁1950	-12211
▁1999	-12212
▁นานๆ	-12213
▁มิลล	-12214
▁ระบาด	-12215
▁โกโก้	-12216
คุ้มกัน	-12217
▁ความคล	-12218
▁ความเค	-12219
▁บริจาค	-12220
▁สอบสวน	-12221
เข้ารหัส	-12222
▁วัยเด็ก	-12223
▁เป็นได้	-12224
▁วิลเลียม	-12225
▁หนาวเย็น	-12226
▁ผู้สูงอายุ	-12227
▁การเข้ารหัส	-12228
▁พลังงานไฟฟ้า	-12229
▁ตั้งแต่นั้นมา	-12230
URA	-12231
รณ์	-12232
▁ET	-12233
▁Of	-12234
▁Sle	-12235
enter	-12236
▁1930	-12237
▁ทํอง	-12238
▁ราชา	-12239
▁ไซร้	-12240
▁มารดา	-12241
▁ลงโทษ	-12242
▁Remote	-12243
▁ผันผวน	-12244
▁อาวุโส	-12245
▁ใต้ดิน	-12246
เซสเซอร์	-12247
▁ทําซ้ํา	-12248
▁ล้อมรอบ	-12249
▁หนี้สิน	-12250
▁เสาอากาศ	-12251
▁สนามกอล์ฟ	-12252
▁อิตาเลี่ยน	-12253
▁โดยทั่วไปแล้ว	-12254
ISU	-12255
NAL	-12256
ily	-12257
▁DV	-12258
▁Ep	-12259
▁Is	-12260
▁เ่	-12261
ocus	-12262
รูว์	-12263
▁RAW	-12264
▁สง่	-12265
ิลิตร	-12266
เหยิง	-12267
▁ANKO	-12268
▁LANC	-12269
▁ไทเท	-12270
cessor	-12271
กางเกง	-12272
▁Rouge	-12273
▁SHELF	-12274
▁หย่อน	-12275
▁แซนด์	-12276
▁โอมาน	-12277
กระโปรง	-12278
พลาสติก	-12279
▁ควรค่า	-12280
▁ดําแดง	-12281
▁Flywire	-12282
▁ทางเข้า	-12283
▁เอาเป็น	-12284
▁Inverter	-12285
▁เหมาะมือ	-12286
▁มิลลิลิตร	-12287
▁ไทเทเนียม	-12288
เนื่องมาจาก	-12289
▁คุณภาพต่ํา	-12290
▁ชายกระโปรง	-12291
▁เป้ากางเกง	-12292
ko	-12293
ll	-12294
ana	-12295
asm	-12296
▁MD	-12297
▁Ot	-12298
ติกา	-12299
ปลอม	-12300
มะลิ	-12301
▁182	-12302
▁Che	-12303
▁RMS	-12304
▁จั๊	-12305
▁นัน	-12306
▁ฟิก	-12307
▁สละ	-12308
ปัญญา	-12309
▁Disk	-12310
▁EVISU	-12311
▁เฮอร์	-12312
▁สวิตซ์	-12313
▁สอบถาม	-12314
▁ปฏิวัติ	-12315
▁สมรรถนะ	-12316
▁เน้นย้ํา	-12317
▁แสนวิเศษ	-12318
▁แต่ละบุคคล	-12319
▁อันเนื่องมาจาก	-12320
ั่	-12321
ITCH	-12322
MENT	-12323
eral	-12324
▁GST	-12325
▁LAM	-12326
▁ล้น	-12327
allic	-12328
▁ชว่ง	-12329
▁โจนส์	-12330
▁กริลล์	-12331
▁มหาศาล	-12332
▁LEATHER	-12333
▁บกพร่อง	-12334
▁ปศุสัตว์	-12335
▁แอนดรูว์	-12336
▁คาปูชิโน่	-12337
▁อาสาสมัคร	-12338
▁เอาเป็นว่า	-12339
▁ภูมิคุ้มกัน	-12340
▁เพอร์เฟ็กต์	-12341
▁ความมีชีวิตชีวา	-12342
BON	-12343
apt	-12344
ous	-12345
ชัย	-12346
ดูล	-12347
▁อณ	-12348
enth	-12349
รีย์	-12350
▁152	-12351
▁วูด	-12352
บอเนต	-12353
เชอร์	-12354
▁เต่า	-12355
▁โคลน	-12356
▁์สรอ	-12357
ASONIC	-12358
▁คูเวต	-12359
▁ตัวดี	-12360
▁โมดูล	-12361
▁Shadow	-12362
▁กระปุก	-12363
▁จากนี้	-12364
▁ครั้งหน้า	-12365
▁ชั้นเยี่ยม	-12366
▁แพร่กระจาย	-12367
▁ประชาสัมพันธ์	-12368
▁ปฏิบัติหน้าที่	-12369
IV	-12370
ตอม	-12371
วนา	-12372
อาย	-12373
อิส	-12374
เล่	-12375
▁DY	-12376
▁ข๎	-12377
หมวด	-12378
ไฟล์	-12379
▁เกะ	-12380
▁FULL	-12381
▁ปราณี	-12382
▁อะตอม	-12383
พิสูจน์	-12384
▁Shower	-12385
▁ออกงาน	-12386
ประดิษฐ์	-12387
▁ช่างภาพ	-12388
เพิม่ขึน้	-12389
▁Advanced	-12390
▁การประมง	-12391
▁PANASONIC	-12392
▁น่าแปลกใจ	-12393
LON	-12394
ula	-12395
▁LC	-12396
▁MX	-12397
▁Pi	-12398
ินท์	-12399
▁247	-12400
▁Del	-12401
▁Inc	-12402
▁งอก	-12403
▁เรน	-12404
ROUND	-12405
▁Berg	-12406
▁POLO	-12407
▁cmXS	-12408
▁ข้อย	-12409
▁ท่อง	-12410
▁SPORT	-12411
▁ทเทิล	-12412
▁มีหัว	-12413
▁เนียม	-12414
▁SIZING	-12415
▁จะแจ้ง	-12416
▁ลูกล้อ	-12417
หมวดหมู่	-12418
▁คํามั่น	-12419
▁ระดมทุน	-12420
▁สาธารณสุข	-12421
เชื่อถือได้	-12422
▁วิสัยทัศน์	-12423
▁ความจําเป็น	-12424
▁ทางธรรมชาติ	-12425
▁ที่เชื่อถือได้	-12426
บิก	-12427
▁TW	-12428
line	-12429
▁015	-12430
▁Cer	-12431
▁Str	-12432
▁ser	-12433
▁1700	-12434
▁ขุ่น	-12435
▁วิกิ	-12436
ชีวภาพ	-12437
▁Audio	-12438
▁FROST	-12439
▁ระคาย	-12440
▁เฉี่ยว	-12441
▁คราวนี้	-12442
▁ตัวจริง	-12443
▁นายจ้าง	-12444
▁โปรดทราบ	-12445
▁ทวีปยุโรป	-12446
▁บุคคลที่สาม	-12447
▁วอลล์เปเปอร์	-12448
ซุ	-12449
ICA	-12450
ars	-12451
▁HU	-12452
▁IM	-12453
▁TM	-12454
▁นว	-12455
▁DES	-12456
▁Mal	-12457
▁แวม	-12458
เมนท์	-12459
▁1300	-12460
▁ข้อหา	-12461
▁ทั่วๆ	-12462
▁ปาร์ค	-12463
▁คิตตี้	-12464
▁จําแนก	-12465
ไว้วางใจ	-12466
▁ซึ่งกัน	-12467
ไดออกไซด์	-12468
▁กําลังดี	-12469
▁ด้วยเหตุนี้	-12470
▁ซึ่งกันและกัน	-12471
ืบท	-12472
▁AP	-12473
▁LS	-12474
▁Mc	-12475
ี่ย์	-12476
เอิญ	-12477
▁136	-12478
▁143	-12479
▁Bas	-12480
▁ซิก	-12481
▁ฟาส	-12482
▁อัฟ	-12483
ฤทธิ์	-12484
กับที่	-12485
▁BENEF	-12486
▁โคลัม	-12487
▁โทมัส	-12488
▁พาสเทล	-12489
▁รับผิด	-12490
▁ค่าจ้าง	-12491
▁วงกว้าง	-12492
▁อยู่กับที่	-12493
▁ยินดีต้อนรับ	-12494
▁รถจักรยานยนต์	-12495
▁เครื่องทําความ	-12496
Hz	-12497
OCC	-12498
off	-12499
pon	-12500
เด้	-12501
aper	-12502
uick	-12503
ไพร์	-12504
ossom	-12505
▁กลืน	-12506
▁COMPR	-12507
▁Stars	-12508
▁ตามใจ	-12509
▁เคียง	-12510
▁กู้ยืม	-12511
▁จั๊มพ์	-12512
▁จําไว้	-12513
▁บางประ	-12514
วินิจฉัย	-12515
▁BENEFIT	-12516
▁เอสเพรสโซ	-12517
▁นักวิชาการ	-12518
▁ลายนิ้วมือ	-12519
▁วิกฤตการณ์	-12520
▁ไฟฟ้าสถิตย์	-12521
aby	-12522
▁IT	-12523
มณฑล	-12524
▁Pix	-12525
▁จิบ	-12526
▁บ่อ	-12527
▁โฉบ	-12528
▁DRIVE	-12529
▁Enter	-12530
▁NOTEB	-12531
▁มีแผน	-12532
▁ลิสต์	-12533
▁ไดนาม	-12534
▁ตัดออก	-12535
▁Flyknit	-12536
▁ความดัง	-12537
▁ทางน้ํา	-12538
▁ลูกจ้าง	-12539
▁วอเตอร์	-12540
▁เผาไหม้	-12541
▁ถ้าอย่างนั้น	-12542
RR	-12543
orn	-12544
uct	-12545
ย่อ	-12546
วส์	-12547
▁MY	-12548
▁ม่	-12549
ณฑิต	-12550
▁หอย	-12551
▁แพร	-12552
มาลัย	-12553
เออร์	-12554
▁2563	-12555
▁ติ้ง	-12556
▁เบรน	-12557
▁OTHER	-12558
▁อตัรา	-12559
บาดเจ็บ	-12560
ประหลาด	-12561
ากางเกง	-12562
▁จัดงาน	-12563
▁ตกเป็น	-12564
▁ตเตอร์	-12565
▁ต่อสาย	-12566
▁ตําหนิ	-12567
▁พรมแดน	-12568
▁เต็มใจ	-12569
▁เทอร์ม	-12570
▁สัญชาติ	-12571
▁ชัตเตอร์	-12572
▁ส่งเสียง	-12573
▁ลูกฟุตบอล	-12574
▁เงินเดือน	-12575
▁ความผิดปกติ	-12576
▁กระเป๋ากางเกง	-12577
พัง	-12578
แถม	-12579
โขม	-12580
เซิล	-12581
เปีย	-12582
▁137	-12583
▁520	-12584
▁Sun	-12585
▁คัต	-12586
▁แตน	-12587
encil	-12588
irect	-12589
งดงาม	-12590
▁2519	-12591
▁Copy	-12592
▁มาริ	-12593
คเตอร์	-12594
จํานวน	-12595
▁ของแถม	-12596
▁คาดคิด	-12597
▁ผักโขม	-12598
▁ประสงค์	-12599
▁เป็นโรค	-12600
▁แอคชั่น	-12601
ประเทศไทย	-12602
▁เพาะปลูก	-12603
▁Amazoncom	-12604
▁ความงดงาม	-12605
▁คาร์บอเนต	-12606
▁เลขาธิการ	-12607
แห่งประเทศไทย	-12608
กบ	-12609
วิช	-12610
▁166	-12611
▁Key	-12612
▁จรด	-12613
▁ซอล	-12614
▁อ๋อ	-12615
กระจก	-12616
มวลชน	-12617
▁Conc	-12618
▁กองพล	-12619
▁พอร์ท	-12620
▁ฮิลล์	-12621
▁แคว้น	-12622
▁Filter	-12623
▁เขื่อน	-12624
▁ภูเขาไฟ	-12625
▁เกียรติ	-12626
ได้เปรียบ	-12627
▁กลางเดือน	-12628
▁ตลอดชีวิต	-12629
▁เฉลิมฉลอง	-12630
▁ถุงพลาสติก	-12631
▁ข้อเสียเปรียบ	-12632
้ล	-12633
ISE	-12634
ISH	-12635
WOR	-12636
คอง	-12637
▁ํอ	-12638
บุ๊ก	-12639
เทิน	-12640
▁ทูต	-12641
▁พิพ	-12642
▁มอส	-12643
นิเวศ	-12644
าร์ตา	-12645
ียนส์	-12646
▁2300	-12647
▁CHAN	-12648
▁ซิตี	-12649
▁โดรน	-12650
▁Organ	-12651
▁ริเริ่ม	-12652
▁เวลาเปิด	-12653
▁ระบบนิเวศ	-12654
▁แฟ้มเอกสาร	-12655
▁โปรเซสเซอร์	-12656
จ่อ	-12657
▁At	-12658
▁สภ	-12659
zing	-12660
ควิด	-12661
▁DEC	-12662
▁UMB	-12663
▁ซีก	-12664
▁ฟี่	-12665
ิเต็ด	-12666
▁ย้อม	-12667
ประหาร	-12668
▁ในบาง	-12669
▁การบุก	-12670
▁ตรงจุด	-12671
▁ทํานอง	-12672
ต่างชาติ	-12673
โทรทัศน์	-12674
▁BATTERY	-12675
▁Express	-12676
▁ทางซ้าย	-12677
▁ปลายเท้า	-12678
▁ลิมิเต็ด	-12679
▁การรับรู้	-12680
▁ที่ทําการ	-12681
▁มหาอํานาจ	-12682
▁ความเกี่ยว	-12683
td	-12684
ษะ	-12685
IDO	-12686
ฉาก	-12687
▁Je	-12688
ฉ่ํา	-12689
▁PST	-12690
▁ตกต	-12691
▁ทรู	-12692
▁ฮอต	-12693
▁BACK	-12694
▁ประแจ	-12695
▁ลิงค์	-12696
▁เคารพ	-12697
▁เชือ่	-12698
พันธรัฐ	-12699
เกียรติ	-12700
▁เซ็นต์	-12701
เล็กชั่น	-12702
▁บลูเรย์	-12703
▁ประชาคม	-12704
▁ไข้หวัด	-12705
▁TEMPERED	-12706
▁คล่องแคล่ว	-12707
▁ความปรารถนา	-12708
▁คอลเล็กชั่น	-12709
▁มีผลบังคับใช้	-12710
ae	-12711
001	-12712
arp	-12713
pro	-12714
ude	-12715
จึง	-12716
ชวน	-12717
รอท	-12718
แลก	-12719
▁CP	-12720
▁EP	-12721
▁ต์	-12722
▁นั	-12723
▁ยน	-12724
ปั้น	-12725
้าท์	-12726
▁PMI	-12727
ision	-12728
▁EVER	-12729
▁ถูกๆ	-12730
▁ปรอท	-12731
▁ULTRA	-12732
▁รถถัง	-12733
▁เวสท์	-12734
แอฟริกา	-12735
▁การปลด	-12736
▁ทําให๎	-12737
▁ผู้ประ	-12738
▁มือสอง	-12739
▁เข้ารอบ	-12740
▁แวมไพร์	-12741
▁RESPONSE	-12742
▁ข้อสงสัย	-12743
▁เซอร์เบีย	-12744
▁น้ํามันเครื่อง	-12745
AI	-12746
๊น	-12747
พวก	-12748
หัด	-12749
โจม	-12750
▁CC	-12751
ตุ๊ก	-12752
▁203	-12753
▁DSL	-12754
▁Fac	-12755
▁หละ	-12756
▁เฟล	-12757
pport	-12758
เธนส์	-12759
▁SEER	-12760
▁Tosh	-12761
▁คลี่	-12762
ฤดูกาล	-12763
สัมผัส	-12764
▁จุดจบ	-12765
▁หาไม่	-12766
▁เกร็ด	-12767
▁ก่อตัว	-12768
▁อัพเดต	-12769
เพียงแต่	-12770
▁Extract	-12771
▁เอเธนส์	-12772
▁แล้วจึง	-12773
▁ตามฤดูกาล	-12774
▁ไม่เพียงแต่	-12775
▁ไม่อย่างนั้น	-12776
ca	-12777
ปน	-12778
TLD	-12779
fum	-12780
ินี่	-12781
ไซม์	-12782
▁DIR	-12783
▁Pop	-12784
▁RPM	-12785
▁ชิพ	-12786
▁เซฟ	-12787
▁เวส	-12788
ริกซ์	-12789
เวิร์	-12790
▁ภาคี	-12791
▁เซาธ์	-12792
▁INTERF	-12793
▁ขีดสุด	-12794
▁เนือ่ง	-12795
▁แข่งรถ	-12796
เงื่อนไข	-12797
▁บิกินี่	-12798
▁เกลี้ยง	-12799
▁National	-12800
▁ทนายความ	-12801
▁ส่วนโค้ง	-12802
▁งานเอกสาร	-12803
▁ประกาศใช้	-12804
▁มีความจําเป็น	-12805
▁การประชุมสุดยอด	-12806
BC	-12807
olt	-12808
ธิต	-12809
บัต	-12810
รีบ	-12811
นีย์	-12812
▁DIOR	-12813
▁True	-12814
▁การด	-12815
▁ชิลี	-12816
▁ผ่อน	-12817
▁ฮอลล	-12818
พีเดีย	-12819
▁TOUCH	-12820
▁ฟอรัม	-12821
▁ตอบโต้	-12822
▁นางเอก	-12823
▁บ็อกซ์	-12824
▁อัฟกาน	-12825
▁ก้าวหน้า	-12826
▁จาการ์ตา	-12827
▁เงียบสงบ	-12828
▁การแสดงออก	-12829
▁วิกิพีเดีย	-12830
▁อัฟกานิสถาน	-12831
▁เข้าสู่ระบบ	-12832
▁ฤดูใบไม้ร่วง	-12833
สึ	-12834
▁Ap	-12835
▁CLU	-12836
▁Ltd	-12837
▁PRE	-12838
▁Smo	-12839
▁Sub	-12840
มอนด์	-12841
ืบทอด	-12842
▁คนละ	-12843
▁อัคร	-12844
▁ยูนิต	-12845
▁กําเนิด	-12846
▁ซัพพลาย	-12847
▁ศาลเจ้า	-12848
▁เร่งรีบ	-12849
▁กลมกล่อม	-12850
▁แป้งฝุ่น	-12851
▁ประกอบการ	-12852
▁เปิดกว้าง	-12853
▁ข้าวเปลือก	-12854
oe	-12855
ICE	-12856
KEY	-12857
▁LB	-12858
▁he	-12859
▁ht	-12860
reme	-12861
ิร์ช	-12862
▁440	-12863
▁ALL	-12864
▁Sou	-12865
▁ลัส	-12866
▁วัล	-12867
มนตร์	-12868
▁เซมิ	-12869
ปะหลัง	-12870
▁มาร์ท	-12871
▁ARMANI	-12872
▁ซากุระ	-12873
▁เต็นท์	-12874
▁เหลื่อม	-12875
▁คณะมนตรี	-12876
▁หมอนข้าง	-12877
▁ฮิตเลอร์	-12878
▁ข้อยกเว้น	-12879
▁การจับสลาก	-12880
SM	-12881
UST	-12882
ven	-12883
หาญ	-12884
▁RT	-12885
▁be	-12886
▁ชุ	-12887
lend	-12888
▁ยู่	-12889
▁สัต	-12890
▁ส่า	-12891
หล่อน	-12892
▁Long	-12893
▁จิ๊ก	-12894
▁ปรัส	-12895
▁หมอก	-12896
ตํารวจ	-12897
▁UNDER	-12898
▁ฮอลลีว	-12899
เช่นนั้น	-12900
▁ผีเสื้อ	-12901
▁สถานเอก	-12902
▁ของหล่อน	-12903
▁ปรัสเซีย	-12904
▁ฐานข้อมูล	-12905
▁เดสก์ท็อป	-12906
▁โทรคมนาคม	-12907
▁ความเหนียว	-12908
▁ต้นกําเนิด	-12909
กําเนิดไฟฟ้า	-12910
▁ปฏิสัมพันธ์	-12911
▁ดําเนินต่อไป	-12912
สว	-12913
OLU	-12914
ริช	-12915
เอย	-12916
▁MC	-12917
▁๎น	-12918
เกลา	-12919
▁อีฟ	-12920
▁โคน	-12921
▁โด้	-12922
▁ไต่	-12923
itter	-12924
▁1976	-12925
▁Acad	-12926
▁LAUD	-12927
ipling	-12928
เตรียม	-12929
▁พืชผล	-12930
▁ใบไม้	-12931
ความผิด	-12932
ระหว่าง	-12933
▁Disney	-12934
▁ตึงตัว	-12935
▁เลี่ยน	-12936
▁ใบแจ้ง	-12937
▁แคลเซียม	-12938
▁พิจารณาคดี	-12939
▁ศาสตราจารย์	-12940
ไถ	-12941
ITS	-12942
ซีด	-12943
ฟิน	-12944
มหา	-12945
แนล	-12946
▁DN	-12947
านิต	-12948
▁เฟซ	-12949
▁ไชน	-12950
▁Spec	-12951
▁เกย์	-12952
▁เคลม	-12953
▁แล่น	-12954
RAPHIC	-12955
▁GSTAR	-12956
▁มิลค์	-12957
▁อเล็ก	-12958
▁ไอริช	-12959
▁ถูกที่	-12960
▁สภานิต	-12961
▁นักอ่าน	-12962
▁กระทําการ	-12963
▁การสึกหรอ	-12964
▁ตอนเที่ยง	-12965
▁ตัวควบคุม	-12966
▁คําวิจารณ์	-12967
▁ใบแจ้งหนี้	-12968
▁ทําความเข้าใจ	-12969
▁สภานิติบัญญัติ	-12970
ลู	-12971
ERL	-12972
ets	-12973
▁Ic	-12974
▁วท	-12975
▁ไถ	-12976
บ้าง	-12977
สดุก	-12978
▁005	-12979
▁147	-12980
▁Emb	-12981
▁IPX	-12982
▁mac	-12983
▁พิษ	-12984
▁แสต	-12985
▁โบ้	-12986
velop	-12987
เยื่อ	-12988
▁Bang	-12989
▁กลอง	-12990
▁หมัด	-12991
ตุ๊กแก	-12992
▁เธียม	-12993
▁เรือบ	-12994
▁แนวรบ	-12995
▁ให้หา	-12996
▁Electr	-12997
▁LAUDER	-12998
▁บลอนด์	-12999
▁บุหรี่	-13000
▁บําบัด	-13001
▁วัสดุก	-13002
▁แยกตัว	-13003
▁ตีนตุ๊กแก	-13004
▁เพนซิลเวเนีย	-13005
▁วัสดุก่อสร้าง	-13006
ชะ	-13007
ธิน	-13008
ราก	-13009
โชค	-13010
ุยส์	-13011
▁ฟืน	-13012
▁ราด	-13013
▁ไร่	-13014
ตรงมา	-13015
▁ติ๊ก	-13016
▁เสือ	-13017
▁SAINT	-13018
▁นิกข์	-13019
▁โซนี่	-13020
สิ้นสุด	-13021
ไปตรงมา	-13022
▁Pencil	-13023
▁Sensor	-13024
▁ยกขึ้น	-13025
▁สามสิบ	-13026
▁LAURENT	-13027
▁ขายปลีก	-13028
▁ชนะเลิศ	-13029
▁ท้องถนน	-13030
▁นักร้อง	-13031
▁พาณิชย์	-13032
▁ฟลอริดา	-13033
▁โปรไฟล์	-13034
▁การเยือน	-13035
▁แซนด์วิช	-13036
▁ประชาชาติ	-13037
▁ศาสนาพุทธ	-13038
▁จุดสิ้นสุด	-13039
▁ส่วนสําคัญ	-13040
▁เก็บเกี่ยว	-13041
▁ข้าวกลางวัน	-13042
▁ความยุ่งยาก	-13043
▁สิ่งก่อสร้าง	-13044
๋ย	-13045
▁Ol	-13046
oral	-13047
ย่อง	-13048
▁Eff	-13049
▁ปอก	-13050
▁พลี	-13051
▁ลาส	-13052
▁แมง	-13053
▁3500	-13054
▁เมกะ	-13055
▁ขดลวด	-13056
▁คมนาคม	-13057
▁เฟิร์ม	-13058
▁Kipling	-13059
▁OPTICAL	-13060
▁ตลอดคืน	-13061
▁ทางผ่าน	-13062
ต่อเนื่อง	-13063
โครงสร้าง	-13064
▁ช่วงอายุ	-13065
▁เฉพาะกิจ	-13066
▁การประกอบ	-13067
▁ชําระหนี้	-13068
▁เยี่ยมยอด	-13069
▁งานแต่งงาน	-13070
▁มอยส์เจอร์	-13071
▁แชมเปียนส์	-13072
▁กระทําความผิด	-13073
▁การประกอบอาหาร	-13074
▁็	-13075
ume	-13076
ตู้	-13077
แบ่ง	-13078
▁SHU	-13079
▁งอน	-13080
▁วอล	-13081
ROLUX	-13082
▁CORE	-13083
▁Head	-13084
▁ลงเอย	-13085
▁BRIGHT	-13086
▁COMPOS	-13087
▁รอบด้าน	-13088
▁ความเข้ม	-13089
▁ข้อบังคับ	-13090
▁รถแท็กซี่	-13091
▁ตรงไปตรงมา	-13092
▁เข็มนาฬิกา	-13093
▁ชาวต่างชาติ	-13094
KA	-13095
ACC	-13096
ann	-13097
▁กย	-13098
มุ่ง	-13099
▁Box	-13100
▁RAT	-13101
▁UPF	-13102
▁สาระ	-13103
▁ทุจริต	-13104
มุ่งหมาย	-13105
▁SURROUND	-13106
▁สังสรรค์	-13107
▁เป็นธรรม	-13108
▁Stainless	-13109
▁พื้นเมือง	-13110
▁เพอร์เฟ็ค	-13111
▁COMPRESSOR	-13112
▁ELECTROLUX	-13113
▁รองชนะเลิศ	-13114
▁จุดมุ่งหมาย	-13115
▁ตามเงื่อนไข	-13116
▁OH	-13117
▁สค	-13118
รหัส	-13119
เง่า	-13120
▁435	-13121
▁BOS	-13122
▁จิง	-13123
▁1015	-13124
▁5060	-13125
▁CLUB	-13126
▁SDHC	-13127
▁Targ	-13128
▁ทบทวน	-13129
▁มงกุฎ	-13130
▁แทร็ค	-13131
▁มุสลิม	-13132
▁ลิ้มรส	-13133
▁ของมีคม	-13134
▁ครบวงจร	-13135
▁เป็นกลาง	-13136
▁ไอซ์แลนด์	-13137
▁อาหารเสริม	-13138
▁เนื้อเยื่อ	-13139
▁ขนส่งสินค้า	-13140
▁เข็มขัดนิรภัย	-13141
▁ห้องปฏิบัติการ	-13142
82	-13143
▁ษ	-13144
ban	-13145
รํา	-13146
▁WD	-13147
itor	-13148
ีมูล	-13149
▁177	-13150
▁กัม	-13151
▁ยัด	-13152
▁ย่น	-13153
ature	-13154
สายตา	-13155
▁Shea	-13156
▁ครอส	-13157
▁เชํน	-13158
เกลียด	-13159
แทนที่	-13160
▁Focus	-13161
▁คิวบา	-13162
▁รถตู้	-13163
ication	-13164
ีมูลค่า	-13165
▁ชนชั้น	-13166
▁ตัวแปร	-13167
น้ําอุ่น	-13168
▁ชาร์ลส์	-13169
▁ปริมณฑล	-13170
▁สักหลาด	-13171
▁SUBWOOFER	-13172
▁ยากลําบาก	-13173
▁รอยเปื้อน	-13174
▁สมมุติฐาน	-13175
▁ปฏิบัติงาน	-13176
▁ภาษีมูลค่า	-13177
▁ทวีปแอฟริกา	-13178
▁ภาษีมูลค่าเพิ่ม	-13179
HS	-13180
บะ	-13181
IAL	-13182
OOD	-13183
enz	-13184
obe	-13185
oxy	-13186
ซอล	-13187
▁Mi	-13188
ulse	-13189
▁POL	-13190
▁Roy	-13191
▁col	-13192
▁อณู	-13193
กร้าว	-13194
ลังก์	-13195
▁ถ้ํา	-13196
▁ผลดี	-13197
▁รงค์	-13198
▁สกาย	-13199
▁GUERL	-13200
▁ฉันนั้น	-13201
▁ผู้ดูแล	-13202
▁ช็อปปิ้ง	-13203
WE	-13204
อุ	-13205
็อน	-13206
▁ศร	-13207
เทีย	-13208
▁MDF	-13209
▁Tex	-13210
▁UEM	-13211
▁จู่	-13212
▁ปัง	-13213
OCCIT	-13214
กรุ่น	-13215
▁Band	-13216
▁ดารา	-13217
▁หลอม	-13218
▁โกหก	-13219
▁พังก์	-13220
ตรงข้าม	-13221
▁LOCCIT	-13222
▁ของที่	-13223
▁คันชัก	-13224
▁เขตแดน	-13225
▁Plastic	-13226
▁กินข้าว	-13227
▁COMPOSITE	-13228
▁ของที่ระลึก	-13229
▁ความไว้วางใจ	-13230
TA	-13231
ช๎า	-13232
ซัม	-13233
โตน	-13234
▁KX	-13235
▁ฮอ	-13236
Book	-13237
▁ELE	-13238
▁เป็	-13239
tions	-13240
รรทุก	-13241
▁จรวด	-13242
▁เบลอ	-13243
▁CASIO	-13244
▁URBAN	-13245
▁จากไป	-13246
▁น้ําท	-13247
▁ศรีษะ	-13248
▁สมการ	-13249
▁ชั้นบน	-13250
▁สวยหรู	-13251
▁โดยสาร	-13252
▁การตรวจ	-13253
▁บาร์บี้	-13254
▁ร้านขาย	-13255
▁GUERLAIN	-13256
▁ไปรษณีย์	-13257
▁ทําสงคราม	-13258
▁ประจําการ	-13259
▁ผู้เข้าชม	-13260
▁ถึงกระนั้น	-13261
▁ทวีปเอเชีย	-13262
▁เรือบรรทุก	-13263
▁แผ่นดินใหญ่	-13264
ภพ	-13265
เวช	-13266
▁JO	-13267
NING	-13268
ouse	-13269
sion	-13270
ฤกษ์	-13271
เริง	-13272
▁ASL	-13273
▁Hol	-13274
▁Mor	-13275
▁RED	-13276
▁Tea	-13277
▁Vit	-13278
▁วัฏ	-13279
▁Note	-13280
▁comp	-13281
าระดับ	-13282
▁ccTLD	-13283
▁สีซีด	-13284
▁ออกจะ	-13285
ังเกียจ	-13286
▁กระสุน	-13287
▁ชาวไทย	-13288
▁ทุกคืน	-13289
▁ปลอกคอ	-13290
▁พู่กัน	-13291
▁ภูเก็ต	-13292
▁เฟรนช์	-13293
▁ค้นคว้า	-13294
▁ข้าวสาลี	-13295
▁LOCCITANE	-13296
▁ตอบคําถาม	-13297
▁เสื้อคลุม	-13298
▁โต๊ะอาหาร	-13299
▁เข้าแข่งขัน	-13300
▁ไม่ต้องสงสัย	-13301
▁ตัวแทนจําหน่าย	-13302
tit	-13303
ขัง	-13304
เข้	-13305
▁GR	-13306
mond	-13307
ิงส์	-13308
โคลน	-13309
▁246	-13310
▁IPS	-13311
▁TUN	-13312
▁ขิง	-13313
▁ต้อ	-13314
▁ไพ่	-13315
▁1991	-13316
▁Orth	-13317
▁ทุ่ง	-13318
▁แม็ค	-13319
▁หลุยส์	-13320
▁อพาร์ท	-13321
▁เทิร์น	-13322
▁ร่วมงาน	-13323
▁เด็ดขาด	-13324
▁แบบฉบับ	-13325
▁โดนัลด์	-13326
▁ว่างเปล่า	-13327
ATO	-13328
ior	-13329
แคบ	-13330
▁212	-13331
▁นรา	-13332
▁สูบ	-13333
▁แยม	-13334
ทาวน์	-13335
▁YEAR	-13336
▁ตรึง	-13337
enthes	-13338
▁Blush	-13339
▁คงไว้	-13340
▁พิสัย	-13341
▁มอยซ์	-13342
▁เจนซ์	-13343
ผลักดัน	-13344
สันหลัง	-13345
▁ลูกเรือ	-13346
▁ํอสร๎าง	-13347
▁ดึงดูดใจ	-13348
▁นิวยอร์ค	-13349
▁ดาวน์ทาวน์	-13350
▁เครื่องดนตรี	-13351
BM	-13352
ซาก	-13353
เดล	-13354
▁EA	-13355
IZER	-13356
▁192	-13357
▁262	-13358
▁475	-13359
▁Acc	-13360
▁And	-13361
▁อบอ	-13362
▁แผล	-13363
▁ไบร	-13364
yster	-13365
ลาเดล	-13366
▁ผนวก	-13367
▁ยามา	-13368
▁ใจดี	-13369
▁Extra	-13370
▁ขอบตา	-13371
▁มีนัด	-13372
▁มีเพศ	-13373
ฉุกเฉิน	-13374
ดําเนิน	-13375
▁UEMURA	-13376
▁ความหน	-13377
▁พระบรม	-13378
▁ฟิลาเดล	-13379
▁มองข้าม	-13380
▁มิตรภาพ	-13381
▁อ่อนตัว	-13382
▁ขณะเดียวกัน	-13383
▁จัดตั้งขึ้น	-13384
▁ฝ่ายตรงข้าม	-13385
▁ฟิลาเดลเฟีย	-13386
▁มีเพศสัมพันธ์	-13387
oci	-13388
uck	-13389
ว่ง	-13390
เซฟ	-13391
ไคล	-13392
▁FS	-13393
ATED	-13394
คิอา	-13395
ลีย์	-13396
เด้น	-13397
ไทน์	-13398
▁Dec	-13399
▁Den	-13400
▁MAX	-13401
▁Nep	-13402
▁ซูด	-13403
▁บุบ	-13404
▁เลต	-13405
▁แตํ	-13406
สามิต	-13407
เชียล	-13408
▁ASTM	-13409
▁เกรง	-13410
คิอาโต	-13411
▁ทเต็ด	-13412
▁ฝ่ายส	-13413
▁FEATUR	-13414
▁จับจอง	-13415
▁ฟังได้	-13416
▁ลิควิด	-13417
▁อินพุต	-13418
▁ไร้ค่า	-13419
▁Academy	-13420
▁Logitech	-13421
▁WARRANTY	-13422
▁ชาตินิยม	-13423
▁น้ําท่วม	-13424
▁มัคคิอาโต	-13425
▁ทวีปอเมริกา	-13426
▁ผลประกอบการ	-13427
▁ได้รับบาดเจ็บ	-13428
▁ฝ่ายสัมพันธมิตร	-13429
era	-13430
iew	-13431
▁ขร	-13432
edia	-13433
▁Buy	-13434
▁Fax	-13435
▁UHD	-13436
▁คัท	-13437
▁รีต	-13438
▁เนล	-13439
▁เบบ	-13440
ระเข้	-13441
▁ขวัญ	-13442
▁อ้วน	-13443
▁ใบชา	-13444
▁พยนต์	-13445
▁อาร์ต	-13446
ลัดวงจร	-13447
ลินอยส์	-13448
▁ทางจิต	-13449
▁ปวดหัว	-13450
▁เอาเลย	-13451
▁นิวตรอน	-13452
▁รับช่วง	-13453
▁สั่งงาน	-13454
▁ความเคารพ	-13455
▁สมาชิกสภา	-13456
▁ครีมกันแดด	-13457
▁อิลลินอยส์	-13458
▁เชื่อถือได้	-13459
▁ไฟฟ้าลัดวงจร	-13460
ye	-13461
res	-13462
uma	-13463
HIUM	-13464
coal	-13465
ines	-13466
พอดี	-13467
▁FRE	-13468
▁MES	-13469
▁วลี	-13470
▁วัส	-13471
▁อ้ย	-13472
▁ฮัม	-13473
เวกัส	-13474
▁4000	-13475
▁BILL	-13476
▁กรีด	-13477
▁ทว่า	-13478
▁หนา้	-13479
เดี่ยว	-13480
▁ซูดาน	-13481
▁องุ่น	-13482
กระตุ้น	-13483
▁การทํา	-13484
▁ทะเลใน	-13485
▁ฉับพลัน	-13486
▁วัฏจักร	-13487
สําปะหลัง	-13488
▁ทุกเมื่อ	-13489
▁ย่อยสลาย	-13490
▁ให้ความรู้	-13491
▁เศรษฐศาสตร์	-13492
CI	-13493
๊ย	-13494
ful	-13495
ดิจ	-13496
อกด	-13497
เผา	-13498
โมน	-13499
apan	-13500
ener	-13501
oney	-13502
คอล์	-13503
หลิว	-13504
เชิญ	-13505
▁htt	-13506
▁แคม	-13507
ABONG	-13508
▁Cour	-13509
▁Will	-13510
▁ดราก	-13511
ศักราช	-13512
▁แบนด์	-13513
▁Action	-13514
▁ตะหลิว	-13515
▁ละครใน	-13516
▁เอาแต่	-13517
▁จัดซื้อ	-13518
▁ดินสอกด	-13519
▁ผิวพรรณ	-13520
▁ให้เงิน	-13521
▁BILLABONG	-13522
▁การตอบโต้	-13523
▁เป็นต้นไป	-13524
▁หัวเข็มขัด	-13525
▁เรือนกระจก	-13526
OTE	-13527
OMAS	-13528
sten	-13529
▁131	-13530
▁620	-13531
▁ECO	-13532
▁car	-13533
▁ค๎า	-13534
group	-13535
เรนซ์	-13536
▁1940	-13537
▁1997	-13538
▁Pear	-13539
▁READ	-13540
▁over	-13541
▁สโตน	-13542
▁WATCH	-13543
▁คอร์ส	-13544
▁นีออน	-13545
▁มนุษย	-13546
▁ลองใน	-13547
▁สุกี้	-13548
▁Medium	-13549
▁THOMAS	-13550
▁กาตาร์	-13551
▁ตรวจดู	-13552
▁กระพริบ	-13553
▁เป็นเลิศ	-13554
▁พันธุกรรม	-13555
si	-13556
เลต	-13557
▁157	-13558
▁830	-13559
▁Art	-13560
▁พัม	-13561
▁Deep	-13562
▁Ever	-13563
▁ด่าน	-13564
▁รื้อ	-13565
▁โน้ม	-13566
▁STAND	-13567
▁Table	-13568
▁ทีนี้	-13569
ั่งคั่ง	-13570
▁Iconic	-13571
▁ตากแดด	-13572
▁ต่อให้	-13573
▁อนุกรม	-13574
▁LITHIUM	-13575
▁Walmart	-13576
▁ปัสสาวะ	-13577
▁ภาพนิ่ง	-13578
▁วันก่อน	-13579
▁Moisture	-13580
▁ตื่นขึ้น	-13581
▁กําหนดการ	-13582
▁ว่าไม่ได้	-13583
นก	-13584
น้	-13585
VEL	-13586
ism	-13587
oor	-13588
นิด	-13589
▁FA	-13590
▁en	-13591
enew	-13592
prop	-13593
ตารอ	-13594
ระยะ	-13595
ราเร	-13596
▁445	-13597
▁นโป	-13598
▁มลู	-13599
▁มอล	-13600
ility	-13601
โดวส์	-13602
▁LOCK	-13603
▁SELF	-13604
▁Tung	-13605
▁กํอน	-13606
▁ท่อน	-13607
▁มิ้น	-13608
▁เจือ	-13609
▁CANON	-13610
▁พิการ	-13611
▁สักนิด	-13612
▁Blossom	-13613
▁ฮอร์โมน	-13614
▁เอนไซม์	-13615
▁ได้เงิน	-13616
▁ความหนืด	-13617
▁ตั้งตารอ	-13618
▁นโปเลียน	-13619
▁วินโดวส์	-13620
▁ช่วยชีวิต	-13621
▁การพิสูจน์	-13622
▁รักษาระดับ	-13623
▁ความน่าสนใจ	-13624
▁สไปเดอร์แมน	-13625
▁เครื่องแต่ง	-13626
▁แอพพลิเคชั่น	-13627
ยั	-13628
OWN	-13629
iba	-13630
อีน	-13631
▁GM	-13632
▁sc	-13633
▁ซน	-13634
▁153	-13635
▁172	-13636
▁183	-13637
▁455	-13638
▁res	-13639
▁ค็อก	-13640
▁Sharp	-13641
▁สมวัย	-13642
▁หน้าผ	-13643
▁เลมอน	-13644
ดิจิตอล	-13645
▁กันแสง	-13646
▁คนรุ่น	-13647
▁หัวต่อ	-13648
▁ร่องรอย	-13649
▁โอเวอร์	-13650
▁ทะเลทราย	-13651
▁ปนเปื้อน	-13652
▁รังเกียจ	-13653
▁อ่อนหวาน	-13654
▁เที่ยงตรง	-13655
▁น่ารังเกียจ	-13656
▁ระบบดิจิตอล	-13657
พฤ	-13658
ขณะ	-13659
เมด	-13660
▁MI	-13661
▁ทว	-13662
ider	-13663
raph	-13664
ดาร์	-13665
ราโด	-13666
▁169	-13667
▁ESP	-13668
▁กรอ	-13669
▁มิค	-13670
▁เปน	-13671
ประปา	-13672
ียภาพ	-13673
▁ตรัส	-13674
▁ท่วม	-13675
▁โคโล	-13676
trolux	-13677
จะเป็น	-13678
ยินยอม	-13679
ิดนีย์	-13680
▁ถัดมา	-13681
▁อิมัล	-13682
ีกเกอร์	-13683
▁Oyster	-13684
▁น่ารับ	-13685
▁ฟุตซอล	-13686
▁ฟ้าผ่า	-13687
▁อาร์ดี	-13688
▁รูปหน้า	-13689
▁โต้แย้ง	-13690
▁Facebook	-13691
▁Tungsten	-13692
▁ฟิกเกอร์	-13693
▁เอฟเฟกต์	-13694
▁โคโลราโด	-13695
▁การแทนที่	-13696
▁ออกกําลัง	-13697
▁เชียงใหม่	-13698
▁ระหว่างทาง	-13699
▁สรีรศาสตร์	-13700
▁น่ารับประทาน	-13701
▁ความน่าจะเป็น	-13702
▁เครื่องแต่งกาย	-13703
Fl	-13704
als	-13705
ก่อ	-13706
พยพ	-13707
ฮิต	-13708
▁AF	-13709
▁Ve	-13710
▁โข	-13711
ASIC	-13712
INCE	-13713
ging	-13714
หนุน	-13715
เต็น	-13716
▁154	-13717
▁224	-13718
▁Sum	-13719
▁เปา	-13720
earch	-13721
ranty	-13722
อาศัย	-13723
▁Glow	-13724
▁คลํา	-13725
▁ไทม์	-13726
นิษฐาน	-13727
สานงาน	-13728
▁ดูถูก	-13729
▁นาวิก	-13730
▁เบนซ์	-13731
วิชาการ	-13732
▁ที่ทาง	-13733
▁ยอดฮิต	-13734
▁ข้อสรุป	-13735
▁คาเฟอีน	-13736
▁ปิดท้าย	-13737
▁ห่อหุ้ม	-13738
สรรพสามิต	-13739
▁สเตเดียม	-13740
▁เสียงหัวเราะ	-13741
▁พัดลมตั้งโต๊ะ	-13742
BT	-13743
ONI	-13744
ler	-13745
คมะ	-13746
ึ่ม	-13747
เจอ	-13748
▁DT	-13749
▁มด	-13750
▁รง	-13751
ุขระ	-13752
▁010	-13753
▁222	-13754
▁920	-13755
▁LOL	-13756
▁ind	-13757
▁out	-13758
▁นวย	-13759
▁นิน	-13760
▁วัง	-13761
▁เกษ	-13762
Black	-13763
▁1995	-13764
▁2030	-13765
▁Food	-13766
ทรงตัว	-13767
ทันหัน	-13768
▁Style	-13769
▁vouch	-13770
▁นักรบ	-13771
▁โรคมะ	-13772
แลกเงิน	-13773
▁ขรุขระ	-13774
▁INBLOOM	-13775
▁ริเวอร์	-13776
▁โซลูชัน	-13777
▁หอมกรุ่น	-13778
▁การทรงตัว	-13779
▁สนีกเกอร์	-13780
▁โรคมะเร็ง	-13781
▁Electrolux	-13782
▁ตั๋วแลกเงิน	-13783
▁ทางไปรษณีย์	-13784
▁สอดคล้องกัน	-13785
▁ปัจจัยพื้นฐาน	-13786
▁สํานักงานใหญ่	-13787
84	-13788
XC	-13789
po	-13790
BLE	-13791
รัต	-13792
ูรี	-13793
เลา	-13794
▁DP	-13795
▁ร่	-13796
bide	-13797
โรปา	-13798
▁465	-13799
▁Bag	-13800
▁Ele	-13801
▁FDA	-13802
▁VER	-13803
▁แนส	-13804
ponse	-13805
ซิเบล	-13806
สมาธิ	-13807
โยธิน	-13808
▁Baby	-13809
▁PROT	-13810
▁Stor	-13811
▁CONTR	-13812
▁Force	-13813
OLUTION	-13814
▁ยูโรปา	-13815
▁เร้าใจ	-13816
▁เสมอไป	-13817
▁เดซิเบล	-13818
▁แสดงออก	-13819
▁NOTEBOOK	-13820
▁ปรนนิบัติ	-13821
▁พุทธศาสนา	-13822
86	-13823
KG	-13824
KK	-13825
▁๎ว	-13826
ican	-13827
เปน็	-13828
▁RAD	-13829
▁อ้า	-13830
▁เลท	-13831
▁โชก	-13832
UENCY	-13833
ปอนด์	-13834
เปร่า	-13835
▁Acer	-13836
▁นิคม	-13837
ington	-13838
กล่าวหา	-13839
▁ผู้ก่อ	-13840
▁เปียโน	-13841
▁ผลกําไร	-13842
▁แตกสลาย	-13843
เรียกร้อง	-13844
▁พวงมาลัย	-13845
▁ขาดไม่ได้	-13846
▁ผู้ส่งออก	-13847
▁พระอาทิตย์	-13848
▁กระดาษปอนด์	-13849
ระหว่างประเทศ	-13850
AF	-13851
พ้น	-13852
สง่	-13853
โซล	-13854
โยก	-13855
▁ar	-13856
▁it	-13857
▁sa	-13858
▁งง	-13859
▁ํน	-13860
▁Cos	-13861
▁VGA	-13862
▁งวง	-13863
▁ยอง	-13864
▁ลือ	-13865
amond	-13866
▁Sign	-13867
▁Stay	-13868
▁น็อต	-13869
▁แบร์	-13870
เกตบอล	-13871
▁Japan	-13872
▁เบบี้	-13873
▁การต้ม	-13874
▁คิดออก	-13875
▁Display	-13876
▁ข้างมาก	-13877
▁คนขับรถ	-13878
▁รถไฟฟ้า	-13879
▁โกลเด้น	-13880
▁Moisturi	-13881
▁พอใช้ได้	-13882
▁ลาสเวกัส	-13883
▁การค้าขาย	-13884
▁บาสเกตบอล	-13885
▁เคมีภัณฑ์	-13886
▁คนรุ่นใหม่	-13887
▁แว่นกันแดด	-13888
▁ประยุกต์ใช้	-13889
ef	-13890
ศก	-13891
▁ฐ	-13892
555	-13893
OOP	-13894
URV	-13895
ัตถ	-13896
ISON	-13897
YEAR	-13898
enov	-13899
hers	-13900
ishi	-13901
onal	-13902
โอ๊ต	-13903
▁EAR	-13904
▁ขุน	-13905
▁ซาว	-13906
▁เบร	-13907
▁แชท	-13908
เกล็ด	-13909
▁JOUR	-13910
▁LADA	-13911
▁ข้าร	-13912
▁ค้อน	-13913
▁ผึ้ง	-13914
▁แจ็ก	-13915
▁บิดเบ	-13916
▁อยา่ง	-13917
▁เมโทร	-13918
▁ทีมงาน	-13919
▁บานพับ	-13920
▁พยาบาล	-13921
▁เป็นมา	-13922
▁เวิร์ค	-13923
▁แอนตี้	-13924
▁โมเด็ม	-13925
▁JOURNAL	-13926
▁Toshiba	-13927
▁แต่กลับ	-13928
สเตอร์ดัม	-13929
▁การดํารง	-13930
▁ข้าวโอ๊ต	-13931
▁สบู่เหลว	-13932
▁สัญญาณไฟ	-13933
▁Nepenthes	-13934
▁มอนิเตอร์	-13935
▁สารประกอบ	-13936
▁เป็นผู้ใหญ่	-13937
▁Professional	-13938
▁อัมสเตอร์ดัม	-13939
▁ความเปลี่ยนแปลง	-13940
89	-13941
ฮ์	-13942
แผ	-13943
amo	-13944
lor	-13945
ลอบ	-13946
สุล	-13947
แจง	-13948
AMIC	-13949
อาญา	-13950
▁176	-13951
▁216	-13952
▁CPU	-13953
▁Dav	-13954
▁พิช	-13955
ฟราเร	-13956
ราฟท์	-13957
เฮาส์	-13958
▁COPD	-13959
▁Conn	-13960
▁Rich	-13961
▁Wood	-13962
▁ด๎าน	-13963
▁เรขา	-13964
ฟราเรด	-13965
เมื่อย	-13966
▁Glass	-13967
▁RATIO	-13968
▁Spray	-13969
▁ถดถอย	-13970
olution	-13971
▁ขอความ	-13972
▁แท็กซี่	-13973
▁Concentr	-13974
▁ซิลเวอร์	-13975
▁ฝั่งทะเล	-13976
▁มาร์เก็ต	-13977
▁มีสิทธิ์	-13978
▁เรขาคณิต	-13979
▁แหล่งที่	-13980
▁ในนามของ	-13981
▁นักธุรกิจ	-13982
▁บีเอ็มดับ	-13983
▁ทิศตะวันตก	-13984
▁ภาคพื้นดิน	-13985
▁การวินิจฉัย	-13986
สุ	-13987
oil	-13988
บ่ง	-13989
▁GI	-13990
▁Sa	-13991
GLER	-13992
ขั้น	-13993
▁BIT	-13994
▁Fab	-13995
▁Kit	-13996
▁PAR	-13997
▁กรง	-13998
▁ชิด	-13999
▁วา่	-14000
Speed	-14001
อร่อย	-14002
▁Lamb	-14003
▁WRAN	-14004
▁คลอด	-14005
▁เบย์	-14006
▁DECAY	-14007
▁Group	-14008
▁จุดไฟ	-14009
▁ใจถึง	-14010
▁Safety	-14011
▁นําทาง	-14012
▁ลูกปัด	-14013
ความเร็ว	-14014
▁Carbide	-14015
▁KEYBOARD	-14016
▁WRANGLER	-14017
▁เวทมนตร์	-14018
▁ซอฟท์แวร์	-14019
▁เท่าเทียม	-14020
▁ผู้ต้องสงสัย	-14021
▁เร่งความเร็ว	-14022
▁ความต่อเนื่อง	-14023
▁ภาษีสรรพสามิต	-14024
▁เพื่อนร่วมงาน	-14025
br	-14026
ava	-14027
ียณ	-14028
ี๊ย	-14029
เตะ	-14030
▁Cy	-14031
▁SB	-14032
▁ขึ	-14033
omin	-14034
▁วดี	-14035
▁เมฆ	-14036
usion	-14037
ตากัน	-14038
▁ปุ๋ย	-14039
▁ฟุ้ง	-14040
▁สตรอ	-14041
นาม่อน	-14042
▁MULTI	-14043
▁กิจจะ	-14044
▁โรม่า	-14045
▁การตาย	-14046
ตากันแดด	-14047
▁ช่องปาก	-14048
▁ปรารถนา	-14049
▁Charcoal	-14050
▁Standard	-14051
▁ภาพเขียน	-14052
▁วินิจฉัย	-14053
▁สมาพันธ์	-14054
▁เรียงราย	-14055
▁ได้กลิ่น	-14056
▁ซินนาม่อน	-14057
▁แว่นตากันแดด	-14058
▁ของใช้ส่วนตัว	-14059
rus	-14060
▁LI	-14061
▁TF	-14062
▁ม้	-14063
alth	-14064
ette	-14065
vice	-14066
▁ATM	-14067
▁RNA	-14068
▁ทัก	-14069
▁ราน	-14070
▁แกง	-14071
▁1994	-14072
▁Engl	-14073
▁ทาสี	-14074
▁ธาตุ	-14075
เสมือน	-14076
▁CLEAN	-14077
▁First	-14078
▁กวนใจ	-14079
▁ข้างๆ	-14080
▁แมทท์	-14081
▁นักเตะ	-14082
▁เรียบๆ	-14083
▁ไฟหน้า	-14084
cargroup	-14085
▁ล้ําค่า	-14086
▁หินอ่อน	-14087
เครื่องบิน	-14088
▁นาวิกโยธิน	-14089
▁สุภาพบุรุษ	-14090
▁โต๊ะประชุม	-14091
fr	-14092
มั	-14093
LEY	-14094
ลาล	-14095
เกะ	-14096
▁LO	-14097
▁Ms	-14098
▁Oh	-14099
▁นพ	-14100
▁ยม	-14101
▁257	-14102
▁Pat	-14103
▁ROM	-14104
▁Sal	-14105
▁Tee	-14106
▁คับ	-14107
▁ชรา	-14108
immer	-14109
วี่ยง	-14110
หน่วง	-14111
▁2540	-14112
▁Balm	-14113
▁Fitt	-14114
▁ปทอป	-14115
▁เพิก	-14116
▁เฟรช	-14117
attery	-14118
timate	-14119
บ่งชี้	-14120
สํารอง	-14121
▁Intel	-14122
▁Match	-14123
▁มอสโก	-14124
▁วอร์ม	-14125
▁คอนโซล	-14126
▁ปรุงรส	-14127
▁ฝากเงิน	-14128
▁พี่น้อง	-14129
▁ไดนามิก	-14130
▁เสนอชื่อ	-14131
▁ข้าราชการ	-14132
▁เครื่องชี้	-14133
83	-14134
ัฟ	-14135
met	-14136
ตวง	-14137
▁ลก	-14138
acle	-14139
tain	-14140
ร่อง	-14141
ล็อก	-14142
เครา	-14143
▁159	-14144
▁Lab	-14145
▁ชาต	-14146
▁พิท	-14147
เยอร์	-14148
▁ต่อม	-14149
▁พยุง	-14150
▁เพลส	-14151
▁โค้ก	-14152
▁HOUSE	-14153
▁ค่ารถ	-14154
▁ประกบ	-14155
▁ฟีฟ่า	-14156
▁เบีย้	-14157
▁Center	-14158
▁คอนดัก	-14159
▁มะม่วง	-14160
▁Palette	-14161
▁กลูเต็น	-14162
▁เสียดาย	-14163
▁มอยส์เจอ	-14164
▁หนวดเครา	-14165
▁อารยธรรม	-14166
▁เหรียญทอง	-14167
▁แบ่งกลุ่ม	-14168
▁โปรเจ็กต์	-14169
▁ภูมิประเทศ	-14170
▁แหล่งที่มา	-14171
▁คอนดักเตอร์	-14172
▁มอยส์เจอไรเซอร์	-14173
▁เทคโนโลยีชีวภาพ	-14174
81	-14175
yd	-14176
HIN	-14177
VID	-14178
กรด	-14179
ชัง	-14180
ปูน	-14181
วัว	-14182
หวะ	-14183
▁br	-14184
▁นบ	-14185
orth	-14186
คลับ	-14187
ไคล้	-14188
▁217	-14189
▁Cas	-14190
▁Dot	-14191
▁Fro	-14192
▁HIL	-14193
▁TOS	-14194
ector	-14195
โอเกะ	-14196
▁1948	-14197
▁1964	-14198
▁ยอร์	-14199
▁รุ้ง	-14200
ระหนัก	-14201
▁GREEN	-14202
▁James	-14203
▁การปล	-14204
▁พนัลา	-14205
▁มีโชค	-14206
▁ระทึก	-14207
ร่องรอย	-14208
▁Carbon	-14209
▁DIRECT	-14210
▁ความสง	-14211
▁ถัดจาก	-14212
▁สมบัติ	-14213
▁ใจกลาง	-14214
▁COOLING	-14215
▁ขัดแย้ง	-14216
▁ชายหนุ่ม	-14217
▁คลั่งไคล้	-14218
▁คาราโอเกะ	-14219
▁อีกไม่นาน	-14220
▁ทิ้งร่องรอย	-14221
▁มันสําปะหลัง	-14222
▁ขนาดใหญ่พิเศษ	-14223
▁สภาผู้แทนราษฎร	-14224
TB	-14225
ror	-14226
ีกา	-14227
โดย	-14228
▁CX	-14229
▁DR	-14230
▁Vi	-14231
ture	-14232
เอิบ	-14233
▁191	-14234
▁630	-14235
▁CAP	-14236
▁UVA	-14237
▁สาน	-14238
▁1968	-14239
▁Club	-14240
▁LURV	-14241
▁ผึ่ง	-14242
▁ศาลา	-14243
▁Dolby	-14244
▁ทันใด	-14245
▁หันไป	-14246
▁ซิดนีย์	-14247
▁มาร์ติน	-14248
▁อุดมคติ	-14249
▁เป็นพิษ	-14250
▁Metallic	-14251
▁นิดเดียว	-14252
▁กันและกัน	-14253
▁ตารางเมตร	-14254
▁พระราชินี	-14255
▁อารมณ์เสีย	-14256
▁เพิม่ขึน้รอ้ย	-14257
▁โดยไม่จําเป็น	-14258
▁อุทยานแห่งชาติ	-14259
า่	-14260
▁z	-14261
END	-14262
TIN	-14263
ลิป	-14264
เซม	-14265
เอม	-14266
▁CB	-14267
▁Hu	-14268
▁ธิ	-14269
IGER	-14270
พจน์	-14271
แผ่น	-14272
▁จ่า	-14273
▁ลว์	-14274
ining	-14275
ubble	-14276
▁Mega	-14277
▁SIZE	-14278
ตเตอร์	-14279
ยากรณ์	-14280
▁Elite	-14281
▁Rober	-14282
▁ทําดี	-14283
▁ผลการ	-14284
▁กูเกิล	-14285
▁คาสิโอ	-14286
▁นางฟ้า	-14287
▁รายวัน	-14288
▁วางขาย	-14289
▁ORIGINS	-14290
▁ทานข้าว	-14291
▁ที่ซ่อน	-14292
▁วางซ้อน	-14293
▁อัปโหลด	-14294
velopment	-14295
▁Warranty	-14296
▁หยุดยั้ง	-14297
▁ระดับชาติ	-14298
▁สังเกตการณ์	-14299
▁อย่างไรบ้าง	-14300
▁เครื่องปรุงรส	-14301
GR	-14302
UC	-14303
เษ	-14304
CDM	-14305
ady	-14306
ฝืด	-14307
▁Iv	-14308
▁VR	-14309
่าห์	-14310
▁204	-14311
▁266	-14312
▁530	-14313
▁KHZ	-14314
▁WTI	-14315
▁กสิ	-14316
▁ตัง	-14317
▁พลิ	-14318
▁โหล	-14319
มะกอก	-14320
อวกาศ	-14321
ุสลิม	-14322
ํารับ	-14323
▁สม่า	-14324
▁เล็ค	-14325
ACCATO	-14326
เทนนิส	-14327
▁GISON	-14328
▁555555	-14329
▁Tablet	-14330
ครอบครอง	-14331
▁CENTRAL	-14332
▁Network	-14333
▁STACCATO	-14334
▁ล่องเรือ	-14335
▁สัตว์ป่า	-14336
▁เซนเตอร์	-14337
▁น้ําประปา	-14338
▁น้ํามันมะกอก	-14339
pt	-14340
bel	-14341
inc	-14342
▁BS	-14343
lect	-14344
ไฮโอ	-14345
▁213	-14346
▁236	-14347
▁BUR	-14348
▁INT	-14349
▁จัก	-14350
▁นนี	-14351
▁ROSE	-14352
▁ชาวม	-14353
▁ปั้น	-14354
▁เลย์	-14355
▁CLASS	-14356
▁คอนโด	-14357
▁ซาวด์	-14358
▁บุฟเฟ	-14359
▁Facial	-14360
▁Flower	-14361
▁การสืบ	-14362
▁ด้วยดี	-14363
▁เข้าหา	-14364
▁โอไฮโอ	-14365
▁ตีเกล็ด	-14366
▁วาฟเฟิล	-14367
▁อย่างใจ	-14368
▁อิสรภาพ	-14369
▁เป็นแนว	-14370
▁เวียนนา	-14371
▁Cleanser	-14372
▁ชุ่มฉ่ํา	-14373
▁อุ้มน้ํา	-14374
▁ชาวมุสลิม	-14375
▁ประสานงาน	-14376
▁ไม่เช่นนั้น	-14377
▁เครื่องเล่นซีดี	-14378
87	-14379
LEX	-14380
ห่อ	-14381
เษก	-14382
▁HL	-14383
ARTS	-14384
รา้ง	-14385
โปรด	-14386
▁075	-14387
▁DIY	-14388
▁IOS	-14389
▁SUL	-14390
▁com	-14391
▁usb	-14392
▁ขาก	-14393
▁ส่าย	-14394
▁โท้ท	-14395
ออกแบบ	-14396
▁Magic	-14397
▁Sleep	-14398
▁หอพัก	-14399
ถือหุ้น	-14400
▁SABINA	-14401
▁adidas	-14402
▁การค้น	-14403
▁ความเส	-14404
▁ถึงกับ	-14405
▁พวกคุณ	-14406
▁พัมคิน	-14407
▁อุ่นใจ	-14408
▁ใบเสนอ	-14409
▁ถกเถียง	-14410
▁นักออกแบบ	-14411
▁สหพันธรัฐ	-14412
▁เอกสิทธิ์	-14413
▁คะแนนเสียง	-14414
▁ผู้ถือหุ้น	-14415
▁ใบเสนอราคา	-14416
▁เกลี้ยงเกลา	-14417
▁ซัพพลายเออร์	-14418
HE	-14419
999	-14420
ERO	-14421
bit	-14422
วํา	-14423
ิชา	-14424
▁AJ	-14425
▁AW	-14426
▁HB	-14427
▁ศิ	-14428
▁๎ง	-14429
ครีม	-14430
ราชา	-14431
ิลส์	-14432
▁575	-14433
▁Pet	-14434
▁ชอป	-14435
▁เชอ	-14436
prise	-14437
ระบาด	-14438
▁1945	-14439
▁Form	-14440
▁ดอร์	-14441
▁ทนไฟ	-14442
▁เบรด	-14443
▁ไอที	-14444
รถยนต์	-14445
สวรรค์	-14446
▁กลั่น	-14447
▁เกิ้ล	-14448
▁เคียว	-14449
▁ร้องขอ	-14450
▁ชั่วขณะ	-14451
▁ฝึกซ้อม	-14452
▁เทอร์โบ	-14453
▁ไอศครีม	-14454
▁ผู้สร้าง	-14455
▁เดนเวอร์	-14456
▁การพาณิชย์	-14457
▁ทํางานหนัก	-14458
▁ทิศตะวันออก	-14459
ณั	-14460
ปิ	-14461
ral	-14462
ณัฑ	-14463
ปริ	-14464
ล่ะ	-14465
ั่ม	-14466
▁โธ	-14467
ASOO	-14468
ONOM	-14469
omic	-14470
tics	-14471
ซอว์	-14472
▁149	-14473
▁bit	-14474
▁ชาล	-14475
▁ทาย	-14476
▁พาด	-14477
▁ล่อ	-14478
▁สูด	-14479
คอล์น	-14480
บบิ้น	-14481
▁PRIN	-14482
▁ดีละ	-14483
▁ล๊อค	-14484
WHASOO	-14485
ension	-14486
ประเภท	-14487
สินไหม	-14488
ี่เง่า	-14489
เกลียว	-14490
▁ขีึน้	-14491
▁ตัดกัน	-14492
▁ทศนิยม	-14493
▁ผู้ว่า	-14494
▁ไหนล่ะ	-14495
▁Compact	-14496
▁กาแฟร้อน	-14497
▁การบรรยาย	-14498
▁ค่าสินไหม	-14499
ถู	-14500
พ์	-14501
FOR	-14502
GLE	-14503
bur	-14504
fit	-14505
isk	-14506
opp	-14507
ille	-14508
ones	-14509
unch	-14510
จําย	-14511
ติมี	-14512
ัทธา	-14513
▁REC	-14514
▁Sea	-14515
▁cup	-14516
▁ตุล	-14517
▁สต์	-14518
ellow	-14519
etter	-14520
มัธยม	-14521
▁BRIT	-14522
▁GOLD	-14523
▁Seam	-14524
▁Siri	-14525
▁หลวง	-14526
▁แท็ก	-14527
ilette	-14528
ําร้อง	-14529
▁Court	-14530
▁Renew	-14531
▁ภาพสี	-14532
ถิ่นฐาน	-14533
▁ปราการ	-14534
ติมีเดีย	-14535
▁การสั่น	-14536
▁น่าตื่น	-14537
▁เด็กสาว	-14538
▁แช่น้ํา	-14539
▁ยุทธวิธี	-14540
▁หนักแน่น	-14541
▁เด็กน้อย	-14542
▁SULWHASOO	-14543
▁หลอดเลือด	-14544
▁Sportswear	-14545
▁มัลติมีเดีย	-14546
▁ภาพสีน้ํามัน	-14547
▁ในทางปฏิบัติ	-14548
▁น่าตื่นตาตื่นใจ	-14549
ILI	-14550
ipp	-14551
พูน	-14552
▁คค	-14553
▁FHD	-14554
▁Imp	-14555
▁กาน	-14556
▁ดาน	-14557
▁อแด	-14558
อเรีย	-14559
▁2535	-14560
▁ถ้อย	-14561
▁แพ็ก	-14562
OTHERM	-14563
reenom	-14564
ิบุคคล	-14565
▁การณ์	-14566
▁การัน	-14567
▁เจตนา	-14568
▁รากฐาน	-14569
▁ข้างใต้	-14570
▁นิกเกิล	-14571
▁ฮับเบิล	-14572
▁เช่นเคย	-14573
▁ได้เวลา	-14574
▁จิ๊กซอว์	-14575
เชื้อเพลิง	-14576
▁นิติบุคคล	-14577
▁เสียงร้อง	-14578
▁ลดน้ําหนัก	-14579
▁อ้างสิทธิ์	-14580
▁เข้าเครื่อง	-14581
UA	-14582
KIN	-14583
igo	-14584
ird	-14585
ora	-14586
rix	-14587
ทอน	-14588
พรม	-14589
▁NB	-14590
▁RS	-14591
▁รฟ	-14592
ลดลง	-14593
ละไม	-14594
เฟือ	-14595
▁164	-14596
▁223	-14597
▁Ger	-14598
riend	-14599
รอยด์	-14600
▁OPER	-14601
▁Trip	-14602
▁ipod	-14603
▁ซึ้ง	-14604
▁ม็อป	-14605
▁เก็ง	-14606
▁เจีย	-14607
urance	-14608
านุภาพ	-14609
เฮ้าส์	-14610
▁Linux	-14611
▁ฟังค์	-14612
▁kindle	-14613
▁ซ้อมรบ	-14614
▁ทําตัว	-14615
▁น้ําชา	-14616
▁ปิดกั้น	-14617
▁ไม้กวาด	-14618
▁BIOTHERM	-14619
▁ขออนุญาต	-14620
▁ทดลองใช้	-14621
▁ฮอลลีวูด	-14622
▁เดินหน้า	-14623
▁เป็นปกติ	-14624
▁เป็นอยู่	-14625
▁แบตเตอรี	-14626
▁การกํากับ	-14627
▁คณะทํางาน	-14628
▁เจอร์ซีย์	-14629
▁เปียกชื้น	-14630
▁Enterprise	-14631
▁ผู้ก่อตั้ง	-14632
▁ค่าสินไหมทดแทน	-14633
▁ความเป็นผู้หญิง	-14634
ผู	-14635
JET	-14636
eck	-14637
คาท	-14638
ริย	-14639
ุลก	-14640
▁Im	-14641
▁mp	-14642
ชั่ว	-14643
ร้าว	-14644
สลัก	-14645
เบย์	-14646
▁560	-14647
▁Ton	-14648
▁คอง	-14649
▁ซาบ	-14650
▁นท์	-14651
▁ปี้	-14652
▁โสม	-14653
ตุรัส	-14654
เนียบ	-14655
▁ส้อม	-14656
▁เป็ป	-14657
asmine	-14658
uction	-14659
กเกอร์	-14660
ขาวิชา	-14661
▁หอคอย	-14662
กลับกัน	-14663
คาทอลิก	-14664
▁France	-14665
▁Marvel	-14666
▁iphone	-14667
▁ขัดเงา	-14668
▁ไร้ขีด	-14669
ทางอากาศ	-14670
▁ริบบิ้น	-14671
▁เป็นสาว	-14672
▁แอลซีดี	-14673
ปฏิกิริยา	-14674
▁นักดนตรี	-14675
▁น้ําทะเล	-14676
▁สาขาวิชา	-14677
▁ส่วนล่าง	-14678
▁หนักหน่วง	-14679
▁ตลาดแรงงาน	-14680
▁โรมันคาทอลิก	-14681
▁ในทางกลับกัน	-14682
▁ไร้ขีดจํากัด	-14683
▁ความยากลําบาก	-14684
▁Rentalcargroup	-14685
EX	-14686
150	-14687
คอบ	-14688
่าม	-14689
▁AI	-14690
▁BP	-14691
▁FT	-14692
▁Jo	-14693
▁WR	-14694
▁ศพ	-14695
นิ่ม	-14696
มเปญ	-14697
สมอง	-14698
▁219	-14699
▁Ros	-14700
▁TOM	-14701
▁คีบ	-14702
▁จอม	-14703
▁จูน	-14704
▁ถี่	-14705
▁นัล	-14706
▁DISC	-14707
▁Merc	-14708
▁SABO	-14709
▁จิ๋ว	-14710
▁ลนัท	-14711
▁ไมด์	-14712
▁STAIN	-14713
▁คร่าว	-14714
▁ดีงาม	-14715
▁Almond	-14716
▁Coated	-14717
▁ตลอดปี	-14718
▁ถูกจับ	-14719
▁รับใช้	-14720
▁อัลลอย	-14721
▁Freenom	-14722
▁ขุดเจาะ	-14723
▁ค็อกเทล	-14724
▁ยามเช้า	-14725
▁สาวน้อย	-14726
▁เข้าชุด	-14727
▁เปรี้ยว	-14728
▁ความพอดี	-14729
▁นุ่มนิ่ม	-14730
▁ออกอากาศ	-14731
▁เชื้อสาย	-14732
▁ครั้งหลัง	-14733
▁อินฟราเรด	-14734
▁ความสง่างาม	-14735
▁สถาบันวิจัย	-14736
▁หนังสือเดินทาง	-14737
300	-14738
SON	-14739
ris	-14740
the	-14741
บุก	-14742
แคร	-14743
▁So	-14744
oxic	-14745
วัตร	-14746
อยาก	-14747
▁NON	-14748
▁UNA	-14749
▁ฟลอ	-14750
▁ร่อ	-14751
▁สมี	-14752
▁หุบ	-14753
▁เชค	-14754
▁แรม	-14755
หารือ	-14756
▁1956	-14757
▁2539	-14758
▁2544	-14759
▁HUAW	-14760
▁ล็อต	-14761
▁ศิลป	-14762
onatic	-14763
ภูมิใจ	-14764
▁Sweet	-14765
▁Spring	-14766
▁กู้ภัย	-14767
▁รอบคอบ	-14768
▁รับมอบ	-14769
▁แคมเปญ	-14770
▁ซ้ําซาก	-14771
▁ฟิวชั่น	-14772
▁อาหารสด	-14773
▁ใช๎จําย	-14774
▁ช่วยดูแล	-14775
▁ให้โอกาส	-14776
▁HEADPHONE	-14777
▁ส่วนเสริม	-14778
ความสัมพันธ์	-14779
EP	-14780
HY	-14781
TR	-14782
๊ง	-14783
ARP	-14784
bar	-14785
che	-14786
way	-14787
กวด	-14788
คือ	-14789
ดาร	-14790
tish	-14791
ควัน	-14792
สาลี	-14793
เบิก	-14794
้านม	-14795
▁pre	-14796
▁เฟอ	-14797
▁เล่	-14798
▁Work	-14799
▁ชงชา	-14800
▁อะคร	-14801
ancing	-14802
เปลือง	-14803
แม่น้ํา	-14804
▁Colour	-14805
▁Moomin	-14806
▁เต้านม	-14807
▁Thunder	-14808
▁ร่าเริง	-14809
▁กล่าวคือ	-14810
▁ล้างน้ํา	-14811
▁อิมพอร์ท	-14812
ระบายอากาศ	-14813
▁ชื่อเสียง	-14814
▁แล้วเสร็จ	-14815
▁การค้นคว้า	-14816
▁ธุรกิจขนาด	-14817
▁บุคคลภายนอก	-14818
▁ความเกี่ยวข้อง	-14819
FO	-14820
ยก	-14821
หุ	-14822
กวี	-14823
ELLO	-14824
ิลิก	-14825
▁211	-14826
▁625	-14827
▁Eco	-14828
▁โลด	-14829
▁ๆคน	-14830
ESTER	-14831
▁2025	-14832
▁IPOD	-14833
▁Safe	-14834
▁ซอร์	-14835
ุลกากร	-14836
▁ราตรี	-14837
▁ยอดรวม	-14838
▁เบรนท์	-14839
▁ส่วนหัว	-14840
▁เดินป่า	-14841
▁Seamless	-14842
▁ดอลล่าห์	-14843
▁ทําเนียบ	-14844
▁อะคริลิก	-14845
▁เก็บความ	-14846
▁แอตแลนติก	-14847
▁ในบางกรณี	-14848
▁หลังจากนี้	-14849
▁การปลดปล่อย	-14850
BOY	-14851
ico	-14852
ตัส	-14853
▁km	-14854
▁ซึ	-14855
UMPH	-14856
ings	-14857
กะสี	-14858
เล็บ	-14859
▁151	-14860
▁460	-14861
▁งีบ	-14862
▁นที	-14863
▁บู๊	-14864
▁รูม	-14865
▁ลุง	-14866
izing	-14867
ชําระ	-14868
สายชู	-14869
▁กาแล	-14870
▁วงศ์	-14871
▁เบ็ด	-14872
อารมณ์	-14873
▁ไชน่า	-14874
▁Bubble	-14875
▁HUAWEI	-14876
▁ต่อจาก	-14877
▁หินปูน	-14878
▁เลื่อย	-14879
หนุ่มสาว	-14880
▁TRIUMPH	-14881
▁จดสิทธิ	-14882
▁ท่วงท่า	-14883
▁สังกะสี	-14884
▁สกัดกั้น	-14885
▁INTERFACE	-14886
▁บันทึกภาพ	-14887
▁บางประการ	-14888
▁เท่าที่ควร	-14889
▁Development	-14890
▁จดสิทธิบัตร	-14891
▁สํานักพิมพ์	-14892
▁น้ําส้มสายชู	-14893
▁ตะวันตกเฉียงใต้	-14894
ั้	-14895
ORS	-14896
ple	-14897
ผืน	-14898
ฟี่	-14899
หู่	-14900
ารุ	-14901
▁DJ	-14902
▁gl	-14903
▁พจ	-14904
▁สอ	-14905
กวิน	-14906
หลาน	-14907
▁179	-14908
▁370	-14909
▁III	-14910
▁นัม	-14911
▁ยัน	-14912
▁เอะ	-14913
▁เฮน	-14914
▁Link	-14915
▁ไนท์	-14916
ผืนผ้า	-14917
าร์บอน	-14918
ไร้สาย	-14919
▁RAMGB	-14920
▁SILIC	-14921
▁WORTH	-14922
▁คนงาน	-14923
▁คอร์น	-14924
▁อุทิศ	-14925
คําสั่ง	-14926
ประชาชน	-14927
▁DESIGN	-14928
▁กินที่	-14929
▁สารคดี	-14930
▁ไพเราะ	-14931
▁Organic	-14932
▁ช่องแคบ	-14933
▁นอกนั้น	-14934
▁รอบข้าง	-14935
▁สระน้ํา	-14936
▁เป็นต่อ	-14937
propylene	-14938
▁ชาวประมง	-14939
▁เริ่มแรก	-14940
สามเหลี่ยม	-14941
▁ดับเบิลยู	-14942
▁ฟังค์ชั่น	-14943
▁รุ่งเรือง	-14944
ครั้งที่หนึ่ง	-14945
▁โทรศัพท์ไร้สาย	-14946
ORA	-14947
cel	-14948
ล์ฟ	-14949
▁รต	-14950
ชีส์	-14951
หมุน	-14952
ามติ	-14953
▁Far	-14954
▁แมส	-14955
▁ใหญ	-14956
▁ไพล	-14957
าร้อย	-14958
▁Rate	-14959
▁ปีศา	-14960
▁มานะ	-14961
▁ยูเร	-14962
▁แจ๊ค	-14963
▁แพร์	-14964
▁ไวไฟ	-14965
เกอรี่	-14966
▁FLASH	-14967
▁การลด	-14968
▁คันทร	-14969
▁บทกวี	-14970
▁มหาชน	-14971
▁โลหิต	-14972
avender	-14973
าร้อยละ	-14974
▁ลุกลาม	-14975
กระเทือน	-14976
▁Central	-14977
▁MacBook	-14978
▁ซาบซึ้ง	-14979
▁Aconatic	-14980
▁ป้ายราคา	-14981
▁หน้าหนึ่ง	-14982
▁เบี่ยงเบน	-14983
▁บาร์เซโลนา	-14984
▁อัตราร้อยละ	-14985
ba	-14986
ere	-14987
▁IC	-14988
▁OD	-14989
oose	-14990
คิ้ว	-14991
ากษ์	-14992
▁595	-14993
▁Bus	-14994
▁HDR	-14995
▁MOT	-14996
▁โมร	-14997
▁MULT	-14998
▁SKII	-14999
▁คนดี	-15000
▁ปั้ม	-15001
▁ป็อป	-15002
▁INDIA	-15003
▁Lenov	-15004
▁React	-15005
▁Voice	-15006
▁นิสัย	-15007
▁รองคอ	-15008
▁ลักพา	-15009
▁ําดบั	-15010
▁REMOTE	-15011
▁สัมมนา	-15012
ท้องถิ่น	-15013
เสียดทาน	-15014
▁BRITISH	-15015
▁Fitting	-15016
▁การันตี	-15017
▁ซีนีม่า	-15018
▁ทันเวลา	-15019
▁สถาปนิก	-15020
▁เงินฝืด	-15021
▁แสตนเลส	-15022
▁น่าอร่อย	-15023
▁LIGHTNING	-15024
▁การยกเว้น	-15025
▁ความคล้าย	-15026
▁เชื้อชาติ	-15027
▁แรงเสียดทาน	-15028
ta	-15029
ทุ	-15030
DVD	-15031
จาง	-15032
เซา	-15033
โกร	-15034
▁UT	-15035
▁รพ	-15036
ิร์ท	-15037
ีลด์	-15038
ไตน์	-15039
▁163	-15040
▁208	-15041
▁218	-15042
▁SER	-15043
▁sub	-15044
▁ควบ	-15045
▁นัง	-15046
▁อธิ	-15047
▁อาด	-15048
▁แง่	-15049
VIDIA	-15050
itive	-15051
▁พรรณ	-15052
▁มีนา	-15053
▁อุ้ง	-15054
▁Hyper	-15055
▁Metal	-15056
▁พิชิต	-15057
สาวรีย์	-15058
สิทธิผล	-15059
▁SCREEN	-15060
▁พี่สาว	-15061
▁สวิทซ์	-15062
▁อัลตรา	-15063
▁Viscose	-15064
▁กระเช้า	-15065
▁การผสาน	-15066
▁ตามนั้น	-15067
▁รูปปั้น	-15068
▁เพนกวิน	-15069
▁เย็บแบบ	-15070
▁ก่อนเวลา	-15071
▁ช่วงหลัง	-15072
▁รถโดยสาร	-15073
▁ร้านกาแฟ	-15074
▁แชมป์โลก	-15075
▁ชีวิตชีวา	-15076
▁ความยินยอม	-15077
GS	-15078
ei	-15079
UAT	-15080
avi	-15081
eak	-15082
red	-15083
▁งะ	-15084
▁อป	-15085
PLAY	-15086
band	-15087
ธานี	-15088
▁162	-15089
▁206	-15090
▁775	-15091
▁Cat	-15092
▁Dro	-15093
▁MLR	-15094
▁Tom	-15095
▁ดอง	-15096
▁มัว	-15097
▁แอ้	-15098
EMORY	-15099
ublic	-15100
โบราณ	-15101
▁Skec	-15102
▁ข่มข	-15103
▁ด้อย	-15104
▁ตะปู	-15105
▁ตะเก	-15106
ลําลอง	-15107
▁Beige	-15108
▁Ether	-15109
▁Ortho	-15110
▁Youth	-15111
▁นําพา	-15112
▁พจนาน	-15113
▁พอได้	-15114
▁เคร่ง	-15115
unction	-15116
▁Lining	-15117
▁ออกแรง	-15118
▁เบนซิน	-15119
▁กระทั่ง	-15120
▁ของเสีย	-15121
▁ตุลาการ	-15122
▁ธรรมดาๆ	-15123
▁บ้านพัก	-15124
▁เป็นกรด	-15125
▁Response	-15126
▁ลักพาตัว	-15127
▁วูฟเฟอร์	-15128
▁ชุดลําลอง	-15129
▁ทัศนียภาพ	-15130
▁พจนานุกรม	-15131
▁สิ้นเปลือง	-15132
▁อนุสาวรีย์	-15133
▁ขั้นสุดท้าย	-15134
▁ฝ่ายสนับสนุน	-15135
▁ขอความช่วยเหลือ	-15136
Sc	-15137
งัก	-15138
รกล	-15139
ents	-15140
เข่า	-15141
▁181	-15142
▁Pot	-15143
▁ซูบ	-15144
ience	-15145
▁Mill	-15146
▁โซดา	-15147
▁Store	-15148
ัมเปอร์	-15149
▁Heater	-15150
▁บ่งชี้	-15151
▁ELEMENT	-15152
▁งานแสดง	-15153
▁ปืนใหญ่	-15154
เนื้อแข็ง	-15155
▁ปรุงแต่ง	-15156
▁ความอ่อนโยน	-15157
▁ร้านหนังสือ	-15158
▁โปรเจคเตอร์	-15159
▁ไม้เนื้อแข็ง	-15160
้ค	-15161
och	-15162
uad	-15163
▁GO	-15164
▁NU	-15165
▁as	-15166
alen	-15167
arth	-15168
iday	-15169
mail	-15170
วนํา	-15171
เตอร	-15172
▁002	-15173
▁187	-15174
▁Ray	-15175
▁นัข	-15176
▁อนิ	-15177
▁อัศ	-15178
กลั่น	-15179
พากษ์	-15180
หย่อน	-15181
เลียง	-15182
เลือน	-15183
้านาย	-15184
▁1993	-15185
▁2579	-15186
▁Cost	-15187
▁time	-15188
▁ผู้ล	-15189
▁พบปะ	-15190
▁ห้วง	-15191
ations	-15192
ective	-15193
จังหวะ	-15194
▁Hydro	-15195
▁SHARP	-15196
▁lycra	-15197
▁จราจร	-15198
▁ทางบก	-15199
▁ฝึกฝน	-15200
▁สรรค์	-15201
▁เปรอะ	-15202
ี่ยวนํา	-15203
▁Direct	-15204
▁Parfum	-15205
▁จําพวก	-15206
▁ซูบารุ	-15207
▁ดวงดาว	-15208
▁ตะกั่ว	-15209
▁มีเดีย	-15210
▁ลักเซม	-15211
▁เพ้นท์	-15212
▁Station	-15213
▁coating	-15214
▁อ่อนไหว	-15215
▁เจ้านาย	-15216
รุ่งเรือง	-15217
▁American	-15218
▁Skechers	-15219
ความมั่นคง	-15220
▁ความคุ้นเคย	-15221
▁ลักเซมเบิร์ก	-15222
▁โรงเรียนมัธยม	-15223
XY	-15224
456	-15225
RNA	-15226
rim	-15227
ปัจ	-15228
ผลา	-15229
เลจ	-15230
▁FU	-15231
▁un	-15232
▁ย่	-15233
▁อื	-15234
KINS	-15235
เซ็ต	-15236
▁811	-15237
▁LIP	-15238
▁จัน	-15239
▁ปรุ	-15240
▁สปี	-15241
▁ออป	-15242
▁อ่อ	-15243
▁โอะ	-15244
ONENT	-15245
▁2533	-15246
▁Jack	-15247
▁Kong	-15248
▁Wave	-15249
▁ถวาย	-15250
▁สรรพ	-15251
▁แพลน	-15252
▁โลว์	-15253
กระทํา	-15254
ัยกรรม	-15255
▁ของดี	-15256
▁ปีศาจ	-15257
▁เนี้ย	-15258
องเจลิส	-15259
อนเจลิส	-15260
▁Weight	-15261
▁เกษียณ	-15262
▁เจาะจง	-15263
▁เรดาร์	-15264
▁โดมิโน	-15265
▁น้องชาย	-15266
▁บันเทิง	-15267
▁ย้อนยุค	-15268
▁แต่เดิม	-15269
▁Titanium	-15270
▁การฝึกฝน	-15271
▁อิ่มเอิบ	-15272
▁ซ่อมบํารุง	-15273
▁ตัวหนังสือ	-15274
▁ความตระหนัก	-15275
▁ลอสแองเจลิส	-15276
▁ลอสแอนเจลิส	-15277
▁เรื่องสําคัญ	-15278
▁กระทบกระเทือน	-15279
OUT	-15280
esc	-15281
งํา	-15282
เนล	-15283
็อท	-15284
▁Ab	-15285
RESH	-15286
WORK	-15287
bolt	-15288
ัศมี	-15289
▁050	-15290
▁612	-15291
▁Dim	-15292
▁FUR	-15293
▁TUR	-15294
▁กรุ	-15295
▁ซอย	-15296
สงสาร	-15297
ํารวย	-15298
ําราญ	-15299
▁Mbps	-15300
▁Team	-15301
▁จ้อง	-15302
▁ดิ้น	-15303
▁ถ่วง	-15304
▁ทุ่น	-15305
▁หรี่	-15306
▁ฮาโล	-15307
ทํานอง	-15308
▁SOUND	-15309
▁ติดไฟ	-15310
▁Beauty	-15311
▁Lenovo	-15312
▁การงาน	-15313
▁ลมร้อน	-15314
▁ลําไส้	-15315
▁สืบทอด	-15316
▁British	-15317
▁voucher	-15318
▁คู่สมรส	-15319
▁สปีชีส์	-15320
▁เส้นตรง	-15321
▁สาธารณชน	-15322
▁ส่วนหน้า	-15323
▁ค่าบํารุง	-15324
▁บุคลิกภาพ	-15325
▁สัตว์น้ํา	-15326
▁สันนิษฐาน	-15327
▁ความคาดหมาย	-15328
YS	-15329
ERY	-15330
EST	-15331
ETH	-15332
aly	-15333
irl	-15334
สืบ	-15335
▁MT	-15336
gler	-15337
ผลาญ	-15338
๊กซ์	-15339
▁730	-15340
▁ก้ม	-15341
▁ขัง	-15342
▁พริ	-15343
▁พอก	-15344
▁ฟัก	-15345
▁ออม	-15346
▁เฮิ	-15347
รังสี	-15348
▁ผื่น	-15349
▁แท็ง	-15350
▁Activ	-15351
▁INEAR	-15352
▁คล้อย	-15353
▁ตะกอน	-15354
▁นั้นๆ	-15355
▁เบียน	-15356
▁ECONOM	-15357
▁Repair	-15358
▁ไฟไหม้	-15359
▁ขนสัตว์	-15360
▁นี่แหละ	-15361
▁พยากรณ์	-15362
▁Software	-15363
▁ตราบเท่า	-15364
▁ติดอาวุธ	-15365
▁น่าสงสาร	-15366
▁หน้าเป็น	-15367
▁หม้อแปลง	-15368
▁เพิ่มพูน	-15369
▁แฟ้มแขวน	-15370
▁Endurance	-15371
▁ทางการทหาร	-15372
▁ช่องระบายอากาศ	-15373
lon	-15374
ตอ่	-15375
ินิ	-15376
▁Db	-15377
▁HG	-15378
▁PG	-15379
▁by	-15380
▁อต	-15381
NESS	-15382
ryst	-15383
▁302	-15384
▁EFT	-15385
▁OPP	-15386
▁Sky	-15387
▁ข้น	-15388
▁รัต	-15389
▁โหด	-15390
▁ใหม	-15391
rylic	-15392
เคอร์	-15393
ไม่ออก	-15394
▁BEVER	-15395
▁Guide	-15396
▁Racer	-15397
▁TUNER	-15398
▁คําชม	-15399
▁ประถม	-15400
▁สก็อต	-15401
▁หันมา	-15402
▁ไบรท์	-15403
ริเริ่ม	-15404
▁Indigo	-15405
▁ทึบแสง	-15406
▁บัณฑิต	-15407
น้ําร้อน	-15408
▁ECONOMY	-15409
▁จอร์แดน	-15410
▁ดาวฤกษ์	-15411
▁สก๊อตช์	-15412
▁เยอะแยะ	-15413
▁กะทันหัน	-15414
▁ข้างล่าง	-15415
▁ความกล้า	-15416
▁ทําประตู	-15417
▁ลาดเอียง	-15418
▁เบเกอรี่	-15419
▁เพลงชาติ	-15420
▁การคมนาคม	-15421
▁ปากกาหมึก	-15422
▁แหล่งข่าว	-15423
▁ระบบประสาท	-15424
▁กระติกน้ําร้อน	-15425
ูญ	-15426
ola	-15427
บ้า	-15428
▁HY	-15429
▁ส่	-15430
กิ้ง	-15431
ตะปา	-15432
ัพพี	-15433
▁Rib	-15434
▁Rom	-15435
▁SUV	-15436
▁Whe	-15437
▁wma	-15438
▁ฟเฟ	-15439
ราชย์	-15440
▁ADAP	-15441
▁Wran	-15442
▁ท้อป	-15443
▁ระเร	-15444
▁อืมม	-15445
▁แข้ง	-15446
ตะปาปา	-15447
ื้อรัง	-15448
▁Honey	-15449
▁คนพูด	-15450
▁เพิม่	-15451
ัสเตอร์	-15452
แต่น้อย	-15453
▁ข่าวดี	-15454
▁ประมวล	-15455
▁เวลากล	-15456
▁BEVERLY	-15457
▁การสมรส	-15458
พื้นเมือง	-15459
▁STAINLESS	-15460
▁ที่ยอมรับ	-15461
▁ภาครัฐบาล	-15462
▁มีประวัติ	-15463
▁สันตะปาปา	-15464
▁คลังสินค้า	-15465
▁แม้แต่น้อย	-15466
▁เวลากลางวัน	-15467
▁ความมั่งคั่ง	-15468
▁พระพุทธศาสนา	-15469
HA	-15470
WA	-15471
▁ฏ	-15472
ICO	-15473
UMA	-15474
ime	-15475
นึก	-15476
▁AB	-15477
▁JD	-15478
▁ปฎ	-15479
assy	-15480
ball	-15481
cara	-15482
รมาน	-15483
▁299	-15484
▁INK	-15485
▁Val	-15486
▁กัส	-15487
▁โกง	-15488
▁โขง	-15489
ebook	-15490
night	-15491
▁FLOW	-15492
▁Hong	-15493
▁UHSI	-15494
▁พอร์	-15495
▁ภณัฑ	-15496
▁รั้ว	-15497
▁ลีโอ	-15498
▁อพยพ	-15499
▁แท้ๆ	-15500
▁โครม	-15501
▁Chern	-15502
▁ทรมาน	-15503
▁ทัพพี	-15504
▁ทุ่มเท	-15505
▁มวลรวม	-15506
▁เครียด	-15507
▁เบาบาง	-15508
▁Support	-15509
▁ระเรื่อ	-15510
▁ประชามติ	-15511
▁สารสนเทศ	-15512
▁หน้าหนาว	-15513
▁เอาต์พุต	-15514
▁COMPONENT	-15515
▁Processor	-15516
▁หัวเรื่อง	-15517
▁ทางวิชาการ	-15518
▁ตราบเท่าที่	-15519
▁ปากกาหมึกซึม	-15520
▁ความเป็นระเบียบ	-15521
ERM	-15522
ena	-15523
oph	-15524
คญั	-15525
สวย	-15526
โกง	-15527
ําน	-15528
ONDE	-15529
TYLE	-15530
iron	-15531
กวํา	-15532
▁171	-15533
▁301	-15534
▁Eng	-15535
▁LES	-15536
▁par	-15537
▁ดัช	-15538
▁พฤก	-15539
▁ํอง	-15540
เนียง	-15541
▁ที่ๆ	-15542
คริปต์	-15543
จิเนีย	-15544
พระราช	-15545
▁Shine	-15546
▁TIGER	-15547
▁UMBRO	-15548
▁touch	-15549
▁นิวส์	-15550
▁ผ้าใบ	-15551
▁Health	-15552
▁ป่าไม้	-15553
▁รีเซ็ต	-15554
▁ได้คิด	-15555
▁บอสเนีย	-15556
▁รูปธรรม	-15557
[...]
