[PAD]	0
[UNK]	0
[SOS]	0
[EOS]	0
▁เ	-0
▁ก	-1
▁ส	-2
▁แ	-3
▁ค	-4
▁ท	-5
ี่	-6
อง	-7
▁ไ	-8
าร	-9
▁ม	-10
▁ใ	-11
่า	-12
▁อ	-13
▁ข	-14
ัน	-15
▁ร	-16
้า	-17
▁ที่	-18
ํา	-19
▁น	-20
▁จ	-21
▁ห	-22
ับ	-23
▁ต	-24
าก	-25
ด้	-26
าม	-27
ละ	-28
▁การ	-29
าย	-30
ื่	-31
▁ของ	-32
▁ป	-33
▁ด	-34
▁พ	-35
▁และ	-36
▁โ	-37
▁มี	-38
้อ	-39
▁ได้	-40
่ง	-41
▁ใน	-42
ือ	-43
้น	-44
ระ	-45
▁ช	-46
▁ผ	-47
ัง	-48
ม่	-49
▁ว	-50
ีย	-51
วาม	-52
็น	-53
▁บ	-54
▁ล	-55
▁เป	-56
้ง	-57
าน	-58
ุณ	-59
▁ไม่	-60
▁:	-61
▁ความ	-62
ห้	-63
่าง	-64
ิน	-65
▁คุณ	-66
▁ฉ	-67
วย	-68
▁ซ	-69
▁ฉัน	-70
▁ย	-71
▁เป็น	-72
▁จาก	-73
ี้	-74
่น	-75
รับ	-76
▁เพ	-77
▁อย	-78
▁ให้	-79
▁1	-80
ื่อ	-81
อก	-82
ัก	-83
▁หน	-84
่อ	-85
ั้ง	-86
าง	-87
่ะ	-88
▁จะ	-89
ิด	-90
ิต	-91
ัว	-92
▁ใช	-93
่ม	-94
▁2	-95
▁สี	-96
▁เร	-97
คร	-98
▁ถ	-99
▁เล	-100
การ	-101
ร์	-102
้อง	-103
▁แต	-104
▁ค่ะ	-105
▁มัน	-106
อบ	-107
าด	-108
▁ทํา	-109
มา	-110
ภา	-111
สด	-112
่ว	-113
▁เห	-114
▁(	-115
▁ดี	-116
▁แต่	-117
▁กับ	-118
▁ประ	-119
▁เก	-120
ื่อง	-121
ัด	-122
ด้วย	-123
ที่	-124
้ว	-125
▁ผล	-126
บบ	-127
ื้อ	-128
หน	-129
▁นี้	-130
ริ	-131
ู้	-132
วก	-133
อร์	-134
ติ	-135
อน	-136
▁ด้วย	-137
▁ใช้	-138
ั้น	-139
ตร	-140
ุด	-141
้าน	-142
าว	-143
▁สํา	-144
▁ว่า	-145
▁มา	-146
▁เข	-147
▁ผลิต	-148
▁อย่าง	-149
้ํา	-150
▁สาม	-151
▁เด	-152
▁หล	-153
▁มาก	-154
▁ไป	-155
ภาพ	-156
▁)	-157
▁ระ	-158
▁อา	-159
ู่	-160
ึ่ง	-161
▁เส	-162
▁โด	-163
สดง	-164
เท	-165
ี่ย	-166
▁เม	-167
▁3	-168
▁แสดง	-169
ารถ	-170
ึ้น	-171
หรับ	-172
รือ	-173
ึง	-174
้าง	-175
่าย	-176
▁กล	-177
ิ่ง	-178
▁"	-179
▁สามารถ	-180
ค้า	-181
▁ง	-182
รร	-183
ภั	-184
ว่า	-185
รง	-186
▁ๆ	-187
ื่น	-188
▁ช่	-189
่าน	-190
เห	-191
▁หรือ	-192
ุก	-193
▁หม	-194
▁เว	-195
็บ	-196
▁กระ	-197
ต์	-198
้อม	-199
▁ขน	-200
▁ก็	-201
▁โดย	-202
ลา	-203
ประ	-204
▁แล	-205
ดี	-206
▁ดู	-207
จะ	-208
ินค้า	-209
▁เพื่อ	-210
ผล	-211
ใจ	-212
▁สําหรับ	-213
ิ่ม	-214
ณฑ	-215
รา	-216
▁เท	-217
็ก	-218
ณฑ์	-219
00	-220
ูก	-221
้อย	-222
▁สินค้า	-223
แต	-224
▁S	-225
▁ขนาด	-226
▁น้ํา	-227
▁ปี	-228
ภัณฑ์	-229
▁ตัว	-230
▁หน้า	-231
▁.	-232
▁นะ	-233
เล	-234
▁กัน	-235
▁แล้ว	-236
▁เคร	-237
กัน	-238
▁ผลิตภัณฑ์	-239
เข	-240
▁เน	-241
▁ต้อง	-242
▁-	-243
ิว	-244
ส์	-245
▁บน	-246
ค่า	-247
▁เครื่อง	-248
ไซ	-249
▁ฟ	-250
จาก	-251
ตัว	-252
▁เช	-253
▁เอ	-254
▁อาจ	-255
อย	-256
▁ช่วย	-257
วม	-258
▁ผู้	-259
▁ตั้ง	-260
ือน	-261
▁ออก	-262
อด	-263
▁รา	-264
ไร	-265
ัญ	-266
้งาน	-267
่อน	-268
▁พร	-269
▁คะ	-270
เป	-271
ส่	-272
▁แบบ	-273
ตุ	-274
ึก	-275
หม	-276
▁ต่อ	-277
▁4	-278
ุ่น	-279
่วน	-280
ียง	-281
ุ่ม	-282
▁P	-283
▁สิ่ง	-284
▁ทั้ง	-285
▁เมื่อ	-286
▁ยัง	-287
หล	-288
▁คร	-289
▁เลย	-290
บาย	-291
▁พวก	-292
าร์	-293
▁อยู่	-294
ียน	-295
▁x	-296
▁5	-297
▁เพิ่ม	-298
ให้	-299
นี้	-300
▁C	-301
▁วัน	-302
er	-303
▁ทุก	-304
▁เรา	-305
สม	-306
ณ์	-307
ีก	-308
เก	-309
ไป	-310
งาน	-311
▁พร้อม	-312
▁ซื้อ	-313
ขึ้น	-314
เค	-315
ูง	-316
จอ	-317
▁อะ	-318
วน	-319
คะ	-320
ลง	-321
▁หนัง	-322
▁โอ	-323
▁M	-324
▁เบ	-325
▁คน	-326
เร	-327
เต	-328
ั่น	-329
ื้น	-330
คา	-331
กับ	-332
เว	-333
▁แต่ละ	-334
▁A	-335
กต	-336
▁วั	-337
▁พิ	-338
้ม	-339
▁ซึ่ง	-340
▁ด้าน	-341
▁/	-342
▁หมาย	-343
▁""	-344
รรม	-345
หญ	-346
เหตุ	-347
ั่ง	-348
▁แน	-349
▁หน้าจอ	-350
on	-351
▁อีก	-352
เทศ	-353
▁เว็บ	-354
▁เค	-355
ิจ	-356
ลัง	-357
▁ตอน	-358
กร	-359
เด	-360
หา	-361
ไซต์	-362
▁เว็บไซต์	-363
▁อะไร	-364
หว	-365
เขา	-366
กต่าง	-367
▁เธ	-368
▁ตาม	-369
▁จํา	-370
▁รับ	-371
ใช	-372
▁ทาง	-373
▁ตั้งค่า	-374
▁25	-375
▁นะคะ	-376
ความ	-377
ยาย	-378
▁แบ	-379
▁ราคา	-380
▁เธอ	-381
▁รอง	-382
ิก	-383
น์	-384
▁เข้า	-385
มาะ	-386
ได้	-387
▁แสดงผล	-388
▁ง่าย	-389
▁หมายเหตุ	-390
▁พวกเขา	-391
▁คุณภาพ	-392
แตกต่าง	-393
▁ความแตกต่าง	-394
สือ	-395
▁ขึ้น	-396
▁เหมาะ	-397
▁อื่น	-398
สน	-399
สุด	-400
ธิ	-401
▁สูง	-402
ด์	-403
▁ส่วน	-404
▁ที่จะ	-405
หาร	-406
งิน	-407
รก	-408
ียบ	-409
▁ร้อย	-410
▁ถูก	-411
▁กํา	-412
▁ไว	-413
in	-414
▁ได้รับ	-415
ุน	-416
▁รถ	-417
▁B	-418
▁คือ	-419
▁ยาว	-420
กล	-421
ิง	-422
อล	-423
▁ร้อยละ	-424
▁6	-425
▁,	-426
มพ	-427
▁ผิว	-428
ัฐ	-429
▁เย	-430
▁กร	-431
▁ผ้า	-432
ัส	-433
หญ่	-434
าท	-435
▁ทําให้	-436
ียว	-437
ใน	-438
▁ใส่	-439
▁โอเค	-440
▁L	-441
▁หนังสือ	-442
มาณ	-443
ักษ	-444
ดับ	-445
เน	-446
าะ	-447
แบบ	-448
▁ไซ	-449
มือน	-450
ฐาน	-451
ูป	-452
ั่ว	-453
▁เขา	-454
ุม	-455
▁ถึง	-456
▁แข	-457
ัติ	-458
▁T	-459
▁อยาก	-460
▁สน	-461
▁วิ	-462
▁ภ	-463
้อน	-464
▁เรื่อง	-465
ล์	-466
กว่า	-467
▁นิ	-468
ณะ	-469
▁หลัง	-470
.5	-471
▁บาง	-472
ชา	-473
▁น่า	-474
▁อั	-475
▁ต้องการ	-476
ี่ยม	-477
▁ละ	-478
▁ฝ	-479
▁ติด	-480
▁ใช้งาน	-481
▁สะ	-482
▁กว่า	-483
▁ส่ง	-484
▁เหล	-485
ราะ	-486
▁ปรับ	-487
▁สบาย	-488
▁เนื้อ	-489
▁มั	-490
วด	-491
▁!	-492
▁D	-493
นั้น	-494
สดุ	-495
้ย	-496
ือก	-497
เม	-498
▁วัสดุ	-499
▁พื้น	-500
▁บริ	-501
▁ซม	-502
ัย	-503
เย	-504
แล	-505
▁นั้น	-506
เส	-507
ต้อง	-508
▁แม	-509
▁ไซส์	-510
▁ฮ	-511
ทร	-512
▁F	-513
าศ	-514
ัพ	-515
ใช้งาน	-516
▁ลง	-517
▁ถ้า	-518
▁%	-519
หน้า	-520
เศ	-521
ูล	-522
▁เต	-523
ทน	-524
▁ภา	-525
ย์	-526
้าย	-527
าล	-528
▁ข้อ	-529
▁รู้	-530
▁8	-531
▁สาย	-532
ถึง	-533
▁ราย	-534
ริง	-535
นด์	-536
เช	-537
่วง	-538
▁หนึ่ง	-539
ิท	-540
▁อัน	-541
▁เจ	-542
▁อุ	-543
▁แค	-544
▁คว	-545
่อย	-546
▁ดํา	-547
▁มั้ย	-548
▁เล่ม	-549
▁ประเทศ	-550
าส	-551
▁ระบบ	-552
ัม	-553
an	-554
เท้า	-555
▁สวม	-556
ar	-557
▁ต่าง	-558
▁ลด	-559
ิ้น	-560
▁ก่อน	-561
▁คํา	-562
▁ไฟ	-563
▁แก	-564
▁ร้าน	-565
▁ขอ	-566
ร้าง	-567
โน	-568
น้ํา	-569
▁7	-570
▁รูป	-571
เวลา	-572
็ว	-573
▁ไว้	-574
▁ขยาย	-575
▁เกี่ย	-576
วกับ	-577
▁ธ	-578
▁แห	-579
่อง	-580
▁สม	-581
นวน	-582
หม่	-583
▁แผ	-584
..	-585
ืน	-586
ลี่ย	-587
▁เพราะ	-588
▁อ่าน	-589
▁จํานวน	-590
▁รวม	-591
▁H	-592
▁E	-593
▁รุ่น	-594
▁10	-595
▁ปล	-596
▁จัด	-597
เบ	-598
ใส่	-599
▁ลูก	-600
▁หลาย	-601
▁เพียง	-602
โล	-603
▁นี่	-604
▁ใช่	-605
▁รอบ	-606
เตอร์	-607
▁สอง	-608
▁เซ	-609
▁สวมใส่	-610
▁การใช้งาน	-611
▁G	-612
ดา	-613
▁ได้ดี	-614
ปร	-615
ุง	-616
le	-617
ท์	-618
▁ดัง	-619
ีน	-620
▁เช่น	-621
▁•	-622
ค์	-623
ัญหา	-624
ทาน	-625
ิม	-626
กรรม	-627
จุ	-628
▁U	-629
▁กําลัง	-630
▁เสื้อ	-631
สํา	-632
ti	-633
ใหญ่	-634
ีว	-635
ิล	-636
็ง	-637
▁งาน	-638
▁R	-639
▁เกี่ยวกับ	-640
▁9	-641
ทาง	-642
หมด	-643
▁ชอบ	-644
▁ขอบ	-645
รษ	-646
▁รองเท้า	-647
▁ตล	-648
▁นํา	-649
สะ	-650
นา	-651
้าม	-652
ือง	-653
อม	-654
กิจ	-655
ากาศ	-656
▁ระดับ	-657
ายุ	-658
คม	-659
▁พอ	-660
อย่าง	-661
▁ครั้ง	-662
▁ช่อง	-663
▁ใหม่	-664
▁ศ	-665
▁ที่สุด	-666
็ม	-667
▁หลังจาก	-668
ชาติ	-669
หนัก	-670
▁ชุด	-671
▁เอา	-672
▁เงิน	-673
▁ภาย	-674
เอ	-675
▁ใบ	-676
หร	-677
ER	-678
่าว	-679
▁ขยายตัว	-680
ียด	-681
ติก	-682
▁20	-683
▁หัว	-684
ต้	-685
รนด์	-686
มง	-687
รษฐ	-688
▁คล	-689
▁นัก	-690
เศษ	-691
ไฟ	-692
al	-693
▁โล	-694
ธี	-695
มาส	-696
▁คิด	-697
ลาส	-698
▁กว	-699
▁แพ	-700
▁เหมือน	-701
สง	-702
▁แบรนด์	-703
▁ดีไซ	-704
เป็น	-705
บัติ	-706
▁ดีไซน์	-707
▁เลือก	-708
นํา	-709
เซ	-710
ต่อ	-711
en	-712
▁แผ่น	-713
▁กา	-714
▁W	-715
ุ้ม	-716
▁ช่วง	-717
รษฐกิจ	-718
▁อุป	-719
▁ทั้งหมด	-720
ิทธิ	-721
แน	-722
▁ไตร	-723
▁N	-724
▁เดือน	-725
or	-726
มพ์	-727
▁สั่ง	-728
▁มาตร	-729
ครั้ง	-730
เจ	-731
▁เกิด	-732
▁?	-733
▁ควร	-734
▁ข้อม	-735
▁น้ําหนัก	-736
▁ภาพ	-737
▁0	-738
▁เวลา	-739
▁สุด	-740
▁กว้าง	-741
▁แป	-742
าที	-743
▁เล็ก	-744
▁ปก	-745
▁เด็ก	-746
ชน	-747
▁...	-748
ลี่ยน	-749
▁น้อย	-750
โย	-751
ดวก	-752
▁ซัก	-753
▁นิ้ว	-754
▁วิธี	-755
หย	-756
▁เดียว	-757
เป๋	-758
็ต	-759
▁อาหาร	-760
▁ทน	-761
▁เปิด	-762
it	-763
▁คอ	-764
ผ้า	-765
▁สถ	-766
ติม	-767
วัน	-768
▁ข้อมูล	-769
อาด	-770
▁12	-771
▁ออกแบบ	-772
▁ทั่ว	-773
▁กระเป๋	-774
▁ไตรมาส	-775
▁ความร	-776
สึก	-777
▁คา	-778
▁สวย	-779
ูด	-780
ไต	-781
es	-782
▁O	-783
▁ประมาณ	-784
▁แค่	-785
▁ผ่าน	-786
หว่าง	-787
เงิน	-788
เยี่ยม	-789
▁ยอด	-790
พิ	-791
▁อายุ	-792
▁19	-793
▁ระหว่าง	-794
เภ	-795
กรณ์	-796
ูม	-797
▁255	-798
▁จริง	-799
▁แรก	-800
คล	-801
▁เศ	-802
พาะ	-803
กระ	-804
ะนํา	-805
ซ์	-806
▁100	-807
▁นุ่ม	-808
▁แรง	-809
▁หรับ	-810
เภท	-811
▁เสียง	-812
▁ทรง	-813
ืด	-814
▁):	-815
▁เหล่าน	-816
สาร	-817
▁ค่า	-818
แรง	-819
▁บรร	-820
▁ประเภท	-821
ออก	-822
คน	-823
▁ตัด	-824
ฉพาะ	-825
กา	-826
▁หาก	-827
่วม	-828
อร	-829
▁ไหม	-830
▁I	-831
▁บอก	-832
ําร	-833
ื่อน	-834
็ค	-835
▁อุปกรณ์	-836
แต่	-837
▁ลาย	-838
▁สะดวก	-839
.0	-840
ประกัน	-841
ไตล์	-842
▁สร้าง	-843
▁จอง	-844
ชอบ	-845
▁เพิ่มขึ้น	-846
ชั่น	-847
ักษา	-848
วง	-849
ูมิ	-850
▁กระเป๋า	-851
▁ชิ้น	-852
▁เริ่ม	-853
ิป	-854
▁โปร	-855
▁นอก	-856
มาก	-857
ow	-858
▁เก็บ	-859
▁นาที	-860
เร็ว	-861
อา	-862
ห์	-863
ภัย	-864
▁โต	-865
ผลิต	-866
ิ่น	-867
สําหรับ	-868
▁โทร	-869
ม้	-870
▁เรียบ	-871
▁รัฐ	-872
การณ์	-873
ลาสติก	-874
ตร์	-875
ประเทศ	-876
▁เหมาะสําหรับ	-877
▁พบ	-878
กอบ	-879
มือ	-880
้องกัน	-881
▁ตอนนี้	-882
at	-883
▁จึง	-884
▁พลาสติก	-885
ส่ง	-886
ol	-887
▁จน	-888
คุณ	-889
ตั้ง	-890
▁ชื่น	-891
▁เหล่านี้	-892
el	-893
▁ชั้น	-894
▁มือ	-895
ปัญหา	-896
▁ลดลง	-897
▁สา	-898
▁มากกว่า	-899
▁หลาก	-900
สิทธิ	-901
▁คุ้ม	-902
▁ดังนั้น	-903
สะอาด	-904
▁ซี	-905
▁เคล	-906
วั	-907
▁นาน	-908
▁แขน	-909
ยว	-910
▁เอก	-911
▁ชื่นชอบ	-912
▁ปริ	-913
▁เศรษฐกิจ	-914
▁อิน	-915
▁คาด	-916
คัญ	-917
▁ปิด	-918
▁แท	-919
▁ยอดเยี่ยม	-920
หลาย	-921
▁เชื่อ	-922
▁เกิน	-923
ฟ้า	-924
▁ลํา	-925
ยน	-926
▁ชน	-927
▁สถาน	-928
▁ที	-929
.2	-930
อยู่	-931
▁แข็ง	-932
▁K	-933
▁เดิน	-934
▁เห็น	-935
▁ขาว	-936
▁ทําความ	-937
▁เบา	-938
▁สัม	-939
ทย	-940
ริม	-941
เพ	-942
ทํา	-943
▁เนื่อง	-944
▁แห่ง	-945
▁เท่า	-946
as	-947
▁ทํางาน	-948
▁ตก	-949
่ํา	-950
▁สาร	-951
ic	-952
ro	-953
▁15	-954
▁โคร	-955
ดาษ	-956
▁พิเศษ	-957
▁เคย	-958
ุค	-959
▁เขียน	-960
▁ไหน	-961
ผัส	-962
▁เปลี่ยน	-963
ิส	-964
อากาศ	-965
▁ที่น	-966
▁พิมพ์	-967
เอียด	-968
ษา	-969
▁รู้สึก	-970
re	-971
▁ํา	-972
am	-973
▁เล่น	-974
็จ	-975
▁ดูแล	-976
ีด	-977
แข	-978
ญา	-979
▁ภายใน	-980
มัน	-981
▁กระดาษ	-982
สมบัติ	-983
วจ	-984
▁ขอบคุณ	-985
็อ	-986
ต้องการ	-987
ที	-988
▁แย	-989
▁ชาร์	-990
▁คุณภาพดี	-991
เหมือน	-992
▁โรง	-993
▁จีน	-994
▁เบอร์	-995
▁คุณสมบัติ	-996
หรัฐ	-997
ส่วน	-998
▁โร	-999
▁ฟัง	-1000
็ด	-1001
สอง	-1002
เหล	-1003
▁กลับ	-1004
ณะที่	-1005
ใช้	-1006
ูร	-1007
▁ป้องกัน	-1008
▁รอ	-1009
▁ดูเหมือน	-1010
▁วันที่	-1011
▁ลิ	-1012
▁หลากหลาย	-1013
▁ภาค	-1014
▁อัตร	-1015
▁ตา	-1016
▁อย่างไร	-1017
▁โครง	-1018
▁เทค	-1019
▁ทําความสะอาด	-1020
▁ตลอด	-1021
000	-1022
▁ปริมาณ	-1023
▁ใหญ่	-1024
▁สัมผัส	-1025
▁สนุก	-1026
▁สหรัฐ	-1027
▁เนื่องจาก	-1028
▁มม	-1029
AN	-1030
▁ข้าง	-1031
▁30	-1032
ียม	-1033
▁เส้น	-1034
ac	-1035
▁ทัน	-1036
ทุน	-1037
รักษา	-1038
▁แฟ	-1039
▁ไร	-1040
จํา	-1041
ยะ	-1042
ือบ	-1043
้าว	-1044
ยี	-1045
โนโล	-1046
โนโลยี	-1047
AR	-1048
▁หา	-1049
▁รองรับ	-1050
ON	-1051
▁ตร	-1052
หวัง	-1053
▁เทคโนโลยี	-1054
▁แน่น	-1055
คง	-1056
▁กาง	-1057
วัง	-1058
▁หนา	-1059
tion	-1060
เกง	-1061
▁US	-1062
▁ถาด	-1063
▁กล่าว	-1064
ุข	-1065
ัต	-1066
▁ดอล	-1067
๊ะ	-1068
▁อื่นๆ	-1069
▁ผิด	-1070
▁ชาร์จ	-1071
ing	-1072
▁กล่อง	-1073
▁ความส	-1074
▁”	-1075
หลัง	-1076
▁มาตรฐาน	-1077
ซ่า	-1078
ัพท์	-1079
▁เหมาะกับ	-1080
▁“	-1081
▁บ้าน	-1082
▁ชนิด	-1083
▁กลิ่น	-1084
▁ล้าน	-1085
▁|	-1086
เติม	-1087
▁คุ้มค่า	-1088
.7	-1089
.1	-1090
▁สด	-1091
▁โดยเ	-1092
▁กางเกง	-1093
ิบ	-1094
.8	-1095
ศัพท์	-1096
▁ทนทาน	-1097
หมาย	-1098
▁ญ	-1099
เขียน	-1100
สิทธิภาพ	-1101
บัน	-1102
▁พิซ	-1103
ot	-1104
ีวิต	-1105
▁ดอลล	-1106
ุท	-1107
▁เต็ม	-1108
▁มีปัญหา	-1109
▁ทั่วไป	-1110
▁พร้อมกับ	-1111
▁นอกจาก	-1112
.3	-1113
EN	-1114
▁มอง	-1115
▁พลัง	-1116
▁ห้อง	-1117
ยา	-1118
▁ไอ	-1119
▁พิซซ่า	-1120
ันธ	-1121
อกาส	-1122
▁สําคัญ	-1123
▁วาง	-1124
▁จุด	-1125
▁ออ	-1126
▁หลัก	-1127
▁เย็น	-1128
▁สู	-1129
▁แบต	-1130
▁เสีย	-1131
มี	-1132
▁เร็ว	-1133
▁รอย	-1134
▁วัต	-1135
งาม	-1136
▁หน่อย	-1137
ไม่	-1138
▁มากขึ้น	-1139
▁ประกอบ	-1140
ัฒ	-1141
สร้าง	-1142
▁บรรจุ	-1143
▁แต่ง	-1144
▁โมง	-1145
อะ	-1146
่วย	-1147
▁ไล	-1148
▁พูด	-1149
▁อง	-1150
▁เสริม	-1151
▁พระ	-1152
เล็ก	-1153
.4	-1154
หนึ่ง	-1155
▁เพิ่มเติม	-1156
IN	-1157
▁ลอง	-1158
▁ความต้องการ	-1159
▁นาย	-1160
ัท	-1161
▁เชื่อม	-1162
▁นับ	-1163
▁ในข	-1164
▁มอบ	-1165
▁ตรง	-1166
อรี่	-1167
พา	-1168
แด	-1169
▁แห้ง	-1170
▁มิ	-1171
▁คง	-1172
▁ดีมาก	-1173
สอบ	-1174
อาหาร	-1175
is	-1176
▁18	-1177
▁กลาง	-1178
จริง	-1179
▁ใคร	-1180
▁ทุ่ม	-1181
▁เนื้อผ้า	-1182
ลาย	-1183
▁เหมาะสม	-1184
▁แนว	-1185
▁ชื่อ	-1186
om	-1187
▁คืน	-1188
▁ปาก	-1189
▁เรีย	-1190
▁11	-1191
▁นา	-1192
ธรรม	-1193
▁ร่วม	-1194
▁ครึ่ง	-1195
าการ	-1196
▁m	-1197
่าร	-1198
หัส	-1199
ชาย	-1200
▁ยาง	-1201
▁เยี่ยม	-1202
แรก	-1203
.6	-1204
กาย	-1205
วล	-1206
หญิง	-1207
▁แบตเต	-1208
▁ผม	-1209
▁การผลิต	-1210
สา	-1211
คิด	-1212
ุ่ง	-1213
ower	-1214
รี	-1215
▁โดยเฉพาะ	-1216
▁คาที่	-1217
▁เกม	-1218
▁อาจจะ	-1219
กลาง	-1220
▁X	-1221
▁แบตเตอรี่	-1222
เรียน	-1223
▁รับประกัน	-1224
ปุ่น	-1225
▁ตรวจ	-1226
เรื่อง	-1227
ทํางาน	-1228
▁การป	-1229
ณา	-1230
▁ในขณะที่	-1231
▁โทรศัพท์	-1232
▁ตะ	-1233
▁โอกาส	-1234
ิตร	-1235
▁หย	-1236
ราบ	-1237
▁ญี่	-1238
▁รี	-1239
▁โลก	-1240
ว์	-1241
▁ริ	-1242
ก็ต	-1243
ตา	-1244
ก็ตาม	-1245
▁ไร้	-1246
ec	-1247
▁เกิดขึ้น	-1248
อดภัย	-1249
▁ญี่ปุ่น	-1250
หนัง	-1251
ต้น	-1252
บค	-1253
▁เหร	-1254
เคร	-1255
▁ยู	-1256
ิ้ง	-1257
▁พื้นที่	-1258
▁โต๊ะ	-1259
▁V	-1260
▁ปั	-1261
▁ใด	-1262
.9	-1263
▁ดีกว่า	-1264
▁สต	-1265
▁ธรรม	-1266
แต่ง	-1267
▁หู	-1268
▁ชั่ว	-1269
ลอง	-1270
il	-1271
▁ดอลลาร์	-1272
าสตร์	-1273
ักร	-1274
▁ตั้งแต่	-1275
▁อ่อน	-1276
▁ดาว	-1277
bu	-1278
▁รวด	-1279
เดีย	-1280
▁แม้	-1281
ใต้	-1282
▁กิจ	-1283
▁ความร้อน	-1284
อื่น	-1285
▁เอกสาร	-1286
▁รวดเร็ว	-1287
มาย	-1288
▁ดูแลรักษา	-1289
▁มากมาย	-1290
นอก	-1291
▁แสง	-1292
ณี	-1293
เอง	-1294
▁24	-1295
ยายาม	-1296
▁เพื่อให้	-1297
▁เหตุ	-1298
เห็น	-1299
ูน	-1300
ีม	-1301
▁กี่	-1302
ชับ	-1303
▁16	-1304
▁มาจาก	-1305
▁สไตล์	-1306
กํา	-1307
▁แทน	-1308
▁จับ	-1309
ter	-1310
▁กระจ	-1311
ข้าง	-1312
▁อ่ะ	-1313
▁ตั	-1314
แฟ	-1315
▁ห้าม	-1316
▁แอ	-1317
ฟ์	-1318
▁อัตรา	-1319
▁กอง	-1320
▁&	-1321
ed	-1322
AL	-1323
บคุม	-1324
สนใจ	-1325
▁แพ็ค	-1326
▁ต่ํา	-1327
▁ระยะ	-1328
▁น่าร	-1329
▁มีประ	-1330
โมง	-1331
▁ปัญหา	-1332
▁ความทน	-1333
ะล	-1334
แนะนํา	-1335
▁ขา	-1336
▁ความทนทาน	-1337
ิร์	-1338
▁ครับ	-1339
แก	-1340
et	-1341
้ว่า	-1342
ุล	-1343
ยืด	-1344
โร	-1345
▁มล	-1346
▁แข็งแรง	-1347
▁จ่าย	-1348
us	-1349
▁กลุ่ม	-1350
▁รายการ	-1351
▁รูปแบบ	-1352
เนื่อง	-1353
▁สง	-1354
▁เอส	-1355
▁พี่	-1356
▁ค่อน	-1357
▁รหัส	-1358
บาล	-1359
นิ	-1360
ของ	-1361
บูร	-1362
▁บริการ	-1363
▁ความช	-1364
id	-1365
▁50	-1366
▁c	-1367
▁ต่างๆ	-1368
ัญญา	-1369
บูรณ์	-1370
▁ไทย	-1371
▁อย่างไรก็ตาม	-1372
▁เมือง	-1373
กล้	-1374
๋ว	-1375
▁ถน	-1376
เมริ	-1377
ไม้	-1378
▁โค	-1379
▁ยาก	-1380
▁เรียก	-1381
ชน์	-1382
▁หมึก	-1383
โก	-1384
โยชน์	-1385
▁201	-1386
▁ได้มา	-1387
▁แนะนํา	-1388
▁เดินทาง	-1389
วกัน	-1390
▁ฐาน	-1391
▁ชั่วโมง	-1392
เฟ	-1393
ัตร	-1394
▁เพลง	-1395
โด	-1396
ษัท	-1397
ปล	-1398
▁รัก	-1399
buy	-1400
▁Power	-1401
น้อย	-1402
▁เท่าน	-1403
แล้ว	-1404
สัน	-1405
รวม	-1406
▁เชื่อมต่อ	-1407
ัฒนา	-1408
▁ระบาย	-1409
▁แม่	-1410
▁แน่	-1411
▁14	-1412
ก์	-1413
▁รส	-1414
▁ค่อนข้าง	-1415
▁ปัจ	-1416
▁บริษัท	-1417
ลงทุน	-1418
▁อยากได้	-1419
ัล	-1420
สี	-1421
็กซ์	-1422
▁สมบูรณ์	-1423
เวณ	-1424
▁พก	-1425
▁ไม่ต้อง	-1426
▁กิจกรรม	-1427
▁คู่	-1428
▁ลา	-1429
▁บอ	-1430
ตรี	-1431
ก็	-1432
▁แตก	-1433
▁แถ	-1434
▁เฉ	-1435
ที่จะ	-1436
▁บริเวณ	-1437
ดู	-1438
▁สูงสุด	-1439
▁สภาพ	-1440
▁อย่า	-1441
▁โน	-1442
บุ	-1443
ับสน	-1444
▁J	-1445
▁ใกล้	-1446
::	-1447
ะลอ	-1448
หยุ่น	-1449
▁โดน	-1450
ื่อนไ	-1451
▁อี	-1452
คาร	-1453
ภูมิ	-1454
▁กล้อง	-1455
ขา	-1456
จัด	-1457
▁ด้าม	-1458
ี้ย	-1459
▁นั่น	-1460
▁ต่อเนื่อง	-1461
▁ได้ที่	-1462
▁เทียบ	-1463
▁เจ้า	-1464
▁สวยงาม	-1465
▁โซ	-1466
ที่ยว	-1467
ใส	-1468
▁น่ารัก	-1469
▁จริงๆ	-1470
▁ยังคง	-1471
▁ส่วนใหญ่	-1472
▁เป็นการ	-1473
เก็บ	-1474
พร	-1475
▁ตอบ	-1476
สมัย	-1477
▁เคลือบ	-1478
▁ไม	-1479
▁ติดตั้ง	-1480
เด่น	-1481
▁บาท	-1482
เล่น	-1483
คว	-1484
มน	-1485
▁ฤ	-1486
วัสด	-1487
▁×	-1488
▁สั้น	-1489
▁คําแนะนํา	-1490
▁ลี	-1491
▁ปร	-1492
ร็จ	-1493
▁เกินไป	-1494
▁ออกมา	-1495
ri	-1496
▁เอง	-1497
▁ชะลอ	-1498
▁งั้น	-1499
▁พลังงาน	-1500
เซีย	-1501
ถือ	-1502
ส่งออก	-1503
ัป	-1504
▁ครอบ	-1505
ึด	-1506
ou	-1507
▁แล้วก็	-1508
AS	-1509
▁เท่านั้น	-1510
▁ยิ่ง	-1511
""	-1512
▁$	-1513
▁ไลฟ์	-1514
โป	-1515
▁แน่นอน	-1516
▁ขณะ	-1517
สาห	-1518
เรือ	-1519
▁โดด	-1520
ุต	-1521
▁โพ	-1522
▁13	-1523
ยนต์	-1524
จ่าย	-1525
โอ	-1526
▁นอกจากนี้	-1527
▁ปุ่ม	-1528
ขว	-1529
ฤษ	-1530
สไตล์	-1531
ื่ม	-1532
ละคร	-1533
▁พยายาม	-1534
▁บท	-1535
▁หร	-1536
▁ผสม	-1537
▁ผู้หญิง	-1538
สูง	-1539
▁ไลฟ์สไตล์	-1540
ลม	-1541
▁เล็กน้อย	-1542
▁พล	-1543
▁โฟ	-1544
▁Powerbuy	-1545
oo	-1546
▁กาแฟ	-1547
▁เหน	-1548
นัก	-1549
ad	-1550
ผ่าน	-1551
▁พกพา	-1552
▁ตกแต่ง	-1553
▁ดีขึ้น	-1554
ฏิ	-1555
รู้	-1556
▁แม้ว่า	-1557
สาหกรรม	-1558
▁โดดเด่น	-1559
เกิด	-1560
▁เกา	-1561
เจน	-1562
▁สวัสด	-1563
ซื้อ	-1564
▁ตั๋ว	-1565
ละเอียด	-1566
OR	-1567
นาน	-1568
▁ก่อ	-1569
▁ชัด	-1570
▁ตัวละคร	-1571
▁ขาย	-1572
▁นคะ	-1573
▁นม	-1574
ตรฐาน	-1575
ิค	-1576
▁ยก	-1577
▁ในประเทศ	-1578
▁ฮะ	-1579
▁200	-1580
▁สวัสดี	-1581
▁พอดี	-1582
สบ	-1583
▁สก	-1584
▁ข้อความ	-1585
ตาม	-1586
▁เหล็ก	-1587
▁ครีม	-1588
▁สัง	-1589
หนด	-1590
▁สดใส	-1591
▁สัก	-1592
▁ลึก	-1593
▁วันนี้	-1594
▁กระชับ	-1595
▁256	-1596
▁ใช้ได้	-1597
▁ได้มาตรฐาน	-1598
แข็ง	-1599
▁ใช้เวลา	-1600
ทั้ง	-1601
▁รายละเอียด	-1602
เคล	-1603
หลี	-1604
▁แน่ใจ	-1605
▁สหรัฐฯ	-1606
▁หมด	-1607
ํารุง	-1608
ยิ่ง	-1609
ข่าย	-1610
ศาสตร์	-1611
แท	-1612
ับสนุน	-1613
ราว	-1614
▁น้ํามัน	-1615
บริ	-1616
▁วัตต์	-1617
ES	-1618
▁ไห	-1619
▁การส่งออก	-1620
20	-1621
▁เกาหลี	-1622
โพ	-1623
ะเล	-1624
ุทธิ	-1625
IT	-1626
ั่นใจ	-1627
แกร	-1628
▁ไฟฟ้า	-1629
▁ความจุ	-1630
▁จอ	-1631
้อป	-1632
▁อีกครั้ง	-1633
ยม	-1634
▁เนียน	-1635
ไหน	-1636
ิศ	-1637
ุณห	-1638
ครัว	-1639
▁เฉพาะ	-1640
▁ภาษา	-1641
▁ปกป	-1642
คืน	-1643
ไล	-1644
บน	-1645
▁การส	-1646
▁สาขา	-1647
▁มีความ	-1648
▁เดีย	-1649
เลือก	-1650
โน้ม	-1651
กระท	-1652
▁บุ	-1653
▁แก่	-1654
ุณหภูมิ	-1655
▁บํารุง	-1656
▁เปล	-1657
▁น่าสนใจ	-1658
▁ผิดหวัง	-1659
เมริกา	-1660
▁ชา	-1661
▁ช้อป	-1662
่งข	-1663
▁การรับ	-1664
▁เท้า	-1665
างใจ	-1666
้วางใจ	-1667
▁แก้ว	-1668
▁คนอื่น	-1669
AT	-1670
▁ไม้	-1671
▁อุณหภูมิ	-1672
▁เช่นกัน	-1673
▁หวัง	-1674
หยัด	-1675
▁ลําลอง	-1676
RI	-1677
▁ยืด	-1678
▁p	-1679
▁อู	-1680
วี	-1681
▁ว่าง	-1682
▁ยึด	-1683
▁ละเอียด	-1684
▁ฝา	-1685
กําลัง	-1686
เหน	-1687
ig	-1688
▁เดียวกัน	-1689
บิน	-1690
▁ลุค	-1691
▁การลงทุน	-1692
ภาค	-1693
เชื่อ	-1694
▁รัฐบาล	-1695
▁ที่มา	-1696
▁สนับสนุน	-1697
▁ตรวจสอบ	-1698
▁ขนาดใหญ่	-1699
ชี	-1700
▁ใส	-1701
▁เติม	-1702
▁การทํางาน	-1703
โลก	-1704
10	-1705
▁เพื่อน	-1706
▁ประหยัด	-1707
▁_	-1708
▁การรับประกัน	-1709
เสีย	-1710
ra	-1711
▁ลิตร	-1712
▁ไว้วางใจ	-1713
▁USB	-1714
▁อิ	-1715
สงค์	-1716
▁น่าจะ	-1717
▁ต้น	-1718
ลักษ	-1719
เสียง	-1720
▁ปากกา	-1721
▁i	-1722
ไฟฟ้า	-1723
พิเศษ	-1724
▁–	-1725
▁40	-1726
▁ดูดี	-1727
▁โดนใจ	-1728
▁17	-1729
ันธ์	-1730
▁สูตร	-1731
▁เรื่องราว	-1732
▁ดูเหมือนว่า	-1733
▁ลัง	-1734
▁ความเร็ว	-1735
มพู	-1736
▁ตลาด	-1737
พล	-1738
▁ทั้งสอง	-1739
▁ร้อน	-1740
▁ความคิด	-1741
▁มูล	-1742
▁ปกติ	-1743
▁สีสัน	-1744
▁ที่ไหน	-1745
เข้า	-1746
▁สร	-1747
▁เปอร์	-1748
▁กิน	-1749
▁ยังมี	-1750
▁แด	-1751
เที่ยว	-1752
▁โก	-1753
▁ลื่น	-1754
ฟัง	-1755
▁ถุง	-1756
สิน	-1757
he	-1758
เช่า	-1759
▁ภูมิ	-1760
▁ค้น	-1761
▁ได	-1762
สต์	-1763
▁แท้	-1764
่งขัน	-1765
็อก	-1766
▁เง	-1767
▁หน่วย	-1768
AC	-1769
ตก	-1770
▁ประกอบด้วย	-1771
โนม	-1772
ma	-1773
▁ควบคุม	-1774
ชื่น	-1775
▁ทันสมัย	-1776
เอก	-1777
▁ทุกคน	-1778
ึกษา	-1779
▁ตู้	-1780
▁กรอง	-1781
▁อากาศ	-1782
้าร	-1783
๊ก	-1784
▁s	-1785
เพล	-1786
▁ขั้น	-1787
นุ	-1788
▁ซิป	-1789
โนมัติ	-1790
เนิน	-1791
้ะ	-1792
เหนือ	-1793
▁ที่สอง	-1794
▁ถ่าย	-1795
▁ชาย	-1796
ันท	-1797
หอม	-1798
▁เอว	-1799
▁จ้ะ	-1800
ดาห์	-1801
▁ปลาย	-1802
ว่าง	-1803
▁สัน	-1804
กล่าว	-1805
▁ฝุ่น	-1806
ัปดาห์	-1807
▁ธรรมชาติ	-1808
▁เหรอ	-1809
▁โปรด	-1810
ลักษณ์	-1811
▁+	-1812
▁กรณี	-1813
เรา	-1814
▁ชัดเจน	-1815
สาว	-1816
▁แก้	-1817
ื่อนไหว	-1818
ทัพ	-1819
ราช	-1820
จับ	-1821
RO	-1822
▁บางอย่าง	-1823
▁ชาว	-1824
os	-1825
ผิด	-1826
ทษ	-1827
▁รวมถึง	-1828
สรร	-1829
ชัด	-1830
▁ชีวิต	-1831
แทก	-1832
▁กก	-1833
▁ถูกต้อง	-1834
▁ดําเนิน	-1835
▁สห	-1836
ch	-1837
▁มอ	-1838
ี่ยง	-1839
▁ฟอก	-1840
▁ดอก	-1841
▁ขนาดเล็ก	-1842
▁๎	-1843
รม	-1844
หร่	-1845
▁ถือ	-1846
ยนตร์	-1847
▁ความน	-1848
IC	-1849
ศา	-1850
▁ประสิทธิภาพ	-1851
50	-1852
ชีวิต	-1853
▁SP	-1854
▁เฟ	-1855
▁กําหนด	-1856
▁โจ	-1857
▁สุข	-1858
เจ้า	-1859
ไหร่	-1860
▁หูฟัง	-1861
▁บาร์	-1862
and	-1863
▁แยก	-1864
▁ปลอดภัย	-1865
▁วิธีการ	-1866
▁ก็ได้	-1867
▁ด้านใน	-1868
▁ออน	-1869
▁ระบุ	-1870
▁ที่นี่	-1871
พิมพ์	-1872
▁เกาะ	-1873
ธิบาย	-1874
--	-1875
ท้าย	-1876
▁รู	-1877
▁ยาวนาน	-1878
ไม	-1879
▁ที่อยู่	-1880
ขวัญ	-1881
บั	-1882
▁ระบายอากาศ	-1883
▁ขาด	-1884
▁ถนน	-1885
▁ยุ	-1886
▁เพศ	-1887
▁กันน้ํา	-1888
▁ซับ	-1889
▁เคส	-1890
▁ถอด	-1891
▁จนถึง	-1892
บก	-1893
หนังสือ	-1894
▁จัดเก็บ	-1895
ษตร	-1896
สาย	-1897
สบาย	-1898
▁ขับ	-1899
ายน	-1900
▁ํ	-1901
ูนย์	-1902
▁ล้าง	-1903
▁อัต	-1904
วะ	-1905
▁ลวด	-1906
ีย์	-1907
▁ดูด	-1908
▁เฮ	-1909
▁ต่างกัน	-1910
▁21	-1911
ED	-1912
▁ล่ะ	-1913
▁วิ่ง	-1914
▁แจ	-1915
็อค	-1916
▁..	-1917
▁มองหา	-1918
ิวเตอร์	-1919
ัตว์	-1920
โยบาย	-1921
▁การ์	-1922
ธาร	-1923
จักร	-1924
▁เอ็กซ์	-1925
▁ฟังก์	-1926
▁ใช้กับ	-1927
▁บ้าง	-1928
▁ประสบ	-1929
▁นโยบาย	-1930
▁นัด	-1931
▁ล่า	-1932
อนด์	-1933
เปลี่ยน	-1934
▁มุม	-1935
โทษ	-1936
ir	-1937
ี๋	-1938
▁ชะลอตัว	-1939
มพิวเตอร์	-1940
▁||	-1941
ร้อย	-1942
▁ทุกอย่าง	-1943
▁กด	-1944
▁ใต้	-1945
่องเที่ยว	-1946
▁สัปดาห์	-1947
เมือง	-1948
▁เครื่องด	-1949
▁ออกจาก	-1950
▁บี	-1951
▁โม	-1952
▁สนาม	-1953
▁คม	-1954
โต	-1955
▁คริ	-1956
▁ทันที	-1957
ผสม	-1958
▁ต่อไป	-1959
▁ดังกล่าว	-1960
▁เพล	-1961
▁เป็นเรื่อง	-1962
อร์ต	-1963
▁มีด	-1964
ีวิว	-1965
▁เจอ	-1966
▁ตาข่าย	-1967
ฏิบัติ	-1968
▁การพ	-1969
รอง	-1970
▁รีวิว	-1971
เศรษฐกิจ	-1972
▁รวมทั้ง	-1973
▁เผ	-1974
▁สี่	-1975
um	-1976
▁ฟ้า	-1977
ัญญาณ	-1978
▁ผู้ใหญ่	-1979
แห	-1980
▁อุต	-1981
▁ตุ	-1982
▁เดี๋	-1983
▁แช	-1984
▁22	-1985
แลนด์	-1986
▁กองทัพ	-1987
รด	-1988
าะห์	-1989
▁พวกเรา	-1990
▁ด้านหน้า	-1991
▁ปรับตัว	-1992
▁สมบูรณ์แบบ	-1993
ent	-1994
ดัน	-1995
▁St	-1996
▁ทางการ	-1997
ไข	-1998
เคราะห์	-1999
▁อัตโนมัติ	-2000
หาย	-2001
▁มะ	-2002
un	-2003
แทน	-2004
▁กี	-2005
▁ตัวเอง	-2006
▁):1	-2007
สุทธิ	-2008
▁มูลค่า	-2009
สาน	-2010
▁ลักษ	-2011
▁มั่นใจ	-2012
▁23	-2013
▁ผู	-2014
IL	-2015
▁เดี๋ยว	-2016
▁แอล	-2017
▁อัป	-2018
▁อุตสาหกรรม	-2019
สินค้า	-2020
▁น่ะ	-2021
▁ฮ่า	-2022
▁เข้าไป	-2023
็อป	-2024
๎อย	-2025
ut	-2026
▁ของขวัญ	-2027
บอล	-2028
▁ด้านบน	-2029
ลิม	-2030
▁มาถึง	-2031
▁ภาพยนตร์	-2032
สุข	-2033
▁ฤด	-2034
ขาย	-2035
▁ลักษณะ	-2036
เลส	-2037
▁เขียว	-2038
▁สิ	-2039
ังก	-2040
แกรม	-2041
ul	-2042
▁ไหล	-2043
▁ก่อนหน้า	-2044
วรร	-2045
เสน	-2046
▁ทําไม	-2047
▁องศา	-2048
▁ปกป้อง	-2049
ST	-2050
▁60	-2051
ผิว	-2052
▁ส่วนผสม	-2053
▁วิน	-2054
ton	-2055
▁แนะ	-2056
zon	-2057
▁254	-2058
▁จา	-2059
▁คอมพิวเตอร์	-2060
▁หรือไม่	-2061
▁โปรแกรม	-2062
่อม	-2063
รัก	-2064
▁ครั้งแรก	-2065
▁องค์	-2066
▁พัน	-2067
▁นั่ง	-2068
▁จัดการ	-2069
▁เพิ่ง	-2070
ฬา	-2071
▁บัตร	-2072
ิกา	-2073
ืม	-2074
▁ทร	-2075
แพ	-2076
เย็น	-2077
แนว	-2078
อลเล	-2079
มั่น	-2080
แสดง	-2081
▁หยุด	-2082
▁เข้ม	-2083
แจ	-2084
ใด	-2085
ประสงค์	-2086
▁เดิม	-2087
▁ความรู้	-2088
▁ด้านหลัง	-2089
▁ให้การ	-2090
นาม	-2091
▁มีประสิทธิภาพ	-2092
รถ	-2093
▁เข้าใจ	-2094
▁ตามที่	-2095
ภค	-2096
▁เป็นไป	-2097
แป	-2098
▁ซา	-2099
▁กรัม	-2100
▁แย่	-2101
ุรก	-2102
▁เรียน	-2103
ประโยชน์	-2104
ฬิกา	-2105
ยืดหยุ่น	-2106
▁ความยืดหยุ่น	-2107
▁'	-2108
จุบัน	-2109
▁ยา	-2110
EL	-2111
ปี	-2112
การใช้งาน	-2113
ัข	-2114
▁อายุการใช้งาน	-2115
ขาว	-2116
▁ดับ	-2117
ลึก	-2118
เราะ	-2119
▁ที่นั่ง	-2120
ไง	-2121
นเลส	-2122
ระดับ	-2123
▁เป็นที่	-2124
อเมริกา	-2125
▁ติ	-2126
▁เมตร	-2127
แข่งขัน	-2128
▁กิ	-2129
▁ยืน	-2130
นาการ	-2131
▁(1	-2132
ประมาณ	-2133
ประกอบ	-2134
▁สาธาร	-2135
ใหม่	-2136
▁เกษตร	-2137
▁ml	-2138
▁สุขภาพ	-2139
▁สถานที่	-2140
▁เสร็จ	-2141
▁เก่า	-2142
▁เรียบร้อย	-2143
▁วง	-2144
สาม	-2145
▁จําเป็น	-2146
ังกฤษ	-2147
▁สิง	-2148
โรป	-2149
▁สุน	-2150
▁."	-2151
▁กรอบ	-2152
▁ตํา	-2153
▁ฝึก	-2154
▁ฟรี	-2155
▁ฟอง	-2156
ท่องเที่ยว	-2157
▁ทิ้ง	-2158
ซี	-2159
เย็บ	-2160
▁ตน	-2161
▁ดิน	-2162
ครอง	-2163
▁รายงาน	-2164
แนวโน้ม	-2165
▁32	-2166
▁คลาส	-2167
ุ่งนี้	-2168
ก่อน	-2169
▁มีแนวโน้ม	-2170
▁โช	-2171
▁ปัจจุบัน	-2172
พาย	-2173
▁35	-2174
ection	-2175
▁ลูกค้า	-2176
▁โบ	-2177
▁d	-2178
▁เข้ากับ	-2179
one	-2180
ิฟ	-2181
▁โดยรวม	-2182
▁ร๎อย	-2183
▁เริ่มต้น	-2184
โม	-2185
เกิน	-2186
ดุล	-2187
สิ่ง	-2188
▁ปั่น	-2189
od	-2190
รัฐ	-2191
ทัด	-2192
▁ธุรก	-2193
แดง	-2194
เสนอ	-2195
ช์	-2196
ขน	-2197
EC	-2198
▁80	-2199
▁สุนัข	-2200
▁โครงการ	-2201
ไลน์	-2202
ge	-2203
▁ตัดเย็บ	-2204
นู	-2205
▁สิน	-2206
▁ทีม	-2207
▁รถยนต์	-2208
▁In	-2209
▁นึง	-2210
pp	-2211
▁ทราบ	-2212
▁ทาน	-2213
แปลง	-2214
▁นาฬิกา	-2215
▁มัก	-2216
เรือน	-2217
▁มีความสุข	-2218
▁36	-2219
▁ขอโทษ	-2220
▁กระแทก	-2221
▁สหรัฐอเมริกา	-2222
ทรง	-2223
ET	-2224
▁กระด	-2225
แค	-2226
▁สนใจ	-2227
นักงาน	-2228
ell	-2229
ขีด	-2230
▁สมา	-2231
ยิน	-2232
▁สตาร์	-2233
ผ่านมา	-2234
▁ที่ผ่านมา	-2235
▁นี	-2236
em	-2237
▁สะดวกสบาย	-2238
▁ฟุต	-2239
บ้าน	-2240
▁ความชุ่ม	-2241
ตรง	-2242
โภค	-2243
คราม	-2244
ันทึก	-2245
▁บันทึก	-2246
เดิน	-2247
▁ดวง	-2248
ีบ	-2249
▁คลิก	-2250
▁ทอง	-2251
▁กุ	-2252
▁ผู้ชาย	-2253
▁ดึง	-2254
im	-2255
ดิน	-2256
โปรง	-2257
▁กะ	-2258
art	-2259
▁ตะวัน	-2260
วัติ	-2261
▁ข้าว	-2262
▁ขอให้	-2263
▁หนัก	-2264
▁แก้ไข	-2265
▁ซิ	-2266
▁f	-2267
▁จากนั้น	-2268
เชีย	-2269
▁หัวเราะ	-2270
▁การแข่งขัน	-2271
▁ณ	-2272
▁การประ	-2273
▁ค้นหา	-2274
▁เรือ	-2275
ิ้	-2276
▁ควรจะ	-2277
▁ทา	-2278
▁อบ	-2279
▁เสียบ	-2280
▁ชี	-2281
ดาย	-2282
oly	-2283
ชื่อ	-2284
▁ท่า	-2285
▁อัล	-2286
▁สเป	-2287
▁ง่ายดาย	-2288
▁น้ํายา	-2289
กระทบ	-2290
▁45	-2291
▁หมุน	-2292
▁นิว	-2293
▁แผน	-2294
tic	-2295
ังวล	-2296
▁สีน้ํา	-2297
ทะ	-2298
▁กลับมา	-2299
อร์ด	-2300
AM	-2301
▁สู่	-2302
▁เหลือ	-2303
▁เหตุการณ์	-2304
▁ทด	-2305
▁ตัวเลือก	-2306
▁อิส	-2307
โคร	-2308
ตาล	-2309
▁ยิ่งขึ้น	-2310
▁คละ	-2311
▁ภายใต้	-2312
▁Ama	-2313
ปลอดภัย	-2314
ุคคล	-2315
▁เหตุผล	-2316
ตู	-2317
ิดเพล	-2318
▁เข้าร	-2319
ิดเพลิน	-2320
▁ขวด	-2321
▁คณะ	-2322
▁โอลิม	-2323
นส์	-2324
▁ฟังก์ชั่น	-2325
▁จบ	-2326
▁ครอบครัว	-2327
วิจ	-2328
ุธ	-2329
▁ความปลอดภัย	-2330
▁คลาสส	-2331
▁ยุโรป	-2332
▁เยอะ	-2333
▁Amazon	-2334
ดิ	-2335
▁สิ้น	-2336
ีป	-2337
ชื้น	-2338
▁ธุรกิจ	-2339
▁Bl	-2340
▁ดิ	-2341
▁ความรู้สึก	-2342
▁เร่ง	-2343
▁ON	-2344
▁อร	-2345
▁"""	-2346
▁ผู้เขียน	-2347
▁ชิ	-2348
▁แหล	-2349
▁แปรง	-2350
of	-2351
▁โอลิมป	-2352
ay	-2353
US	-2354
▁การพัฒนา	-2355
▁เกี่ยว	-2356
▁เท่าไหร่	-2357
ver	-2358
ยาน	-2359
▁เทป	-2360
ชั้น	-2361
▁แป้ง	-2362
OL	-2363
▁กระโปรง	-2364
อายุ	-2365
ชุม	-2366
▁จักร	-2367
▁:::	-2368
▁กล่าวว่า	-2369
ปะ	-2370
ฎหมาย	-2371
เซอร์	-2372
ากร	-2373
▁::::	-2374
ุทธ	-2375
▁ขว	-2376
▁ศูนย์	-2377
ศึกษา	-2378
▁โอลิมปิก	-2379
▁ฯ	-2380
▁ออนไลน์	-2381
▁แฟน	-2382
ทย์	-2383
▁ความนุ่ม	-2384
มป	-2385
▁ความสูง	-2386
รัด	-2387
ัมพ	-2388
op	-2389
▁ปรับระดับ	-2390
▁ภูมิภาค	-2391
ิติ	-2392
ระบบ	-2393
▁26	-2394
▁เครื่องดื่ม	-2395
▁ฟอกขาว	-2396
▁อธิบาย	-2397
▁เวอร์	-2398
เบี้ย	-2399
ผน	-2400
▁พัฒนา	-2401
▁ยังไง	-2402
▁ทุกวัน	-2403
▁ร่วมกับ	-2404
▁นอน	-2405
▁วัตถ	-2406
th	-2407
▁เฉลี่ย	-2408
▁28	-2409
เหลือ	-2410
▁สัตว์	-2411
▁คู	-2412
▁เป็นพิเศษ	-2413
ปก	-2414
แค่	-2415
▁คอลเล	-2416
▁SAN	-2417
ur	-2418
ีโอ	-2419
IS	-2420
▁หม้อ	-2421
▁การเขียน	-2422
นิยม	-2423
▁เก้า	-2424
▁เหรีย	-2425
▁ซอ	-2426
▁อันนี้	-2427
▁เหรียญ	-2428
▁โครงสร้าง	-2429
สู่	-2430
▁วิด	-2431
สินใจ	-2432
ธรรมชาติ	-2433
▁สุดท้าย	-2434
▁รักษา	-2435
▁คาดหวัง	-2436
▁เหนือ	-2437
▁เพียงแค่	-2438
▁เกือบ	-2439
ส้	-2440
▁ชม	-2441
▁พื้นผิว	-2442
โก้	-2443
พอ	-2444
▁ฝ่าย	-2445
วิ	-2446
ลล์	-2447
▁หด	-2448
ID	-2449
▁วา	-2450
▁สงคราม	-2451
เรีย	-2452
▁ประชา	-2453
▁กลาย	-2454
พื้น	-2455
นาคาร	-2456
ite	-2457
▁!!	-2458
▁ผลกระทบ	-2459
▁แสน	-2460
ht	-2461
ุย	-2462
กัด	-2463
▁แพง	-2464
▁คิว	-2465
▁ปรา	-2466
บริการ	-2467
ห้อ	-2468
OM	-2469
กําลังกาย	-2470
▁เพลิดเพลิน	-2471
▁ฟิล	-2472
รส	-2473
▁รอยขีด	-2474
ข่วน	-2475
ียร์	-2476
▁เหมือนกัน	-2477
บประมาณ	-2478
▁วิดีโอ	-2479
▁อ่านหนังสือ	-2480
▁พี	-2481
▁หรู	-2482
หะ	-2483
▁บา	-2484
รั่ง	-2485
ENT	-2486
บาง	-2487
▁ลู	-2488
▁หุ้ม	-2489
ีวี	-2490
ind	-2491
▁ซอง	-2492
เลข	-2493
▁มห	-2494
▁เสม	-2495
คชั่น	-2496
▁กระบ	-2497
▁คมชัด	-2498
▁ริม	-2499
▁รอยขีดข่วน	-2500
▁จัง	-2501
▁เป็นเวลา	-2502
ข้อง	-2503
RIO	-2504
เดียว	-2505
จัย	-2506
เกอร์	-2507
▁ธนาคาร	-2508
▁ล้อ	-2509
iz	-2510
▁ลบ	-2511
oc	-2512
▁หลุด	-2513
▁รีด	-2514
▁ตัวอย่าง	-2515
เพลง	-2516
กด	-2517
หน้าที่	-2518
▁พา	-2519
▁ไข	-2520
▁SANRIO	-2521
▁เชิง	-2522
ผู้	-2523
st	-2524
สัง	-2525
เนียม	-2526
ัพย์	-2527
KS	-2528
▁โป	-2529
▁ปัจจัย	-2530
▁สิทธิ	-2531
ล่า	-2532
▁ทะเล	-2533
▁อินเดีย	-2534
มนตรี	-2535
▁ที่แล้ว	-2536
▁คอน	-2537
แหน	-2538
▁รหัสสินค้า	-2539
ve	-2540
ard	-2541
ี่ยว	-2542
ลด	-2543
▁ภาวะ	-2544
▁29	-2545
▁กระจก	-2546
▁คืนนี้	-2547
แนน	-2548
▁กรุง	-2549
▁70	-2550
▁กีฬา	-2551
▁เอสเตอร์	-2552
▁เซน	-2553
ยัน	-2554
▁ดั	-2555
▁(2	-2556
ENC	-2557
▁ด้านนอก	-2558
▁หลอด	-2559
▁ไร้สาย	-2560
▁ไน	-2561
▁ทิศ	-2562
▁พรุ่งนี้	-2563
ัมพันธ์	-2564
▁ยี่	-2565
แหน่ง	-2566
80	-2567
▁ซ้ํา	-2568
LE	-2569
▁เสน	-2570
▁สอด	-2571
▁Section	-2572
30	-2573
▁บัญ	-2574
▁เสมอ	-2575
ชัน	-2576
▁ครัว	-2577
ปรุง	-2578
▁ทางเศรษฐกิจ	-2579
▁สเต	-2580
ควร	-2581
▁สถา	-2582
▁อาร์	-2583
▁โลหะ	-2584
▁27	-2585
▁ไมโคร	-2586
▁ได้ยิน	-2587
▁บล	-2588
▁สะอาด	-2589
▁คริสต์	-2590
▁HD	-2591
▁ร้านอาหาร	-2592
าคม	-2593
▁ซอน	-2594
โพง	-2595
▁อินเท	-2596
▁ประตู	-2597
เตร	-2598
อกเบี้ย	-2599
▁สป	-2600
▁โอ้	-2601
▁บางครั้ง	-2602
▁สัญญาณ	-2603
▁สแต	-2604
▁แดง	-2605
าดอกเบี้ย	-2606
▁อัตราดอกเบี้ย	-2607
up	-2608
ล์ม	-2609
▁ประสบการณ์	-2610
▁แถบ	-2611
▁แบ่ง	-2612
▁ท้อง	-2613
▁กระจาย	-2614
▁MAR	-2615
▁ยืนยัน	-2616
▁เข้ามา	-2617
▁วัย	-2618
เดิม	-2619
▁ยอม	-2620
▁ห้า	-2621
▁หาย	-2622
เดอร์	-2623
▁g	-2624
▁หลังจากที่	-2625
▁หดตัว	-2626
ิตย์	-2627
▁สายไฟ	-2628
▁31	-2629
อร์เน	-2630
▁รสชาติ	-2631
▁เกี่ยวข้อง	-2632
▁ล็อค	-2633
▁ของเล่น	-2634
▁เยอร	-2635
▁วัด	-2636
▁มาตรา	-2637
เร็จ	-2638
ถ่าย	-2639
ตอน	-2640
▁คอลเลคชั่น	-2641
▁โฟม	-2642
▁เก้าอ	-2643
ชนี	-2644
▁ไส้	-2645
ine	-2646
▁การเคล	-2647
แก่	-2648
สําคัญ	-2649
▁รน	-2650
▁ก้าว	-2651
▁สาธารณ	-2652
▁เอเชีย	-2653
ระวัง	-2654
▁Sp	-2655
▁วิทย	-2656
▁t	-2657
▁ส้น	-2658
▁แว	-2659
▁การปรับ	-2660
ุ้น	-2661
ฆษ	-2662
▁ปฏิบัติ	-2663
ip	-2664
▁เก้าอี้	-2665
UR	-2666
▁ประวัติ	-2667
▁ยืดหยุ่น	-2668
รูป	-2669
ล้อม	-2670
▁ยิน	-2671
ฝ้าย	-2672
ง่าย	-2673
▁ผ้าฝ้าย	-2674
ธาน	-2675
▁ส่งผล	-2676
▁พฤ	-2677
▁เคลื่อน	-2678
บับ	-2679
▁ซ่อม	-2680
▁กิโล	-2681
ูร้อน	-2682
ack	-2683
คลุม	-2684
ั๊ก	-2685
▁ประจํา	-2686
▁ธรรมดา	-2687
▁ตอนที่	-2688
▁จิ	-2689
▁รถเช่า	-2690
otton	-2691
▁ปริมาณสุทธิ	-2692
▁มือถือ	-2693
▁:|	-2694
▁ฤดูร้อน	-2695
▁นําเข้า	-2696
▁รูปภาพ	-2697
▁ใช้จ่าย	-2698
▁Y	-2699
▁55	-2700
าวุธ	-2701
▁อิต	-2702
▁รัด	-2703
▁ออส	-2704
้วน	-2705
▁ปล่อย	-2706
▁หอม	-2707
เสริม	-2708
▁เย็บ	-2709
ลับ	-2710
▁กาว	-2711
สัย	-2712
สนาน	-2713
ราคา	-2714
▁โฆษ	-2715
▁อร่อย	-2716
เอกชน	-2717
▁สนุกสนาน	-2718
▁ตี	-2719
เกินไป	-2720
▁รูปทรง	-2721
▁อนุ	-2722
▁ฟิ	-2723
▁ทีวี	-2724
▁แปล	-2725
▁ช่วงเวลา	-2726
▁ปลั๊ก	-2727
▁มากเกินไป	-2728
ึม	-2729
▁สามี	-2730
▁ราช	-2731
ION	-2732
▁น้อยกว่า	-2733
▁วินาที	-2734
ารา	-2735
ทรวง	-2736
รรค	-2737
▁ดัชนี	-2738
▁ช้า	-2739
ชิก	-2740
▁แมว	-2741
ENCER	-2742
▁SPENCER	-2743
ap	-2744
ิทย	-2745
ืช	-2746
▁90	-2747
▁พับ	-2748
▁สกัด	-2749
▁ชิ้นส่วน	-2750
ce	-2751
เฟ้อ	-2752
จร	-2753
▁เครื่องมือ	-2754
▁สีแดง	-2755
▁ไฟล์	-2756
เบอร์	-2757
▁ท่าน	-2758
▁ร่าง	-2759
▁Pro	-2760
▁ศิล	-2761
▁พัก	-2762
ess	-2763
▁เบล	-2764
ขัด	-2765
▁จํานวนมาก	-2766
▁ลวดลาย	-2767
▁MARKS	-2768
▁อังกฤษ	-2769
▁ลําโพง	-2770
เสร็จ	-2771
▁แฟ้ม	-2772
บาท	-2773
สรรค์	-2774
▁ธง	-2775
▁ออสเตร	-2776
▁ผง	-2777
▁กระทรวง	-2778
แผน	-2779
นาคม	-2780
▁มีระบบ	-2781
ครู่	-2782
เทา	-2783
▁มาตรการ	-2784
▁พันธ	-2785
▁เชื้อ	-2786
▁TM	-2787
▁ดื่ม	-2788
ชั้นใน	-2789
ab	-2790
ปเป	-2791
▁Ch	-2792
บกวน	-2793
เฉ	-2794
ทัดรัด	-2795
,000	-2796
▁Cl	-2797
▁เช่นเดีย	-2798
ธ์	-2799
▁ป้าย	-2800
โซ	-2801
▁ภาคเอกชน	-2802
ี้ยง	-2803
▁จด	-2804
▁ฐานะ	-2805
▁เงินเฟ้อ	-2806
าร์ท	-2807
หน่าย	-2808
สิทธิ์	-2809
ook	-2810
ค่อย	-2811
ัศ	-2812
▁ฝรั่ง	-2813
▁เช็ค	-2814
▁ขึ้นอยู่	-2815
▁เป็นหนึ่ง	-2816
เมล	-2817
เสื้อ	-2818
ระเบ	-2819
▁แฮ	-2820
▁ฟื้น	-2821
▁อ้าง	-2822
▁ยุค	-2823
▁ตื่น	-2824
วดล้อม	-2825
้วย	-2826
▁ทําได้	-2827
▁ว่าการ	-2828
ํานา	-2829
▁สถานการณ์	-2830
ควบคุม	-2831
▁สาว	-2832
จัก	-2833
สนอง	-2834
▁ปราศ	-2835
▁สูญ	-2836
▁ลูกสาว	-2837
เศส	-2838
▁IN	-2839
ุนแรง	-2840
อร์ท	-2841
▁ลงตัว	-2842
▁มักจะ	-2843
ั่งซื้อ	-2844
▁ซู	-2845
▁ตอบสนอง	-2846
▁ที่นั่น	-2847
▁เตร	-2848
▁Re	-2849
▁ฝรั่งเศส	-2850
▁ก่อสร้าง	-2851
▁บัญชี	-2852
▁การสั่งซื้อ	-2853
พลาด	-2854
▁ประธาน	-2855
▁มอเตอร์	-2856
▁ไม่ค่อย	-2857
▁เตา	-2858
สก	-2859
ล่าง	-2860
ING	-2861
ฟื้น	-2862
▁คาร์	-2863
▁หว	-2864
ต่าง	-2865
เต้น	-2866
เหลือง	-2867
UT	-2868
▁ขณะที่	-2869
IG	-2870
▁ครบ	-2871
▁บางที	-2872
แดด	-2873
▁บางคน	-2874
ณาจักร	-2875
▁โดยตรง	-2876
คู่	-2877
็กซ	-2878
ation	-2879
▁ยี่ห้อ	-2880
ข้อ	-2881
▁ขึ้นอยู่กับ	-2882
▁การเคลื่อนไหว	-2883
▁ลูกชาย	-2884
ไหม	-2885
▁แจ้ง	-2886
▁ปราศจาก	-2887
▁ส่วนลด	-2888
▁ดีเยี่ยม	-2889
▁เช่า	-2890
▁ความชุ่มชื้น	-2891
▁บางส่วน	-2892
OO	-2893
แวดล้อม	-2894
▁กระบวน	-2895
▁เอกลักษณ์	-2896
KE	-2897
▁ใบเสร็จ	-2898
▁ลิป	-2899
▁ติดต่อ	-2900
▁เมนู	-2901
▁34	-2902
ารณ์	-2903
▁ฟองน้ํา	-2904
▁สาธารณรัฐ	-2905
ังค	-2906
▁b	-2907
▁ทักษ	-2908
▁ทุกครั้ง	-2909
ปิน	-2910
▁ก่อนที่จะ	-2911
แดน	-2912
ต้าน	-2913
▁มีอายุ	-2914
ก่	-2915
แม่	-2916
hone	-2917
▁ที่สาม	-2918
ชนะ	-2919
▁ถาม	-2920
เมตร	-2921
▁เตือน	-2922
▁ส่วนหนึ่ง	-2923
▁เป็นธรรมชาติ	-2924
▁ปราก	-2925
ารณา	-2926
▁000	-2927
▁ตําแหน่ง	-2928
ast	-2929
▁คัน	-2930
▁เขต	-2931
▁กลายเป็น	-2932
▁กลิ่นหอม	-2933
▁สแตนเลส	-2934
▁Pl	-2935
▁การฟื้น	-2936
▁ไฮ	-2937
▁()	-2938
▁หนู	-2939
▁เวียด	-2940
▁l	-2941
▁เกล	-2942
▁อีกด้วย	-2943
▁ชีส	-2944
▁ยินดี	-2945
TER	-2946
▁ตัดสินใจ	-2947
▁ใจ	-2948
คํา	-2949
ังคับ	-2950
▁พื้นฐาน	-2951
▁ทําลาย	-2952
▁หมวด	-2953
▁สํานักงาน	-2954
คอ	-2955
ke	-2956
▁น้ําตาล	-2957
าลัย	-2958
▁ร้อง	-2959
▁ล่าสุด	-2960
▁เข้าถึง	-2961
▁แท้จริง	-2962
):	-2963
▁Sh	-2964
ที่สุด	-2965
กาศ	-2966
▁ทักษะ	-2967
▁อินโด	-2968
ชีพ	-2969
▁ก็ตาม	-2970
▁w	-2971
▁เลนส์	-2972
▁ฯล	-2973
▁วี	-2974
▁(3	-2975
▁ฯลฯ	-2976
▁โฆษณา	-2977
เว้น	-2978
นย	-2979
▁รม	-2980
ต่อไป	-2981
▁โลโก้	-2982
▁แหล่ง	-2983
▁ได้แก่	-2984
▁มีประโยชน์	-2985
โทร	-2986
รียบ	-2987
ร้าย	-2988
คส์	-2989
▁รัง	-2990
▁เดอะ	-2991
▁ขึ้นไป	-2992
▁สว	-2993
▁เป้า	-2994
▁ฟุตบอล	-2995
ท้อน	-2996
ํานาจ	-2997
ort	-2998
ry	-2999
ight	-3000
RE	-3001
▁เช็ด	-3002
▁อิสระ	-3003
▁ดําเนินการ	-3004
▁เช่นเดียวกับ	-3005
▁ระยะเวลา	-3006
▁คอม	-3007
▁พรรค	-3008
ใช้จ่าย	-3009
เวอร์	-3010
เลีย	-3011
▁สีช	-3012
▁สถานี	-3013
บดี	-3014
▁เตอร์	-3015
▁สดชื่น	-3016
▁เวียดนาม	-3017
ia	-3018
อุ่น	-3019
▁ทั้งวัน	-3020
▁ประมาณการ	-3021
LY	-3022
ิ้ว	-3023
▁ทหาร	-3024
▁สักครู่	-3025
▁สีชมพู	-3026
▁ความลึก	-3027
ีปาก	-3028
▁ยีน	-3029
if	-3030
เซล	-3031
▁เช้า	-3032
เช่น	-3033
▁ริมฝ	-3034
ตกรรม	-3035
ถิ่น	-3036
▁ฉาย	-3037
ide	-3038
▁เจน	-3039
▁ริมฝีปาก	-3040
นี	-3041
วรรษ	-3042
▁33	-3043
▁เครื่องพิมพ์	-3044
PS	-3045
▁ฤดู	-3046
▁ก้อน	-3047
▁:)	-3048
▁มิติ	-3049
เปลี่ยนแปลง	-3050
▁เบิก	-3051
▁คล้าย	-3052
60	-3053
▁ห่วง	-3054
็อต	-3055
▁เปล่ง	-3056
ion	-3057
▁บุคคล	-3058
▁มาร์	-3059
▁งบประมาณ	-3060
▁ลม	-3061
▁ทุกที่	-3062
ss	-3063
เปล่า	-3064
โพก	-3065
▁เจล	-3066
▁ขั้นตอน	-3067
▁ส่งเสริม	-3068
AB	-3069
รอย	-3070
▁สีน้ําเงิน	-3071
og	-3072
นอน	-3073
▁หลีก	-3074
▁สะท้อน	-3075
ate	-3076
▁เน้น	-3077
▁เลื่อน	-3078
▁คอก	-3079
▁ความชื้น	-3080
▁เข้าสู่	-3081
ปรก	-3082
ทหาร	-3083
ักษร	-3084
▁ความกระ	-3085
นวล	-3086
ํารวจ	-3087
▁ความสาม	-3088
▁ประวัติศาสตร์	-3089
ลํา	-3090
นุษ	-3091
โต้	-3092
▁มนุษ	-3093
็ป	-3094
▁ถัง	-3095
40	-3096
AD	-3097
เกต	-3098
ระเบียบ	-3099
▁เรียบง่าย	-3100
▁เป็นผล	-3101
▁ผน	-3102
▁ไนล	-3103
คลาย	-3104
เลี่ยง	-3105
ัพพ	-3106
ester	-3107
หยุด	-3108
▁การ์ด	-3109
▁UK	-3110
▁....	-3111
เบา	-3112
▁นาง	-3113
nd	-3114
▁75	-3115
▁การต	-3116
▁หลีกเลี่ยง	-3117
ปกติ	-3118
▁ผู้ผลิต	-3119
▁38	-3120
▁ทอ	-3121
▁กระบวนการ	-3122
▁เจ้าของ	-3123
▁ถ้วย	-3124
▁ทั่วโลก	-3125
ฟต์	-3126
▁2560	-3127
ิช	-3128
ขับ	-3129
▁อุด	-3130
▁ผิวหน้า	-3131
▁ความสามารถ	-3132
LU	-3133
ัฒนาการ	-3134
▁หก	-3135
อาณาจักร	-3136
หลด	-3137
12	-3138
▁จุ	-3139
▁@	-3140
ุป	-3141
▁มีนาคม	-3142
▁2559	-3143
▁พอใจ	-3144
▁ประกาศ	-3145
กตา	-3146
▁2558	-3147
▁เสื้อยืด	-3148
าลี	-3149
▁โย	-3150
▁เหมือนกับ	-3151
▁ทุกๆ	-3152
▁คอกลม	-3153
▁กะทัดรัด	-3154
▁ดีใจ	-3155
▁สั่งซื้อ	-3156
โดย	-3157
ัพธ์	-3158
▁เสื้อผ้า	-3159
▁Z	-3160
ลัพธ์	-3161
▁กังวล	-3162
▁เตรียม	-3163
โยน	-3164
▁ต่างประเทศ	-3165
นตรี	-3166
▁ผลลัพธ์	-3167
ub	-3168
แรม	-3169
VC	-3170
ตัน	-3171
▁เท่าที่	-3172
▁เกาหลีเหนือ	-3173
นยํา	-3174
▁การควบคุม	-3175
กระทั่ง	-3176
▁ออสเตรเลีย	-3177
▁หนีบ	-3178
▁เป็นเจ้า	-3179
▁ลิ้น	-3180
มั่นคง	-3181
ญาต	-3182
▁ตลับ	-3183
▁เคลื่อนไหว	-3184
▁ปรากฏ	-3185
▁การเปลี่ยนแปลง	-3186
▁แอน	-3187
▁เข็ม	-3188
▁วันหยุด	-3189
มิตร	-3190
▁เซอร์	-3191
▁โทน	-3192
▁รี่	-3193
▁ให้ได้	-3194
บัตร	-3195
▁เผย	-3196
ESS	-3197
▁รับรอง	-3198
รรยา	-3199
นม	-3200
▁ตะวันออก	-3201
▁2.5	-3202
▁บางสิ่ง	-3203
▁เรียนรู้	-3204
อล์	-3205
▁ยีนส์	-3206
▁ออกกําลังกาย	-3207
▁1.5	-3208
▁กร้าน	-3209
่อนคลาย	-3210
itt	-3211
▁พอร์ต	-3212
RAL	-3213
▁การประชุม	-3214
▁ความแข็ง	-3215
ราฟ	-3216
บัคส์	-3217
ท่า	-3218
----	-3219
▁เนิน	-3220
หนู	-3221
▁ทิศทาง	-3222
▁นิด	-3223
▁สุ	-3224
▁เท่ากับ	-3225
▁สตาร์บัคส์	-3226
▁3.5	-3227
▁2561	-3228
▁ใบหน้า	-3229
▁การเงิน	-3230
▁ซึม	-3231
ENTRAL	-3232
▁เจาะ	-3233
วร์	-3234
▁จิน	-3235
็ท	-3236
ครัฐ	-3237
ิโ	-3238
ทะเล	-3239
▁ซัพพ	-3240
▁ทําการ	-3241
▁หยิบ	-3242
่มาก	-3243
▁แย่มาก	-3244
▁คลิป	-3245
▁ดวงตา	-3246
▁ความม	-3247
แส	-3248
▁ครอบคลุม	-3249
▁สนามบิน	-3250
ชิ	-3251
ื่อย	-3252
▁ล้ํา	-3253
ทับ	-3254
▁ภรรยา	-3255
ชม	-3256
▁พัง	-3257
▁ค่าใช้จ่าย	-3258
OS	-3259
▁พืช	-3260
▁น้อง	-3261
▁เข้าร่วม	-3262
▁นักท่องเที่ยว	-3263
▁):2	-3264
▁อาการ	-3265
▁199	-3266
เต็ม	-3267
▁โรงแรม	-3268
อย่างยิ่ง	-3269
▁จําเป็นต้อง	-3270
PH	-3271
สอ	-3272
▁Poly	-3273
ิกส์	-3274
▁ภาครัฐ	-3275
ทู	-3276
กรัม	-3277
com	-3278
▁สมัย	-3279
มอง	-3280
วาง	-3281
ัคร	-3282
▁ริ้ว	-3283
ax	-3284
ฉัน	-3285
อกัน	-3286
▁แบบนี้	-3287
▁เวล	-3288
เหล็ก	-3289
▁แอนด์	-3290
▁ฉาก	-3291
ข้น	-3292
▁พระเจ้า	-3293
▁ก่อนที่	-3294
▁นวั	-3295
▁ช่าง	-3296
▁AN	-3297
▁ดิจ	-3298
▁สกร	-3299
▁เพียงพอ	-3300
▁สถาบัน	-3301
▁ผู้ใช้	-3302
▁เสนอ	-3303
กาล	-3304
▁สัด	-3305
▁ปลอก	-3306
▁ซีดี	-3307
ิ้ล	-3308
▁แปลก	-3309
รี่	-3310
▁หลายครั้ง	-3311
▁แม้แต่	-3312
▁พอที่จะ	-3313
แวร์	-3314
▁ร่างกาย	-3315
▁กิโลกรัม	-3316
ลาด	-3317
▁นวัตกรรม	-3318
▁แว่น	-3319
▁น้ําเงิน	-3320
คาย	-3321
▁วัตถุ	-3322
ize	-3323
▁ความมั่นคง	-3324
▁สีเทา	-3325
กลับ	-3326
▁จังหว	-3327
คนิค	-3328
ูมิเนียม	-3329
ทรัพย์	-3330
▁Cotton	-3331
ลูมิเนียม	-3332
▁การค้า	-3333
her	-3334
๊ค	-3335
▁คัด	-3336
หาคม	-3337
▁บริโภค	-3338
สะดวก	-3339
▁ยกเว้น	-3340
▁ท่อ	-3341
▁เข้มข้น	-3342
▁สิงหาคม	-3343
▁บ่อย	-3344
▁ง่ายๆ	-3345
▁กําลังไฟฟ้า	-3346
พัก	-3347
▁ซับใน	-3348
▁ความเป็น	-3349
▁โรงเรียน	-3350
▁อาคาร	-3351
70	-3352
.00	-3353
▁อ่อนโยน	-3354
▁คลาสสิก	-3355
บัญ	-3356
▁การปก	-3357
▁สังคม	-3358
▁เทา	-3359
▁พิจ	-3360
▁อาร	-3361
▁เมา	-3362
▁ความแข็งแรง	-3363
ไหล	-3364
▁ONLY	-3365
▁NI	-3366
ประจํา	-3367
าศาสตร์	-3368
▁ประชาชน	-3369
▁Com	-3370
▁ความเสีย	-3371
▁ก็ดี	-3372
ผิดพลาด	-3373
▁CO	-3374
▁แตกต่าง	-3375
15	-3376
▁กําจัด	-3377
▁พิจารณา	-3378
EM	-3379
▁ขจัด	-3380
ตี	-3381
ยิ่งขึ้น	-3382
ุตสาหกรรม	-3383
▁มากยิ่งขึ้น	-3384
งื่อ	-3385
▁LED	-3386
ตกลง	-3387
อุตสาหกรรม	-3388
CENTRAL	-3389
▁ฟิล์ม	-3390
▁500	-3391
▁หมายถึง	-3392
▁รัส	-3393
บรร	-3394
▁สหภาพ	-3395
▁ยุทธ	-3396
▁จํากัด	-3397
TH	-3398
▁ชาติ	-3399
▁สมาร์ท	-3400
▁ความพ	-3401
▁อีกต่อไป	-3402
▁ฮา	-3403
▁อน	-3404
▁ดั้ง	-3405
▁เป้าหมาย	-3406
▁ต่อต้าน	-3407
▁ด้านล่าง	-3408
ist	-3409
▁0.5	-3410
▁บางเบา	-3411
เดือน	-3412
▁เมล	-3413
▁ผนัง	-3414
▁ดั้งเดิม	-3415
ียร	-3416
▁ซิล	-3417
▁โรค	-3418
เสม	-3419
▁กระแส	-3420
▁แมน	-3421
▁สมาชิก	-3422
▁ดอกไม้	-3423
▁ให้บริการ	-3424
าราง	-3425
ตุ้น	-3426
ผสาน	-3427
▁ทดสอบ	-3428
▁ผู้คน	-3429
กประสงค์	-3430
▁การศึกษา	-3431
ื่อนไข	-3432
ตราย	-3433
▁ที่สูง	-3434
▁บ่าย	-3435
▁คะแนน	-3436
▁รายได้	-3437
▁ผู้อ	-3438
▁ผ่อนคลาย	-3439
▁รถไฟ	-3440
▁ตรา	-3441
▁ไม่เป็น	-3442
▁โหมด	-3443
▁ความเสียหาย	-3444
▁การแสดง	-3445
▁ข้าม	-3446
▁ตาราง	-3447
▁42	-3448
▁ต่อมา	-3449
▁ด้ามจับ	-3450
▁ท้องถิ่น	-3451
เบิล	-3452
▁การจัด	-3453
▁เกาหลีใต้	-3454
▁:-	-3455
▁ความกระชับ	-3456
▁การเรียน	-3457
ex	-3458
▁ความสัมพันธ์	-3459
ag	-3460
▁ค้า	-3461
▁แซ	-3462
▁120	-3463
▁พัฒนาการ	-3464
▁เม็ด	-3465
▁เชือก	-3466
▁ระหว่างประเทศ	-3467
▁หญ	-3468
▁/2	-3469
▁Air	-3470
▁เซลล์	-3471
เหลว	-3472
▁ลืม	-3473
▁หมู่	-3474
▁PVC	-3475
เจอร์	-3476
▁กระดุม	-3477
▁โฮ	-3478
เคือง	-3479
อัน	-3480
▁เนื้อหา	-3481
▁กฎหมาย	-3482
▁รท	-3483
▁ออร์	-3484
▁เกรด	-3485
▁39	-3486
▁Fl	-3487
ue	-3488
▁การป้องกัน	-3489
▁ST	-3490
▁กราฟ	-3491
▁2557	-3492
▁บร	-3493
▁คราบ	-3494
▁ย่าง	-3495
▁ผัก	-3496
▁เสริมสร้าง	-3497
▁อย่างยิ่ง	-3498
▁เซ็น	-3499
๊กตา	-3500
▁ทําอาหาร	-3501
▁สินเชื่อ	-3502
▁มนุษย์	-3503
▁ใช่ไหม	-3504
▁หลังจากนั้น	-3505
▁มก	-3506
▁ฮิ	-3507
ิทยาลัย	-3508
คดี	-3509
▁ร่วมกัน	-3510
▁ขัด	-3511
าวิทยาลัย	-3512
เบื่อ	-3513
▁สัดส่วน	-3514
▁เป็นครั้ง	-3515
▁การค	-3516
▁พูดถึง	-3517
ane	-3518
สนา	-3519
▁ฟิลิป	-3520
วบ	-3521
▁ซาน	-3522
แห้ง	-3523
นีเซีย	-3524
▁ภายนอก	-3525
ธิบดี	-3526
▁ตุ๊กตา	-3527
แย	-3528
ทั่ว	-3529
▁น้ําหอม	-3530
▁แขวน	-3531
▁เปรียบ	-3532
▁สอดคล	-3533
ne	-3534
วิจารณ์	-3535
ทั่วไป	-3536
▁ข้อควร	-3537
▁สวน	-3538
▁150	-3539
▁เท่	-3540
▁นําเสนอ	-3541
ตะ	-3542
หาก	-3543
▁ข้อควรระวัง	-3544
ตอบ	-3545
บั้ม	-3546
ม่ํา	-3547
▁น่าเบื่อ	-3548
▁จําหน่าย	-3549
▁ครัวเรือน	-3550
tr	-3551
▁แฟชั่น	-3552
▁ไม่เป็นไร	-3553
▁ตนเอง	-3554
▁แคน	-3555
▁2.0	-3556
▁หัก	-3557
ริก	-3558
▁เป็นต้น	-3559
▁ปา	-3560
ิตาม	-3561
ษี	-3562
▁สิบ	-3563
▁แนวโน้ม	-3564
บท	-3565
▁มหาวิทยาลัย	-3566
▁พ่อ	-3567
▁อินโดนีเซีย	-3568
▁อัลบั้ม	-3569
ดัง	-3570
▁ภัย	-3571
▁การปรับตัว	-3572
▁เป็นเจ้าของ	-3573
▁of	-3574
▁สถานะ	-3575
▁อุ่น	-3576
▁แทนที่	-3577
แช	-3578
เกียว	-3579
▁อิตาลี	-3580
ทด	-3581
▁เจ้าหน้าที่	-3582
สู	-3583
ฒน	-3584
ท็อป	-3585
▁มองเห็น	-3586
คายเคือง	-3587
▁โตเกียว	-3588
ตนาการ	-3589
▁ราง	-3590
เสมอ	-3591
▁เฉด	-3592
▁เก๋	-3593
สู้	-3594
▁สม่ํา	-3595
อาท	-3596
▁หวาน	-3597
▁TH	-3598
▁บู	-3599
าร์ด	-3600
▁แคล	-3601
▁แถว	-3602
▁ผลผลิต	-3603
โปร์	-3604
▁ริ้น	-3605
▁ผสมผสาน	-3606
▁แช่	-3607
▁ติดตาม	-3608
อาทิตย์	-3609
▁อเมริกา	-3610
▁Q	-3611
▁มีส่วน	-3612
▁De	-3613
▁เสียเงิน	-3614
▁เป็นไปได้	-3615
▁Al	-3616
▁Size	-3617
▁บด	-3618
ิงค์	-3619
▁กระตุ้น	-3620
▁แนวคิด	-3621
VER	-3622
▁2555	-3623
▁แรงดัน	-3624
▁ฆ	-3625
ปัด	-3626
มณ์	-3627
ือด	-3628
แสง	-3629
ฒนธรรม	-3630
▁โท	-3631
ัช	-3632
ขอ	-3633
▁สะด	-3634
ไว	-3635
คโปร์	-3636
▁ชุ่ม	-3637
▁จี	-3638
▁ตอนแรก	-3639
เสี่ยง	-3640
ุ์	-3641
หรา	-3642
ิตอล	-3643
▁อาท	-3644
▁สิ่งแวดล้อม	-3645
▁สังเกต	-3646
▁นํามา	-3647
▁สิงคโปร์	-3648
▁เงื่อนไข	-3649
▁สายสะ	-3650
▁ข้อตกลง	-3651
▁สายสะพาย	-3652
▁รบกวน	-3653
▁กลม	-3654
มป์	-3655
▁จินตนาการ	-3656
▁ห่าง	-3657
▁ระวัง	-3658
▁กุม	-3659
▁คล่อง	-3660
เอว	-3661
▁คุก	-3662
ประกาย	-3663
่วมมือ	-3664
▁ไนลอน	-3665
▁รู้จัก	-3666
▁NIKE	-3667
ตูน	-3668
.25	-3669
▁เครื่องบิน	-3670
ุบ	-3671
▁รอบเอว	-3672
้ต	-3673
▁สะดุด	-3674
▁เมาส์	-3675
▁ไต้	-3676
▁แทนที่จะ	-3677
▁การ์ตูน	-3678
าธิบดี	-3679
▁เติมเต็ม	-3680
▁ศา	-3681
▁ข้อเสนอ	-3682
16	-3683
หวัน	-3684
วิจัย	-3685
▁เครือ	-3686
▁คริสต์มาส	-3687
-|	-3688
ึ้ง	-3689
ษายน	-3690
▁สม่ําเสมอ	-3691
▁เมษายน	-3692
▁มุมมอง	-3693
me	-3694
คต	-3695
▁อเน	-3696
ร่	-3697
ass	-3698
▁นุ่มนวล	-3699
▁ริ้วรอย	-3700
ผม	-3701
ศัย	-3702
▁ปีก่อน	-3703
UN	-3704
▁ใย	-3705
▁อาศัย	-3706
▁จัดส่ง	-3707
▁โจม	-3708
▁อีเมล	-3709
▁ศิลปะ	-3710
ญแจ	-3711
▁เครื่องเล่น	-3712
พลัง	-3713
▁การฟื้นตัว	-3714
▁อเนกประสงค์	-3715
มนี	-3716
เนีย	-3717
▁ประธานาธิบดี	-3718
▁ปฏ	-3719
ไม่ได้	-3720
▁ไต้หวัน	-3721
UM	-3722
▁ผสาน	-3723
ตี้	-3724
ปินส์	-3725
ชัก	-3726
▁พัด	-3727
▁เปีย	-3728
▁ด้วยมือ	-3729
▁หน้าที่	-3730
ock	-3731
▁ฟิลิปปินส์	-3732
ิร์น	-3733
▁ตั้งอยู่	-3734
▁อิเล็ก	-3735
▁สอดคล้อง	-3736
RA	-3737
แม	-3738
ONE	-3739
ติน	-3740
ยอด	-3741
▁โฟน	-3742
ให้เห็น	-3743
▁ด้วยกัน	-3744
▁ทุกครั้งที่	-3745
สเตอร์	-3746
▁การจัดส่ง	-3747
▁คําน	-3748
co	-3749
25	-3750
OW	-3751
ACK	-3752
▁เยอรมนี	-3753
ยายน	-3754
▁สื่อ	-3755
▁แปลง	-3756
▁ที่รัก	-3757
หน่อย	-3758
หนาว	-3759
▁กันยายน	-3760
ire	-3761
จิก	-3762
▁โถ	-3763
▁ความร่วมมือ	-3764
▁ไม่ต้องการ	-3765
พัด	-3766
▁กัด	-3767
แกร่ง	-3768
▁แล็ป	-3769
เอ็ม	-3770
▁ซักแห้ง	-3771
▁ก๊	-3772
▁แข็งแกร่ง	-3773
ณิช	-3774
▁ตัน	-3775
▁แผง	-3776
ber	-3777
▁AD	-3778
▁Ac	-3779
▁แถม	-3780
▁รุนแรง	-3781
▁ซักผ้า	-3782
▁;	-3783
▁iP	-3784
▁Col	-3785
▁เหนียว	-3786
ran	-3787
ill	-3788
เมริกัน	-3789
▁ปฏิบัติการ	-3790
ซับ	-3791
เวีย	-3792
▁Con	-3793
▁น้อยลง	-3794
ีล	-3795
icro	-3796
ย้าย	-3797
▁อเมริกัน	-3798
▁44	-3799
มปัง	-3800
ติบ	-3801
สติก	-3802
▁ยอมรับ	-3803
▁เนื้อเรื่อง	-3804
ูกาล	-3805
▁ความพยายาม	-3806
โดยสาร	-3807
▁ตลอดเวลา	-3808
▁จนกว่า	-3809
▁37	-3810
▁แมต	-3811
▁มีผล	-3812
▁เฟอร์	-3813
แหละ	-3814
all	-3815
สร	-3816
▁ออโต้	-3817
▁กระจ่าง	-3818
▁แห่งชาติ	-3819
▁อัพ	-3820
▁ชําร	-3821
▁โดยที่	-3822
▁ส่วนตัว	-3823
te	-3824
คที	-3825
▁วิป	-3826
กรรมการ	-3827
ิร์ฟ	-3828
▁!!!	-3829
▁มกรา	-3830
▁กระทะ	-3831
▁ความเชื่อ	-3832
ถาม	-3833
ื้อง	-3834
เทิง	-3835
▁แล็ปท็อป	-3836
เทล	-3837
▁โจมตี	-3838
วีดี	-3839
เซียน	-3840
▁บอร์ด	-3841
▁รัสเซีย	-3842
ure	-3843
▁ร้านค้า	-3844
▁ในที่สุด	-3845
เสียด	-3846
แพง	-3847
▁ตื่นเต้น	-3848
เทียบ	-3849
ปเปอ	-3850
ร่าง	-3851
หลาด	-3852
มท่า	-3853
ณิชย์	-3854
สิ้น	-3855
▁ศาล	-3856
▁ดีวีดี	-3857
ix	-3858
▁ยาน	-3859
▁XL	-3860
▁ไฟเบอร์	-3861
อนุ	-3862
ือกต	-3863
ุกร์	-3864
▁แบน	-3865
ือกตั้ง	-3866
▁เต็มไป	-3867
▁สิ่งของ	-3868
▁เข้ากัน	-3869
▁ย้าย	-3870
เคียง	-3871
▁ดาวน์	-3872
MI	-3873
▁The	-3874
▁พฤษ	-3875
ทับใจ	-3876
▁หรอก	-3877
▁ทําให้เกิด	-3878
▁แกน	-3879
ens	-3880
ติบโต	-3881
▁ม้วน	-3882
อร์เน็ต	-3883
▁เป็นครั้งแรก	-3884
หลัก	-3885
ชนิด	-3886
่วยเหลือ	-3887
▁สุทธิ	-3888
ึน	-3889
▁พฤษภา	-3890
▁เอน	-3891
บน้ํา	-3892
▁อุดม	-3893
▁เหล่านั้น	-3894
▁ศุกร์	-3895
เบียน	-3896
▁เบาะ	-3897
▁อินเทอร์เน็ต	-3898
▁แต่ว	-3899
▁อันดับ	-3900
▁ชมพู	-3901
กฎหมาย	-3902
ซิฟ	-3903
▁งอ	-3904
▁ความมั่นใจ	-3905
้นํา	-3906
▁ที่เกิด	-3907
▁ลิปสติก	-3908
ิ้ต	-3909
▁แปซิฟ	-3910
▁เครื่องใช้	-3911
▁ต่ํากว่า	-3912
▁ผลไม้	-3913
▁ปกปิด	-3914
▁ปลา	-3915
ole	-3916
โหม	-3917
▁เงา	-3918
ดูด	-3919
▁เที่ยว	-3920
▁อาเซียน	-3921
▁อก	-3922
▁บรา	-3923
▁คุณหนู	-3924
▁ปัก	-3925
่าร์	-3926
▁(2)	-3927
OP	-3928
▁สังเคราะห์	-3929
▁มกราคม	-3930
▁พฤษภาคม	-3931
▁หน้าปัด	-3932
▁บังคับ	-3933
▁CH	-3934
ูปอง	-3935
วณ	-3936
▁อารมณ์	-3937
▁แม่เหล็ก	-3938
▁GB	-3939
▁เปรียบเทียบ	-3940
▁300	-3941
▁ลอก	-3942
▁250	-3943
▁ดิจิตอล	-3944
เมน	-3945
▁คูปอง	-3946
▁เตียง	-3947
▁ผู้บริ	-3948
▁ชง	-3949
▁แม่นยํา	-3950
โหลด	-3951
▁พรี	-3952
▁มหา	-3953
▁ซ้าย	-3954
▁รั่ว	-3955
แกน	-3956
CD	-3957
▁ปิ้ง	-3958
av	-3959
▁ไง	-3960
▁คลาสสิค	-3961
▁นอกเหนือ	-3962
▁กระเป๋าส	-3963
ยากาศ	-3964
าระ	-3965
▁ธัน	-3966
จา	-3967
▁สว่าง	-3968
▁แปซิฟิก	-3969
▁ทางเลือก	-3970
ิโคน	-3971
▁ซิลิโคน	-3972
▁ฝ้าย	-3973
▁แท็บ	-3974
▁Par	-3975
▁วอ	-3976
▁App	-3977
▁ดอลล่าร์	-3978
▁แมท	-3979
▁ระเบ	-3980
เลี้ยง	-3981
▁จิต	-3982
พร่อง	-3983
▁บลู	-3984
11	-3985
ello	-3986
ทรอน	-3987
▁บาน	-3988
▁สะสม	-3989
int	-3990
▁ท็อป	-3991
▁หมอน	-3992
▁บรรยากาศ	-3993
IR	-3994
▁รวบ	-3995
▁2556	-3996
ทรอนิกส์	-3997
▁รัฐมนตรี	-3998
สังเคราะห์	-3999
▁บรรจุภัณฑ์	-4000
▁(1)	-4001
▁โต้	-4002
▁ส่งคืน	-4003
▁ถ่าน	-4004
▁แท่ง	-4005
ภาพันธ์	-4006
▁น้ําแข็ง	-4007
ดีต	-4008
▁HP	-4009
▁คณะกรรมการ	-4010
▁ตวั	-4011
▁กุมภาพันธ์	-4012
▁หิน	-4013
ตั	-4014
▁พรีเม	-4015
▁สัญ	-4016
▁หลง	-4017
▁ขอบใจ	-4018
▁คนขับ	-4019
▁การกระ	-4020
▁ความคิดเห็น	-4021
▁ยุ่ง	-4022
▁คริส	-4023
▁สร้างสรรค์	-4024
▁บวก	-4025
▁ตุลา	-4026
qu	-4027
อักษร	-4028
▁เปปเปอ	-4029
▁ความสนใจ	-4030
สถ	-4031
▁ํง	-4032
▁เซต	-4033
▁มื้อ	-4034
อากาศยาน	-4035
▁ไก่	-4036
กรณี	-4037
เก็ต	-4038
▁ขยะ	-4039
▁ตาย	-4040
▁คนใน	-4041
PA	-4042
▁หญิง	-4043
▁องค์กร	-4044
▁คอเสื้อ	-4045
▁สําเร็จ	-4046
ถุน	-4047
▁กอ	-4048
der	-4049
▁เวน	-4050
▁มิถุน	-4051
ไก	-4052
▁สมอง	-4053
▁ตุลาคม	-4054
▁เทคนิค	-4055
▁กรก	-4056
▁คีย์	-4057
▁in	-4058
ผ่อน	-4059
▁Ed	-4060
▁ธันว	-4061
▁ความเสี่ยง	-4062
▁โน้ต	-4063
▁ไวท์	-4064
สัญญาณ	-4065
▁พัดลม	-4066
บันเทิง	-4067
ิตามิน	-4068
▁มิถุนายน	-4069
ซัก	-4070
▁เส้นทาง	-4071
▁3.0	-4072
▁ผูก	-4073
▁วิตามิน	-4074
▁ที่อื่น	-4075
▁เต็มไปด้วย	-4076
CH	-4077
ถียร	-4078
อาชีพ	-4079
▁ตัวเลข	-4080
▁ดา	-4081
สั่ง	-4082
▁บอล	-4083
ตัวเอง	-4084
▁ธันวาคม	-4085
▁กรกฎ	-4086
▁ลิ้นชัก	-4087
▁ท่าอากาศยาน	-4088
DP	-4089
ดาล	-4090
▁คล่องตัว	-4091
▁Mac	-4092
▁พลาด	-4093
จบ	-4094
่มือ	-4095
▁ขวบ	-4096
ฟู	-4097
▁ศัก	-4098
▁สงสัย	-4099
กเปลี่ยน	-4100
▁ซัพพอร์ท	-4101
▁ความสะอาด	-4102
เชิ้ต	-4103
กดดัน	-4104
เอกสาร	-4105
▁ที่ทํางาน	-4106
▁ส่งออก	-4107
โฟ	-4108
▁กรกฎาคม	-4109
▁ถือว่า	-4110
▁แสดงให้เห็น	-4111
▁มุ่ง	-4112
▁ตัวเรือน	-4113
4)	-4114
▁โจทย์	-4115
▁หัวข้อ	-4116
▁ความบันเทิง	-4117
▁99	-4118
▁สิ้นสุด	-4119
▁41	-4120
▁48	-4121
ทูต	-4122
วย์	-4123
แจ้ง	-4124
▁แทบ	-4125
▁ครั้งนี้	-4126
ใย	-4127
ชาการ	-4128
▁บิ	-4129
▁ไกล	-4130
▁อาวุธ	-4131
▁ค่าเงิน	-4132
▁ฤดูกาล	-4133
▁โรงหนัง	-4134
อป	-4135
▁Mar	-4136
สุทธิ์	-4137
itty	-4138
บันดาล	-4139
กังวล	-4140
lec	-4141
▁ผู้นํา	-4142
▁SH	-4143
เสียดาย	-4144
▁อิเล็กทรอนิกส์	-4145
ชีว	-4146
้านี้	-4147
▁เฉดสี	-4148
ear	-4149
อธิบาย	-4150
บันดาลใจ	-4151
ราชอาณาจักร	-4152
เช้า	-4153
ิสต์	-4154
▁แรงบันดาลใจ	-4155
ง่	-4156
ทัน	-4157
▁สภา	-4158
▁ยุทธศาสตร์	-4159
▁ไปดู	-4160
สําเร็จ	-4161
▁อดีต	-4162
▁Kitty	-4163
▁แพ้	-4164
▁ขับรถ	-4165
ลาก	-4166
▁Bo	-4167
▁อู่	-4168
▁มืออาชีพ	-4169
▁Ex	-4170
▁ยิง	-4171
▁ความถ	-4172
▁ประดับ	-4173
▁ตะวันตก	-4174
▁บิน	-4175
เนื้อ	-4176
ทราบ	-4177
▁ยาม	-4178
▁หนี้	-4179
อร์ม	-4180
-||	-4181
เลิก	-4182
ตะวัน	-4183
▁เสื้อเชิ้ต	-4184
▁ถนัด	-4185
▁ขนมปัง	-4186
ows	-4187
ซ้อน	-4188
▁วิธีใช้	-4189
เวล	-4190
▁ขีด	-4191
▁ฉบับ	-4192
พาณิชย์	-4193
ฉลี่ย	-4194
▁โดยเฉลี่ย	-4195
▁เบลา	-4196
▁ความจริง	-4197
▁โค้ง	-4198
▁สเตนเลส	-4199
▁วางแผน	-4200
่ห์	-4201
▁จู	-4202
▁แบคที	-4203
▁แบคทีเรีย	-4204
▁รวบรวม	-4205
▁น่าเสียดาย	-4206
สนิม	-4207
▁เปล่งประกาย	-4208
rip	-4209
▁Ni	-4210
▁Co	-4211
▁ฟังเพลง	-4212
▁เฮ้	-4213
สัญญา	-4214
▁ออฟ	-4215
▁ภาษี	-4216
▁คู่มือ	-4217
▁ฤดูหนาว	-4218
▁ประกัน	-4219
ักษ์	-4220
▁เมื่อไหร่	-4221
▁เป้	-4222
▁คงทน	-4223
เดียวกัน	-4224
ล้าง	-4225
▁หรอ	-4226
▁สหราชอาณาจักร	-4227
ie	-4228
ัศน์	-4229
▁ศาสนา	-4230
▁Hello	-4231
▁มีชีวิต	-4232
▁บั	-4233
▁ดินสอ	-4234
▁เกินดุล	-4235
▁มาเล	-4236
▁ความสะดวก	-4237
เล็ต	-4238
▁พฤศ	-4239
▁เปียก	-4240
ตวรรษ	-4241
▁Phone	-4242
ืบ	-4243
ทุก	-4244
▁ราว	-4245
▁ทั้งปี	-4246
▁พริก	-4247
▁65	-4248
ฉบับ	-4249
▁วัฒนธรรม	-4250
▁นักเขียน	-4251
วัล	-4252
▁เบลาส์	-4253
▁ข้อผิดพลาด	-4254
▁การรักษา	-4255
▁การเรียนรู้	-4256
้ก	-4257
กลัว	-4258
▁ความช่วยเหลือ	-4259
▁64	-4260
▁Le	-4261
ติด	-4262
เต้	-4263
BL	-4264
▁ยางยืด	-4265
▁ปฏิ	-4266
▁มาเลเซีย	-4267
หัว	-4268
เด็น	-4269
▁โซล	-4270
▁ขวา	-4271
▁ซอฟต์	-4272
▁2554	-4273
90	-4274
ose	-4275
องค์	-4276
▁การออก	-4277
▁PL	-4278
จิกายน	-4279
▁ภายในประเทศ	-4280
.75	-4281
สาท	-4282
▁พฤศจิกายน	-4283
▁เครือข่าย	-4284
ทางการ	-4285
▁อาย	-4286
▁ความค	-4287
▁จนกระทั่ง	-4288
▁1.2	-4289
▁หมายความ	-4290
▁กองกําลัง	-4291
▁นก	-4292
อ่อน	-4293
▁ไดร	-4294
astane	-4295
เวียต	-4296
ity	-4297
▁ล่วง	-4298
โฟน	-4299
▁ยูโร	-4300
เคมี	-4301
▁นานา	-4302
▁ล็อก	-4303
▁ดุ	-4304
▁ไท	-4305
▁แต่ว่า	-4306
mo	-4307
ไทย	-4308
พบ	-4309
kin	-4310
ฟริ	-4311
ช้า	-4312
▁เส้นใย	-4313
▁กู	-4314
▁เทศ	-4315
▁ข้างนอก	-4316
ุดิบ	-4317
▁600	-4318
▁มีค่า	-4319
▁วัตถุดิบ	-4320
ชาญ	-4321
ี่ยวชาญ	-4322
▁เคลื่อนย้าย	-4323
ush	-4324
▁ฉีก	-4325
OT	-4326
oam	-4327
▁01	-4328
ยง	-4329
▁ส่วนประกอบ	-4330
▁ch	-4331
เริ	-4332
▁วจะ	-4333
▁ยกเลิก	-4334
▁ตลอดวัน	-4335
▁เต็มที่	-4336
าซ	-4337
ี้ยว	-4338
▁เคเบิล	-4339
▁and	-4340
ARD	-4341
ราน	-4342
▁ฆ่า	-4343
▁ชุบ	-4344
▁ปรุง	-4345
▁ระดับสูง	-4346
▁เป็นประโยชน์	-4347
▁แสงแดด	-4348
▁แล้วกัน	-4349
บกพร่อง	-4350
▁PU	-4351
▁ว่าย	-4352
▁ลาเต้	-4353
▁แอพ	-4354
เดินทาง	-4355
▁ทั้งนี้	-4356
▁ส้ม	-4357
ใบ	-4358
แตะ	-4359
▁เสถียร	-4360
▁ดุล	-4361
▁หุ้น	-4362
▁ปรับปรุง	-4363
รอ	-4364
▁Mel	-4365
▁Wind	-4366
▁):3	-4367
▁k	-4368
ิปต์	-4369
▁หรูหรา	-4370
ประชา	-4371
▁นิวเคล	-4372
▁An	-4373
▁ชุม	-4374
▁43	-4375
▁รังสี	-4376
▁ขึ้นกับ	-4377
▁ดาวน์โหลด	-4378
▁LE	-4379
▁ทุกสิ่ง	-4380
▁การท่องเที่ยว	-4381
▁Micro	-4382
▁เอฟ	-4383
หน้านี้	-4384
▁นอกจากนั้น	-4385
our	-4386
▁บิด	-4387
▁นักเรียน	-4388
▁ซอฟต์แวร์	-4389
CE	-4390
ข้อม	-4391
AY	-4392
พันธ	-4393
ให้เกิด	-4394
ํารอง	-4395
▁แรงกดดัน	-4396
▁บริสุทธิ์	-4397
PE	-4398
▁สตีล	-4399
▁AA	-4400
ers	-4401
▁Polyester	-4402
▁เช่นนี้	-4403
▁เป็นทางการ	-4404
OD	-4405
ress	-4406
▁ตัวอักษร	-4407
▁ก่อนหน้านี้	-4408
▁ตลาดโลก	-4409
▁หมายเลข	-4410
▁เยอรมัน	-4411
ป์	-4412
อต	-4413
มือถือ	-4414
ได้ชัด	-4415
▁โทรศัพท์มือถือ	-4416
ยาก	-4417
▁นักลงทุน	-4418
สี่	-4419
ตื่น	-4420
เวลาน	-4421
IM	-4422
▁2553	-4423
▁ดนตรี	-4424
▁หล่อน	-4425
▁มีชื่อ	-4426
▁ดึงดูด	-4427
▁เห็นได้ชัด	-4428
ึน้	-4429
สัตว์	-4430
ลี	-4431
วรรดิ	-4432
▁ป้อง	-4433
าบ	-4434
▁ทู	-4435
▁คุณค่า	-4436
indle	-4437
▁นําไป	-4438
จด	-4439
เรล	-4440
ขนส่ง	-4441
▁สมดุล	-4442
▁สกรีน	-4443
เครื่อง	-4444
ศูนย์	-4445
▁poly	-4446
▁นิยาย	-4447
เหลี่ยม	-4448
▁4.5	-4449
ลําดับ	-4450
▁บอบ	-4451
▁พระองค์	-4452
▁จอห์	-4453
▁สเปน	-4454
ทะเบียน	-4455
อิง	-4456
ันทร์	-4457
▁เกณฑ์	-4458
▁รองเท้าแตะ	-4459
yl	-4460
▁Mo	-4461
▁ไวน	-4462
▁รองพื้น	-4463
▁สวิต	-4464
▁รูปร่าง	-4465
▁หมายความว่า	-4466
▁Apple	-4467
บี	-4468
▁เซ็ต	-4469
กลม	-4470
▁2562	-4471
▁ขนส่ง	-4472
▁อยู่แล้ว	-4473
▁ลอน	-4474
สกปรก	-4475
กุ	-4476
▁สติก	-4477
▁สีเหลือง	-4478
▁สิ่งสกปรก	-4479
▁ใกล้เคียง	-4480
▁ทวี	-4481
▁รด	-4482
▁เอ็น	-4483
▁จักรวรรดิ	-4484
รบ	-4485
เง	-4486
▁Ad	-4487
▁มิน	-4488
▁การระ	-4489
▁อย่างนั้น	-4490
IO	-4491
ory	-4492
รภัย	-4493
▁ดินแดน	-4494
▁สติกเกอร์	-4495
▁แข่งขัน	-4496
▁ล้ม	-4497
กาแฟ	-4498
ัวร์	-4499
▁ก๊าซ	-4500
▁ยังอยู่	-4501
บอน	-4502
▁เลข	-4503
▁บทวิจารณ์	-4504
▁ชําระ	-4505
อร์แลนด์	-4506
บร	-4507
▁ระคายเคือง	-4508
▁เถ	-4509
เฉียง	-4510
านกลาง	-4511
ข้าว	-4512
ผู้หญิง	-4513
hite	-4514
19	-4515
ech	-4516
▁เหลือง	-4517
▁FIL	-4518
เริ่ม	-4519
▁ไหล่	-4520
14	-4521
▁UV	-4522
▁ฟู	-4523
ฝุ่น	-4524
▁ประช	-4525
▁เอ็ม	-4526
▁"")	-4527
อาง	-4528
▁Not	-4529
▁โชว์	-4530
จน	-4531
▁EV	-4532
ream	-4533
ฟริกา	-4534
▁ตกลง	-4535
เกจ	-4536
▁198	-4537
อังกฤษ	-4538
▁ขนม	-4539
▁เจ็ท	-4540
▁บอบบาง	-4541
▁ในกรณี	-4542
▁ทางการเมือง	-4543
ดิต	-4544
ราม	-4545
▁ภาษาอังกฤษ	-4546
▁ดีเทล	-4547
ant	-4548
ish	-4549
▁ซอส	-4550
▁สะโพก	-4551
▁0.7	-4552
▁อํา	-4553
18	-4554
กรอก	-4555
▁ชิง	-4556
▁ขนาดที่	-4557
▁จาน	-4558
▁โซน	-4559
▁ถนอม	-4560
ไว้	-4561
▁นึก	-4562
▁แล้	-4563
สําอาง	-4564
ศูนย์กลาง	-4565
▁เครื่องสําอาง	-4566
▁เจอกัน	-4567
โทรศัพท์	-4568
▁แท็บเล็ต	-4569
จัง	-4570
▁0.1	-4571
แม้ว่า	-4572
▁ถู	-4573
OC	-4574
ญัติ	-4575
▁400	-4576
▁2551	-4577
▁ถัด	-4578
▁ตัวย	-4579
ea	-4580
▁46	-4581
▁แลดู	-4582
หนะ	-4583
▁คัพ	-4584
▁จอห์น	-4585
uc	-4586
ุทร	-4587
▁Windows	-4588
ud	-4589
▁ช่วยเหลือ	-4590
มติ	-4591
▁ว่ายน้ํา	-4592
๎าน	-4593
▁จังหวัด	-4594
▁หน่วยงาน	-4595
ออง	-4596
โอกาส	-4597
▁คุณสมบัติพิเศษ	-4598
▁n	-4599
ody	-4600
ีรษ	-4601
รน	-4602
๎า	-4603
ีรษะ	-4604
▁อีย	-4605
▁นิดหน่อย	-4606
▁อํานาจ	-4607
ff	-4608
PP	-4609
▁ที่ว่า	-4610
▁ความนิยม	-4611
มัด	-4612
▁หัวใจ	-4613
▁ล่วงหน้า	-4614
▁ราคาแพง	-4615
13	-4616
เซียส	-4617
▁คงจะ	-4618
▁เรียว	-4619
แย้ง	-4620
▁5.5	-4621
▁ไส้กรอก	-4622
▁2000	-4623
▁2.4	-4624
เคลื่อน	-4625
▁อุปสงค์	-4626
้งค์	-4627
▁ร้องเรียน	-4628
▁v	-4629
▁กรรม	-4630
ความจํา	-4631
▁เด็กเล็ก	-4632
▁ทุ	-4633
ium	-4634
ep	-4635
▁า	-4636
▁ประเด็น	-4637
▁อาบน้ํา	-4638
55	-4639
ครอบ	-4640
▁เป่า	-4641
▁แค่น	-4642
เขต	-4643
ขาด	-4644
▁MB	-4645
อร์เนีย	-4646
▁ห้องครัว	-4647
▁ก่อให้เกิด	-4648
▁สตรี	-4649
▁มีเสียง	-4650
▁สัญลักษณ์	-4651
๊ม	-4652
▁Car	-4653
พรร	-4654
บอร์ด	-4655
tive	-4656
▁สมุด	-4657
▁เข้ารูป	-4658
ต้า	-4659
▁ผู้ขาย	-4660
▁อียิปต์	-4661
ment	-4662
ประทาน	-4663
หวาน	-4664
▁โดยทั่วไป	-4665
คอน	-4666
IDAS	-4667
ปฏิบัติ	-4668
▁คํานวณ	-4669
▁ความชุ่มชื่น	-4670
′′	-4671
▁(3)	-4672
ร้อง	-4673
▁โรงงาน	-4674
▁เครื่องใช้ไฟฟ้า	-4675
▁การก	-4676
17	-4677
▁110	-4678
▁เอเอ็ม	-4679
เมิน	-4680
▁แคลิฟ	-4681
▁ทางทหาร	-4682
▁แคลิฟอร์เนีย	-4683
▁เบส	-4684
▁อินเทล	-4685
▁ความถี่	-4686
▁ภายหลัง	-4687
▁กําลังจะ	-4688
▁โชคดี	-4689
▁SD	-4690
คะแนน	-4691
▁เสียหาย	-4692
100	-4693
▁AC	-4694
แน่น	-4695
▁ค้นพบ	-4696
▁ADIDAS	-4697
▁เสียเวลา	-4698
▁ปะ	-4699
▁เสิร์ฟ	-4700
อนา	-4701
▁Br	-4702
▁หมาด	-4703
UL	-4704
อยล์	-4705
วยอร์	-4706
▁ความเชื่อมั่น	-4707
▁Sc	-4708
▁นิวยอร์	-4709
▁ปเตอร์	-4710
▁สัญญา	-4711
▁อิงค์	-4712
▁เหงื่อ	-4713
▁ปานกลาง	-4714
▁วิก	-4715
เคย	-4716
เซลเซียส	-4717
▁องศาเซลเซียส	-4718
หนา	-4719
mart	-4720
▁ลิ้งค์	-4721
▁ความรัก	-4722
▁สูญเสีย	-4723
▁หน่วยความจํา	-4724
หลวง	-4725
ฟอก	-4726
▁สบ	-4727
ช่วย	-4728
▁El	-4729
▁360	-4730
▁กั	-4731
▁ไดร์	-4732
▁กางเกงชั้นใน	-4733
▁อัด	-4734
▁ตัวต่อ	-4735
ขวาง	-4736
▁ภู	-4737
ค้าน	-4738
ต่ํา	-4739
▁สปอร์ต	-4740
▁ถัก	-4741
▁00	-4742
▁แท่น	-4743
▁ลงทุน	-4744
▁เครื่องจักร	-4745
ace	-4746
ธิป	-4747
▁มัล	-4748
▁ธนาคารกลาง	-4749
กรัฐ	-4750
ด้วยกัน	-4751
▁เข้าด้วยกัน	-4752
▁0.3	-4753
เพลิง	-4754
ีปน	-4755
▁งาม	-4756
▁เมน	-4757
▁เซนต์	-4758
▁ดิบ	-4759
ีปนาวุธ	-4760
mer	-4761
หลาดใจ	-4762
▁ทันทีที่	-4763
▁ขีปนาวุธ	-4764
EAR	-4765
▁เป็นอัน	-4766
▁นุ	-4767
หมึก	-4768
▁Kindle	-4769
esh	-4770
▁ทรัพย์	-4771
▁พระราช	-4772
▁ความสด	-4773
▁คําสั่ง	-4774
ater	-4775
▁เป็นตัว	-4776
▁สนิท	-4777
▁Comp	-4778
▁คารา	-4779
ื้อน	-4780
▁่	-4781
ลื่น	-4782
อนุญาต	-4783
▁แต่งตัว	-4784
มส์	-4785
▁รั	-4786
ที่ยง	-4787
าเล	-4788
▁85	-4789
ุณา	-4790
อนาคต	-4791
▁รับได้	-4792
▁ที่เก็บ	-4793
▁1,	-4794
▁1.8	-4795
▁จับคู่	-4796
▁IP	-4797
▁สรี	-4798
ทัศน์	-4799
▁95	-4800
▁สอบ	-4801
▁สงวน	-4802
▁ข้อเท้า	-4803
ink	-4804
▁พักผ่อน	-4805
▁อ้างอิง	-4806
นูญ	-4807
▁ความผิด	-4808
▁การขนส่ง	-4809
ps	-4810
▁ยี	-4811
จาน	-4812
ไตย	-4813
ร่วม	-4814
▁2016	-4815
ธิปไตย	-4816
▁แม่น้ํา	-4817
ไกล	-4818
▁′′	-4819
▁ตัวยง	-4820
สบการณ์	-4821
▁ศีรษะ	-4822
กง	-4823
▁เงียบ	-4824
▁กระดาน	-4825
บุคคล	-4826
▁การออกกําลังกาย	-4827
ore	-4828
▁ที่สี่	-4829
▁สล	-4830
▁๎า	-4831
ถี	-4832
ung	-4833
▁อันเป็น	-4834
VE	-4835
ป้อง	-4836
▁หลอดไฟ	-4837
▁ทศ	-4838
75	-4839
▁คุย	-4840
สมุทร	-4841
▁ผู้บริโภค	-4842
est	-4843
▁เมล็ด	-4844
▁ทีเดียว	-4845
▁คีย์บอร์ด	-4846
สั้น	-4847
▁เห็ด	-4848
▁เกมส์	-4849
ash	-4850
▁จ้าง	-4851
▁ทั้งคู่	-4852
าศัย	-4853
▁ตู้เย็น	-4854
▁มีประสบการณ์	-4855
▁52	-4856
แพทย์	-4857
▁เบื้อง	-4858
▁CL	-4859
ด่าง	-4860
เซ็น	-4861
เลือกตั้ง	-4862
▁พนักงาน	-4863
▁เสถียรภาพ	-4864
▁!(	-4865
▁เท็ม	-4866
▁แจ็ค	-4867
QU	-4868
▁ข้อเสีย	-4869
▁การปกป้อง	-4870
32	-4871
ยภาพ	-4872
วกาศ	-4873
ทาย	-4874
▁En	-4875
เทียม	-4876
▁เติบโต	-4877
▁ถนัดมือ	-4878
ต่างประเทศ	-4879
34	-4880
กว	-4881
สภา	-4882
▁หมวก	-4883
▁เลเซอร์	-4884
▁นิวเคลียร์	-4885
▁GDP	-4886
พื้นฐาน	-4887
▁องค์ประกอบ	-4888
▁6.5	-4889
PHONE	-4890
ข่าว	-4891
็กส์	-4892
▁ในอนาคต	-4893
▁หลายอย่าง	-4894
▁อลูมิเนียม	-4895
ORT	-4896
กรัฐมนตรี	-4897
▁กรุณา	-4898
▁กราฟิก	-4899
▁พนัก	-4900
พิง	-4901
ปู	-4902
ก้าว	-4903
▁หมา	-4904
พันธุ์	-4905
▁ภาพถ่าย	-4906
▁ละลาย	-4907
BS	-4908
ECH	-4909
▁ชัน	-4910
▁นวด	-4911
▁แนบ	-4912
▁ตามลําดับ	-4913
▁จุใจ	-4914
▁หน้าต่าง	-4915
▁ี	-4916
▁LCD	-4917
▁ท้า	-4918
▁เดา	-4919
▁สะพาย	-4920
หนี้	-4921
▁สั่น	-4922
▁เป็นระเบียบ	-4923
▁ร่า	-4924
▁เสื้อชั้นใน	-4925
ทนา	-4926
▁สํานัก	-4927
ะพาย	-4928
▁PRO	-4929
▁วิจ	-4930
se	-4931
โกแล	-4932
สะโพก	-4933
▁chart	-4934
▁โปร่ง	-4935
▁รอบสะโพก	-4936
ากล	-4937
▁2552	-4938
▁ตั๋วหนัง	-4939
▁หลับ	-4940
ชีวา	-4941
▁เลิก	-4942
รอบ	-4943
ิยม	-4944
▁มิล	-4945
▁Black	-4946
จน์	-4947
▁ปู	-4948
ข้าม	-4949
อํานาจ	-4950
▁คําอธิบาย	-4951
▁ตะขอ	-4952
▁ศักยภาพ	-4953
ยาว	-4954
โกแลต	-4955
▁ชื้น	-4956
▁ดูดซับ	-4957
พิษ	-4958
▁แบล	-4959
▁ไดรฟ์	-4960
ธรรมนูญ	-4961
ob	-4962
▁เลือน	-4963
▁หน้าอก	-4964
▁หิ้ว	-4965
▁สาเหตุ	-4966
▁MA	-4967
▁ประการ	-4968
▁ความเห็น	-4969
ารี	-4970
▁แรงลม	-4971
ice	-4972
▁NE	-4973
▁คําถาม	-4974
▁ประชากร	-4975
็กซิ	-4976
▁ปาร์	-4977
▁การนํา	-4978
▁กุญแจ	-4979
นน	-4980
▁ทับ	-4981
▁คาเฟ	-4982
▁พูดว่า	-4983
▁สาธารณะ	-4984
ox	-4985
▁เถอะ	-4986
▁มีราคา	-4987
▁สุดยอด	-4988
▁ถึงแม้ว่า	-4989
▁ตระ	-4990
▁เหย	-4991
ลูก	-4992
▁จันทร์	-4993
ร้า	-4994
▁ฟล	-4995
▁มั่น	-4996
▁วัตถุประสงค์	-4997
นวย	-4998
▁ปั๊ม	-4999
▁ราวกับ	-5000
▁สํารอง	-5001
▁/4	-5002
▁:|-||	-5003
▁สารเคมี	-5004
ฝาก	-5005
onic	-5006
▁ขับเคลื่อน	-5007
▁นอ	-5008
▁การวาง	-5009
▁ซับซ้อน	-5010
▁Cro	-5011
▁เนอร์	-5012
▁เมอร์	-5013
▁พล็อต	-5014
และ	-5015
▁ทุน	-5016
▁ลีก	-5017
▁แอฟริกา	-5018
ree	-5019
▁สบู่	-5020
."	-5021
oft	-5022
▁ข่าว	-5023
▁สีน้ําตาล	-5024
▁โกน	-5025
ph	-5026
ang	-5027
▁ตลก	-5028
▁โอน	-5029
เธ	-5030
▁นาม	-5031
▁Nike	-5032
▁เก็บรักษา	-5033
▁วิทยาศาสตร์	-5034
▁้	-5035
▁ไวน์	-5036
▁ติดกับ	-5037
▁ฟังก์ชัน	-5038
▁ชั่น	-5039
▁เปลว	-5040
▁ทดแทน	-5041
เกาะ	-5042
ะนั้น	-5043
สมผล	-5044
▁หลาน	-5045
▁ศึกษา	-5046
เหตุสมผล	-5047
▁์	-5048
▁56	-5049
▁อบอุ่น	-5050
GE	-5051
▁ห่อ	-5052
▁ห้าง	-5053
▁ห้องน้ํา	-5054
io	-5055
▁เนย	-5056
▁ว่างงาน	-5057
ริญ	-5058
PU	-5059
▁ให	-5060
▁แฟล	-5061
ํอ	-5062
▁ซี่	-5063
▁กระเป๋าสะพาย	-5064
▁การวางแผน	-5065
อัด	-5066
▁ยับ	-5067
ทึก	-5068
▁ข้า	-5069
▁เว้น	-5070
▁สายตา	-5071
เวฟ	-5072
▁180	-5073
ลาม	-5074
▁Hz	-5075
▁สมเหตุสมผล	-5076
▁ทวน	-5077
อส	-5078
เผ	-5079
ition	-5080
▁ที่ว่าง	-5081
▁นานาชาติ	-5082
▁แลกเปลี่ยน	-5083
ฟท์	-5084
▁PA	-5085
มพูชา	-5086
ประชาชาติ	-5087
เกล	-5088
▁กัมพูชา	-5089
▁คุ	-5090
▁จอแสดง	-5091
▁เม็กซิ	-5092
▁รายจ่าย	-5093
36	-5094
ลิ	-5095
แพ้	-5096
าว์	-5097
▁cm	-5098
▁ต่างชาติ	-5099
▁อืม	-5100
▁ใดๆ	-5101
▁ชุมชน	-5102
▁กลางคืน	-5103
▁มอค	-5104
▁ตาก	-5105
▁การปรับปรุง	-5106
▁เปลวไฟ	-5107
▁จอแสดงผล	-5108
เท่า	-5109
▁สถาป	-5110
IF	-5111
▁น่ากลัว	-5112
ART	-5113
▁คิ้ว	-5114
▁สรุป	-5115
▁อนุญาต	-5116
▁ทอด	-5117
▁คาร์บอน	-5118
▁องค์การ	-5119
af	-5120
▁เต้า	-5121
▁เข็มขัด	-5122
▁นายกรัฐมนตรี	-5123
แมน	-5124
▁เช่นนั้น	-5125
45	-5126
ิยาย	-5127
▁เจ็บ	-5128
▁มอคค่า	-5129
▁พิก	-5130
▁กลับบ้าน	-5131
▁หรือเปล่า	-5132
▁ทวีป	-5133
▁กล้าม	-5134
▁ทําหน้าที่	-5135
▁กลัว	-5136
▁จัดตั้ง	-5137
▁พร้อมด้วย	-5138
tra	-5139
เมื่อ	-5140
▁ข้างใน	-5141
▁ฟื้นฟู	-5142
▁สัตว์เลี้ยง	-5143
age	-5144
less	-5145
บุ๊ค	-5146
▁พร้อมกัน	-5147
▁นวน	-5148
▁HDMI	-5149
▁นวนิยาย	-5150
▁เลว	-5151
▁นอร์	-5152
▁เจนท์	-5153
▁บาย	-5154
▁2549	-5155
▁ย้อน	-5156
▁สกปรก	-5157
▁ท้าทาย	-5158
▁โปแลนด์	-5159
▁PP	-5160
▁เศษ	-5161
▁เทียม	-5162
▁ต้นทุน	-5163
ื่อม	-5164
▁ลาก	-5165
PL	-5166
▁อาทิตย์	-5167
▁ผ่า	-5168
ต่อสู้	-5169
▁ภาชนะ	-5170
แซ	-5171
▁เครื่องดูด	-5172
▁คอร์	-5173
มอบ	-5174
▁SK	-5175
ak	-5176
มุน	-5177
▁ไขมัน	-5178
ประสิทธิภาพ	-5179
สมา	-5180
▁ต้นฉบับ	-5181
มวล	-5182
▁คลื่น	-5183
▁น่าเชื่อ	-5184
▁อิตาเล	-5185
▁ล๎าน	-5186
▁ผิ	-5187
▁มินิ	-5188
▁การเช่า	-5189
▁นิรภัย	-5190
ติเมตร	-5191
▁นค	-5192
▁ฮี	-5193
รองเท้า	-5194
act	-5195
▁PH	-5196
▁โก้	-5197
▁จักรยาน	-5198
กซ์	-5199
ชิด	-5200
▁72	-5201
▁ปลด	-5202
▁สแกน	-5203
▁ในกรณีที่	-5204
▁เปลี่ยนแปลง	-5205
▁กฎ	-5206
เส้น	-5207
▁คล้อง	-5208
ase	-5209
เชี่ยวชาญ	-5210
พระ	-5211
▁197	-5212
▁เลิฟ	-5213
▁ขาดดุล	-5214
▁ล้ําลึก	-5215
▁นิวยอร์ก	-5216
pl	-5217
▁เซราม	-5218
่องกง	-5219
▁ฝั่ง	-5220
▁การเลือกตั้ง	-5221
▁HE	-5222
ECT	-5223
ian	-5224
รบกวน	-5225
มัดระวัง	-5226
ick	-5227
รย์	-5228
▁66	-5229
▁ผู้เชี่ยวชาญ	-5230
▁ต้ม	-5231
pi	-5232
▁โคม	-5233
ain	-5234
▁หยด	-5235
▁ถ่ายภาพ	-5236
ีฬา	-5237
เคิล	-5238
ยาบาล	-5239
oth	-5240
▁49	-5241
▁รํา	-5242
▁2547	-5243
ุ้นเคย	-5244
▁หมู่เกาะ	-5245
ึบ	-5246
เนา	-5247
▁ดร	-5248
▁หลวม	-5249
▁อัลม	-5250
▁ฮ่องกง	-5251
▁ทุกชนิด	-5252
▁0.2	-5253
▁Cle	-5254
▁กองทัพเรือ	-5255
▁ลัก	-5256
▁เพอร์	-5257
▁อันตราย	-5258
▁พรีเมี่ยม	-5259
▁คาราเมล	-5260
▁ตั้งเวลา	-5261
▁พร้อมทั้ง	-5262
▁ภาคอุตสาหกรรม	-5263
ยับ	-5264
▁ย่อย	-5265
▁Cream	-5266
▁OS	-5267
ิร์ต	-5268
▁ชนะ	-5269
▁รูปลักษณ์	-5270
ตั๋ว	-5271
▁พึง	-5272
▁แผ่นดิน	-5273
▁ผู้โดยสาร	-5274
▁ด้วยตัวเอง	-5275
ect	-5276
▁เคมี	-5277
ประดับ	-5278
๊ส	-5279
าดา	-5280
เข้ม	-5281
ศ์	-5282
▁เป็นมิตร	-5283
ิทธิพล	-5284
▁เสน่ห์	-5285
ly	-5286
โยง	-5287
▁54	-5288
▁อวกาศ	-5289
▁ฝาครอบ	-5290
ies	-5291
▁วันเกิด	-5292
▁การตัด	-5293
▁ขณะนี้	-5294
▁ภาพรวม	-5295
▁กล้ามเนื้อ	-5296
▁SM	-5297
พอใจ	-5298
ิกซ์	-5299
ble	-5300
▁ผลงาน	-5301
24	-5302
กอก	-5303
▁BL	-5304
รีส์	-5305
▁COM	-5306
▁สอน	-5307
▁อะลูมิเนียม	-5308
ww	-5309
▁2548	-5310
▁เค้า	-5311
▁ไปหา	-5312
IGH	-5313
กัส	-5314
เวย์	-5315
▁ลี่	-5316
▁กลไก	-5317
▁นิ่ม	-5318
▁มาสก	-5319
ซีแลนด์	-5320
๊ต	-5321
ids	-5322
▁Ser	-5323
▁เพราะว่า	-5324
อท	-5325
▁สะกด	-5326
▁ฮาร์ด	-5327
▁ให้ความ	-5328
▁98	-5329
ธิการ	-5330
▁รีโม	-5331
▁นิวซีแลนด์	-5332
คาม	-5333
▁ฉีด	-5334
▁ฉลาก	-5335
§1	-5336
èÒ	-5337
▁ถั่ว	-5338
▁น้ําหมึก	-5339
ส้ม	-5340
ิ้ม	-5341
▁งด	-5342
▁โคตร	-5343
ong	-5344
ตรา	-5345
ซ้ํา	-5346
าวน์	-5347
▁บัน	-5348
▁ทรงพลัง	-5349
▁MP	-5350
▁มน	-5351
▁0.8	-5352
▁h	-5353
▁เอช	-5354
▁พนักพิง	-5355
▁พันธมิตร	-5356
▁สงวนสิทธิ์	-5357
ood	-5358
ซิส	-5359
▁น้	-5360
▁วาด	-5361
▁ซีรีส์	-5362
▁ทางทะเล	-5363
ิทยา	-5364
▁มันดี	-5365
▁เรื่อย	-5366
าร์ก	-5367
เรียบ	-5368
เวียน	-5369
▁เบื่อ	-5370
▁47	-5371
▁งก	-5372
▁ค้าง	-5373
▁ประหลาดใจ	-5374
▁--	-5375
▁mm	-5376
สว่าง	-5377
▁บริษัทฯ	-5378
ประจําวัน	-5379
▁EU	-5380
▁Ne	-5381
ยากร	-5382
▁อัลมอนด์	-5383
▁เคลื่อนที่	-5384
▁ํอน	-5385
▁เสาร์	-5386
▁เชื่อมโยง	-5387
▁o	-5388
รัส	-5389
▁รึ	-5390
คิว	-5391
รอ้ย	-5392
▁Min	-5393
▁ฟัน	-5394
33	-5395
enc	-5396
▁ระเบิด	-5397
CL	-5398
ual	-5399
▁ทศวรรษ	-5400
▁เลี้ยง	-5401
งบประมาณ	-5402
▁Board	-5403
▁คุกคาม	-5404
ราณ	-5405
reen	-5406
▁ชี้	-5407
▁Ph	-5408
หลับ	-5409
ticle	-5410
วยงาม	-5411
กําหนด	-5412
▁ไมโครเวฟ	-5413
pe	-5414
เนิด	-5415
เชื้อ	-5416
▁ธงชาติ	-5417
▁ความสวยงาม	-5418
▁เครื่องยนต์	-5419
▁ภาวะเศรษฐกิจ	-5420
▁แอร์	-5421
▁เครื่องประดับ	-5422
▁Sup	-5423
▁จอด	-5424
▁เลวร้าย	-5425
lex	-5426
▁เย็นสบาย	-5427
▁มู	-5428
เข็น	-5429
▁นอกเหนือจาก	-5430
่ย	-5431
▁1.3	-5432
▁บ้า	-5433
▁รถเข็น	-5434
▁กระทรวงการ	-5435
▁Th	-5436
▁ฟา	-5437
▁ทรัพย์สิน	-5438
▁ใยสังเคราะห์	-5439
กี้	-5440
▁Fit	-5441
▁ตอนจบ	-5442
อการ	-5443
เยาว์	-5444
▁รับประทาน	-5445
IA	-5446
โอน	-5447
▁ร้า	-5448
▁คริสต	-5449
▁น้ําเย็น	-5450
▁การต่อสู้	-5451
▁Out	-5452
▁อิ่ม	-5453
▁Notes	-5454
ift	-5455
▁กล่าวถึง	-5456
▁ปีงบประมาณ	-5457
IZ	-5458
บริหาร	-5459
▁7.5	-5460
OU	-5461
▁57	-5462
อล์ฟ	-5463
▁สับ	-5464
▁ชั้นนอก	-5465
▁1.0	-5466
▁เค้ก	-5467
▁หุง	-5468
เดต	-5469
▁TV	-5470
ปิ้ง	-5471
▁รับสัญญาณ	-5472
▁เครื่องดูดฝุ่น	-5473
▁ขาตั้ง	-5474
▁เงินฝาก	-5475
▁He	-5476
▁พวง	-5477
ข้อมือ	-5478
▁แมทช์	-5479
.99	-5480
จ้าง	-5481
▁Mat	-5482
เข็บ	-5483
▁มั่นคง	-5484
เครดิต	-5485
▁ตะเข็บ	-5486
▁ว่าที่	-5487
▁การปกครอง	-5488
39	-5489
▁สระ	-5490
▁เชื้อเพลิง	-5491
▁ถอน	-5492
▁นิยม	-5493
▁e	-5494
กลา	-5495
▁สีกร	-5496
▁โมเด	-5497
▁ผู้ให้	-5498
▁สีกรมท่า	-5499
หาด	-5500
เนอร์	-5501
▁ค่อย	-5502
กลาโหม	-5503
▁สะดุดตา	-5504
ams	-5505
ริยา	-5506
▁2.1	-5507
▁มีชื่อเสียง	-5508
สมัคร	-5509
่อาศัย	-5510
▁ผิวหนัง	-5511
เครียด	-5512
▁ควรจะเป็น	-5513
▁สภาพอากาศ	-5514
▁กระทรวงกลาโหม	-5515
▁ปีก	-5516
▁คาดการณ์	-5517
ุษ	-5518
▁el	-5519
▁เงินทุน	-5520
ปุ่ม	-5521
▁อ่อนน	-5522
ญญา	-5523
ตํา	-5524
▁Dri	-5525
▁สับสน	-5526
▁คนเดียว	-5527
▁PC	-5528
▁สเปค	-5529
▁สมาคม	-5530
ู่อาศัย	-5531
▁ชงกาแฟ	-5532
▁เสียชีวิต	-5533
ond	-5534
▁EX	-5535
คราว	-5536
กร้อง	-5537
▁รอ้ย	-5538
▁รวมกัน	-5539
▁ประทับใจ	-5540
▁การกระทํา	-5541
▁Pr	-5542
ทึ่ง	-5543
▁น่าทึ่ง	-5544
▁Particle	-5545
ผ่านศูนย์กลาง	-5546
กีฬา	-5547
AP	-5548
▁ตํารวจ	-5549
▁กลางแจ้ง	-5550
▁บัตรเครดิต	-5551
๊ด	-5552
▁ทีหลัง	-5553
▁จักรพรร	-5554
▁ก้าวเดิน	-5555
▁เบน	-5556
ารก	-5557
▁ละมุน	-5558
▁เศรษฐ	-5559
▁แคนาดา	-5560
▁อ่อนนุ่ม	-5561
็อบ	-5562
▁คงอยู่	-5563
เฉียงใต้	-5564
ตื่นเต้น	-5565
▁เป็นปัญหา	-5566
ATH	-5567
▁วิทยุ	-5568
▁เซนติเมตร	-5569
▁8.5	-5570
กาลูก	-5571
เหมาะ	-5572
▁เสมือน	-5573
กาลูกลื่น	-5574
ชิญ	-5575
พิธ	-5576
▁จาง	-5577
▁เผชิญ	-5578
▁จองตั๋ว	-5579
AX	-5580
▁3.1	-5581
▁มอน	-5582
▁พึ่ง	-5583
▁ลงมา	-5584
จํากัด	-5585
▁แต่งหน้า	-5586
ําเข้า	-5587
▁ผู้จัด	-5588
▁จ้างงาน	-5589
▁ออเดอร์	-5590
▁ปากกาลูกลื่น	-5591
▁ท้าย	-5592
▁หุ่น	-5593
22	-5594
้นท์	-5595
▁มอก	-5596
▁แฟลช	-5597
▁น้องๆ	-5598
▁เทอร์	-5599
▁กลา	-5600
เวลานาน	-5601
▁ร่วง	-5602
▁เป็นอันตราย	-5603
การค้า	-5604
▁แข็งค่า	-5605
▁ประโยชน์	-5606
▁ใช้เวลานาน	-5607
35	-5608
บีคิว	-5609
▁บาร์บีคิว	-5610
จีน	-5611
เต็ด	-5612
▁ชิค	-5613
▁ร่ม	-5614
▁ชิน	-5615
▁กรี	-5616
▁มาย	-5617
▁สติ	-5618
▁ก่อนอื่น	-5619
▁จม	-5620
▁ปัด	-5621
่ารัก	-5622
▁ร่อง	-5623
▁กดปุ่ม	-5624
▁58	-5625
้าส์	-5626
▁พ่น	-5627
ขายาว	-5628
เด็กซ์	-5629
เข้าใจ	-5630
▁โลชั่น	-5631
VD	-5632
▁สํ	-5633
▁พรม	-5634
▁SU	-5635
▁สรีระ	-5636
▁ความน่ารัก	-5637
ได	-5638
รจา	-5639
ม่วง	-5640
ว่าย	-5641
▁พิพิธ	-5642
จําเป็น	-5643
ial	-5644
▁)"	-5645
▁Sl	-5646
▁555	-5647
▁ฝัน	-5648
▁88	-5649
▁CD	-5650
เจ็บ	-5651
▁ถัดไป	-5652
▁ลุ	-5653
▁กระท	-5654
▁กึ่ง	-5655
▁ปอนด์	-5656
▁โฟกัส	-5657
XL	-5658
▁800	-5659
▁เซ็กส์	-5660
▁ได้ผล	-5661
เปอร์	-5662
▁Light	-5663
▁สีผิว	-5664
▁ข้างหน้า	-5665
▁IS	-5666
ไหล่	-5667
▁0.4	-5668
▁รีดผ้า	-5669
ว่ายน้ํา	-5670
▁กางเกงขายาว	-5671
▁2015	-5672
▁เดี่ยว	-5673
แอ	-5674
มะ	-5675
▁ABS	-5676
▁ปวด	-5677
▁การตัดสินใจ	-5678
คาญ	-5679
นิ้ว	-5680
▁Blue	-5681
▁เสรี	-5682
ลบ	-5683
▁the	-5684
▁2010	-5685
▁dpi	-5686
▁เข้ากันได้	-5687
บันทึก	-5688
▁ให้คะแนน	-5689
ละออง	-5690
เซ็นต์	-5691
igh	-5692
▁สันติ	-5693
EF	-5694
ASE	-5695
▁สวิตช์	-5696
กอ	-5697
ขึน้	-5698
▁เสียงดัง	-5699
กระด	-5700
▁elastane	-5701
ฤษฎ	-5702
▁ฝุ่นละออง	-5703
ซิล	-5704
ouch	-5705
▁ONE	-5706
สงสัย	-5707
▁Foam	-5708
▁โซลู	-5709
▁ภูเขา	-5710
▁ความกังวล	-5711
sh	-5712
▁ไมโครโฟน	-5713
▁4.0	-5714
บังคับ	-5715
▁BLU	-5716
▁สเปรย์	-5717
▁บาร์เรล	-5718
ular	-5719
▁ด่วน	-5720
▁เปอร์เซ็นต์	-5721
▁มุ	-5722
รุ่น	-5723
▁ถ่ายโอน	-5724
▁ยิ่งใหญ่	-5725
▁พิพิธภัณฑ์	-5726
เทพ	-5727
▁ครึ่งหลัง	-5728
▁ตัวอย่างเช่น	-5729
▁89	-5730
อลล์	-5731
▁ที่จับ	-5732
oll	-5733
▁0.6	-5734
▁แพทย์	-5735
ม่า	-5736
านิ	-5737
▁เรียง	-5738
ตั้งแต่	-5739
▁ข้อมือ	-5740
▁2.8	-5741
▁สกุล	-5742
▁ประกาย	-5743
▁62	-5744
บ่าย	-5745
▁ความสุข	-5746
▁pro	-5747
▁ไหว	-5748
▁ตะกร	-5749
▁เผยแ	-5750
ไน	-5751
พิพ	-5752
▁ไข่	-5753
▁รีโมท	-5754
▁68	-5755
ited	-5756
▁ป่า	-5757
▁ฝ่า	-5758
▁บทความ	-5759
▁แรงงาน	-5760
▁ตอนบ่าย	-5761
▁1.4	-5762
▁เด้	-5763
ัมผัส	-5764
▁จักรพรรดิ	-5765
▁รัฐธรรมนูญ	-5766
๋ง	-5767
โรค	-5768
▁Be	-5769
▁พั	-5770
ทดสอบ	-5771
▁สตรีท	-5772
▁220	-5773
▁Lip	-5774
ปลั่ง	-5775
▁แป้น	-5776
▁จังหวะ	-5777
▁เที่ยง	-5778
▁สินค้าน	-5779
▁สินค้านําเข้า	-5780
▁ชุ่มชื้น	-5781
เล่ม	-5782
▁ส่อง	-5783
▁ผู้อ่าน	-5784
▁เปล่งปลั่ง	-5785
เสธ	-5786
▁รั่ม	-5787
▁เจรจา	-5788
เทม	-5789
โต๊ะ	-5790
▁1.1	-5791
ญากาศ	-5792
▁196	-5793
▁ปฏิเสธ	-5794
▁รัฐสภา	-5795
พร่	-5796
▁ไพ	-5797
▁Pad	-5798
สามารถ	-5799
48	-5800
ov	-5801
พูด	-5802
▁โน่	-5803
▁ทรัพ	-5804
▁หลักฐาน	-5805
▁แฮม	-5806
▁สมมติ	-5807
▁ช้อน	-5808
▁Smart	-5809
▁ระดับเสียง	-5810
▁แก้ไขปัญหา	-5811
erg	-5812
ขนาด	-5813
เก่า	-5814
เหงื่อ	-5815
▁เอาชนะ	-5816
▁กรุงเทพ	-5817
▁คุ้นเคย	-5818
▁ซัน	-5819
ปฏิบัติการ	-5820
▁เสียงรบกวน	-5821
ปรับ	-5822
ตะวันออก	-5823
▁ซับเหงื่อ	-5824
yn	-5825
▁จอร์	-5826
▁วันพร	-5827
owerbuy	-5828
▁นอนหลับ	-5829
▁Ey	-5830
▁Mix	-5831
▁fit	-5832
amide	-5833
amine	-5834
็กซี่	-5835
▁ตัวแทน	-5836
▁เสียใจ	-5837
▁ถือเป็น	-5838
ฉะนั้น	-5839
▁76	-5840
เลอร์	-5841
▁ความสว่าง	-5842
▁วันพรุ่งนี้	-5843
ราย	-5844
--------	-5845
▁งบ	-5846
ust	-5847
▁มาร	-5848
▁โดยอ	-5849
▁ความต	-5850
▁นางแบบ	-5851
▁แนวตั้ง	-5852
▁2550	-5853
▁เอาไว้	-5854
▁สังเกตเห็น	-5855
...	-5856
▁ศิลปิน	-5857
▁ธนาคารพาณิชย์	-5858
ิวน	-5859
▁กัก	-5860
▁เบจ	-5861
ํารง	-5862
▁ส่งมอบ	-5863
▁ก่อตั้ง	-5864
▁ส่วนเกิน	-5865
▁อริ	-5866
▁2014	-5867
▁ไอเทม	-5868
▁ชายหาด	-5869
PER	-5870
ตอบแทน	-5871
สมาชิก	-5872
▁เข้าเล่ม	-5873
▁Can	-5874
▁cotton	-5875
เหตุผล	-5876
▁ชีวิตประจําวัน	-5877
.50	-5878
▁เพื่อที่จะ	-5879
ale	-5880
▁ตัวเล็ก	-5881
▁แร	-5882
รู้จัก	-5883
ําร้อน	-5884
▁มีทาง	-5885
▁Gl	-5886
สูตร	-5887
▁ลิง	-5888
ขัดแย้ง	-5889
▁ฟี	-5890
สะพัด	-5891
▁กระป	-5892
▁คาเฟ่	-5893
▁ออยล์	-5894
▁โยก	-5895
อลเลย์	-5896
▁เจอร์	-5897
วงศ์	-5898
▁ว่าด้วย	-5899
TI	-5900
วลต์	-5901
▁เด่น	-5902
▁อิรัก	-5903
▁โวลต์	-5904
▁เปิดตัว	-5905
▁รุก	-5906
▁ต่อสู้	-5907
▁ชั้นนํา	-5908
ull	-5909
ซักฟอก	-5910
▁เป็นสนิม	-5911
▁เผยแพร่	-5912
อลเลย์บอล	-5913
▁เดน	-5914
อการร้าย	-5915
เลย	-5916
▁195	-5917
▁เหล่า	-5918
▁รุ	-5919
pper	-5920
▁สนธิ	-5921
บายอากาศ	-5922
ความสําเร็จ	-5923
ดํา	-5924
วิทย	-5925
amsung	-5926
พยาบาล	-5927
▁การวิจัย	-5928
ord	-5929
▁78	-5930
▁แว่นตา	-5931
พารา	-5932
างค์	-5933
▁1.7	-5934
▁โรแมน	-5935
▁ยางพารา	-5936
▁เครื่องครัว	-5937
BO	-5938
ath	-5939
▁):5	-5940
▁ต้าน	-5941
▁แลนด์	-5942
▁นี้แหละ	-5943
▁เวอร์ชั่น	-5944
▁โบราณ	-5945
การทดสอบ	-5946
▁ผิดปกติ	-5947
▁ผ่านการทดสอบ	-5948
ึดอัด	-5949
▁เลือด	-5950
▁มีโอกาส	-5951
▁อิตาเลียน	-5952
per	-5953
าท์	-5954
▁เสา	-5955
▁ทรงกลม	-5956
ail	-5957
▁0.0	-5958
▁3.8	-5959
▁อ่อนเยาว์	-5960
สูจน์	-5961
▁FILA	-5962
▁ยูวี	-5963
▁ถุงเท้า	-5964
▁สงครามโลก	-5965
ษัต	-5966
▁บริหาร	-5967
▁บาด	-5968
▁มัง	-5969
ษัตริ	-5970
เดินสะพัด	-5971
▁บัญชีเดินสะพัด	-5972
▁ปลูก	-5973
รานซิส	-5974
ษัตริย์	-5975
▁สําเนา	-5976
▁เท่าไร	-5977
man	-5978
ปัน	-5979
▁__	-5980
ุมขน	-5981
▁Mem	-5982
▁Melamine	-5983
▁พันธบัตร	-5984
เดา	-5985
▁วิศ	-5986
▁บุคล	-5987
ASS	-5988
able	-5989
เด็จ	-5990
▁กาย	-5991
▁สกรู	-5992
ความสามารถ	-5993
จ์	-5994
▁ล่าง	-5995
▁อักษร	-5996
▁มือจับ	-5997
▁เครื่องล้าง	-5998
▁ถุงมือ	-5999
ฤษฎี	-6000
▁AND	-6001
▁แทบจะ	-6002
ขสิทธิ์	-6003
▁สมจริง	-6004
oy	-6005
ERS	-6006
▁0.9	-6007
▁นิต	-6008
▁เลก	-6009
▁ต่างหาก	-6010
▁ทรัพยากร	-6011
▁Tr	-6012
รรย์	-6013
บัญชาการ	-6014
▁บัก	-6015
กระดับ	-6016
▁มะกอก	-6017
้อนรับ	-6018
▁รางวัล	-6019
▁ตราบ	-6020
▁ผู้ให้บริการ	-6021
end	-6022
สนุก	-6023
นิเจอร์	-6024
▁จัดระเบียบ	-6025
เพรส	-6026
▁ซิต	-6027
▁วิกฤ	-6028
▁คาดเดา	-6029
▁เฟอร์นิเจอร์	-6030
จญ	-6031
ith	-6032
ICRO	-6033
วิทยา	-6034
▁ไมล์	-6035
▁ราชอาณาจักร	-6036
ิสก์	-6037
แห่ง	-6038
▁รูข	-6039
▁เมท	-6040
▁หล่น	-6041
▁แพร่	-6042
▁รูขุมขน	-6043
▁งา	-6044
▁ลูกไม้	-6045
▁ความสดชื่น	-6046
▁คิ	-6047
▁โคล	-6048
จรรย์	-6049
▁สนธิสัญญา	-6050
AST	-6051
ร้อน	-6052
▁ตั้งใจ	-6053
▁ผงซักฟอก	-6054
▁ไอร์แลนด์	-6055
เผย	-6056
ฝั่ง	-6057
▁2.2	-6058
▁ดัน	-6059
▁การคาด	-6060
▁ความขัดแย้ง	-6061
ib	-6062
▁My	-6063
ence	-6064
▁พาส	-6065
▁เงินบาท	-6066
โมสร	-6067
▁วาน	-6068
▁ของเหลว	-6069
gle	-6070
▁re	-6071
▁ลิน	-6072
▁คอมม	-6073
▁ตกหล	-6074
เริ่มต้น	-6075
▁ปลั๊กไฟ	-6076
ิญ	-6077
▁การผ	-6078
▁White	-6079
▁เคล็ด	-6080
▁ครึ่งหนึ่ง	-6081
้ด	-6082
▁59	-6083
▁ทึบ	-6084
▁อนุม	-6085
ile	-6086
วิส	-6087
ค้าง	-6088
▁อาณ	-6089
▁รอบตัว	-6090
▁จับเวลา	-6091
ประกอบการ	-6092
▁EL	-6093
▁ภั	-6094
lection	-6095
▁ส้นรองเท้า	-6096
▁คลี	-6097
สังหาร	-6098
▁สโมสร	-6099
ถ่ายภาพ	-6100
▁ร่วมใน	-6101
▁สภาพแวดล้อม	-6102
▁นาฬิกาข้อมือ	-6103
ยืน	-6104
▁EVA	-6105
▁USD	-6106
GB	-6107
เวน	-6108
▁เครื่องหมาย	-6109
42	-6110
▁ไล่	-6111
▁โปรโม	-6112
▁โรมัน	-6113
ama	-6114
ACO	-6115
▁ดุจ	-6116
▁อาทิ	-6117
▁ผู้แต่ง	-6118
UD	-6119
▁(5	-6120
▁Se	-6121
เมล์	-6122
▁เคล็ดลับ	-6123
▁แม้กระทั่ง	-6124
▁เกอร์	-6125
เร่ง	-6126
▁ออนซ์	-6127
▁เหมือนว่า	-6128
คุย	-6129
เลว	-6130
▁ใบพัด	-6131
▁ประสาท	-6132
▁เกลี่ย	-6133
ัตโนมัติ	-6134
▁พูดคุย	-6135
▁ดําน้ํา	-6136
SE	-6137
IPS	-6138
▁MM	-6139
▁Samsung	-6140
▁อีกแล้ว	-6141
old	-6142
▁วิศวก	-6143
▁เครื่องล้างจาน	-6144
ชร	-6145
ISS	-6146
▁เหม	-6147
เกณฑ์	-6148
▁เกษตรกร	-6149
▁เบอร์โทรศัพท์	-6150
▁r	-6151
ถัน	-6152
▁AR	-6153
▁Te	-6154
ปลีก	-6155
วิธี	-6156
ะเลิศ	-6157
▁อะไหล่	-6158
▁ส่วนบุคคล	-6159
▁จุก	-6160
▁สุก	-6161
▁หนวด	-6162
▁โดยอัตโนมัติ	-6163
PUT	-6164
จญภัย	-6165
เกษตร	-6166
▁ง่	-6167
▁คิง	-6168
▁แปด	-6169
▁ก้าน	-6170
▁แข่ง	-6171
▁มิกซ์	-6172
▁มีชีวิตชีวา	-6173
PI	-6174
ฝน	-6175
อิส	-6176
▁วิว	-6177
lite	-6178
▁ยกระดับ	-6179
วาน	-6180
▁Fr	-6181
▁อด	-6182
ตรวจ	-6183
▁คอย	-6184
▁ยิ่งกว่า	-6185
ขี่	-6186
เหย	-6187
▁Hy	-6188
▁โกล	-6189
▁พิกเซล	-6190
▁เกือบจะ	-6191
▁เสียงเพลง	-6192
▁3.2	-6193
▁หนุ่ม	-6194
▁วิเคราะห์	-6195
38	-6196
▁Un	-6197
▁โอบ	-6198
ผิดชอบ	-6199
▁กันที่	-6200
อยู่อาศัย	-6201
▁LA	-6202
▁เบคอน	-6203
▁ตอนเช้า	-6204
แถ	-6205
▁92	-6206
▁Ul	-6207
▁โบว์	-6208
▁ทัวร์	-6209
ัตเตอร์	-6210
▁ชื่อว่า	-6211
▁ที่ตั้ง	-6212
▁ล้มเหลว	-6213
ans	-6214
tern	-6215
เทือน	-6216
▁เรียกร้อง	-6217
ony	-6218
▁คัดสรร	-6219
▁ทางการค้า	-6220
▁นับตั้งแต่	-6221
ฮอล์	-6222
พันธ์	-6223
▁เกลือ	-6224
จําหน่าย	-6225
HD	-6226
▁Or	-6227
▁แส	-6228
ถีพิ	-6229
▁มาส	-6230
เลียม	-6231
ถีพิถัน	-6232
▁ยุ่งยาก	-6233
พัน	-6234
▁2.3	-6235
ลุ	-6236
ach	-6237
use	-6238
▁de	-6239
▁ม้า	-6240
▁แชร์	-6241
▁กลิ่นอ	-6242
▁ศตวรรษ	-6243
▁ตรงกลาง	-6244
▁Oil	-6245
▁พูล	-6246
▁ทุกเวลา	-6247
rig	-6248
▁1.6	-6249
ug	-6250
ม์	-6251
▁SPE	-6252
▁ให้เช่า	-6253
คอย	-6254
▁Super	-6255
▁มหภาค	-6256
▁polyester	-6257
ทิศ	-6258
นิค	-6259
▁บัล	-6260
▁ช็อก	-6261
ผึ้ง	-6262
ยั้ง	-6263
▁LAN	-6264
anc	-6265
ิร์ม	-6266
▁|||	-6267
▁ย่อ	-6268
▁ทรงตัว	-6269
ดาน	-6270
ิวนิสต์	-6271
▁การบริหาร	-6272
▁),	-6273
iver	-6274
▁สตั	-6275
▁หัวหอม	-6276
▁แค่นี้	-6277
▁กระเป๋าเดินทาง	-6278
▁เจ๋ง	-6279
▁Memory	-6280
▁ชายฝั่ง	-6281
▁หลักสูตร	-6282
๋า	-6283
fer	-6284
▁POL	-6285
านิคม	-6286
▁นึ่ง	-6287
TU	-6288
▁อ่า	-6289
▁เปลี่ยนเป็น	-6290
INI	-6291
ool	-6292
▁Ar	-6293
▁กรด	-6294
▁ซ่า	-6295
ให	-6296
ลาบ	-6297
▁รบ	-6298
▁แต้ม	-6299
▁:2	-6300
ather	-6301
เร็ง	-6302
▁เล่า	-6303
▁ประชุม	-6304
▁ปรับเปลี่ยน	-6305
ITE	-6306
▁สีม่วง	-6307
▁ระยะยาว	-6308
ดอน	-6309
เกส	-6310
หลาบ	-6311
▁ชวน	-6312
▁ตํอ	-6313
ตุเกส	-6314
พร้าว	-6315
าสั้น	-6316
▁ป้อน	-6317
▁โปรตุเกส	-6318
สวน	-6319
▁ดังนี้	-6320
ิมทรัพย์	-6321
พาน	-6322
พร้อม	-6323
่อกัน	-6324
▁ไปมา	-6325
▁กรมท่า	-6326
▁กู้	-6327
ัศจรรย์	-6328
ประทับใจ	-6329
IP	-6330
ารีด	-6331
ํานวย	-6332
▁รับทราบ	-6333
รค	-6334
▁โพสต์	-6335
AND	-6336
ารีส	-6337
▁กี้	-6338
ส่วนตัว	-6339
▁ห้องนอน	-6340
▁ไบ	-6341
เนียน	-6342
▁เช็ก	-6343
are	-6344
▁พฤติ	-6345
▁ปารีส	-6346
▁อัปเดต	-6347
▁เตารีด	-6348
31	-6349
กรอง	-6350
▁กุด	-6351
▁แกะ	-6352
▁อึดอัด	-6353
ERA	-6354
▁240	-6355
▁ค่ํา	-6356
▁โคมไฟ	-6357
▁แบ่งปัน	-6358
▁ความงาม	-6359
ade	-6360
รถไฟ	-6361
เจาะ	-6362
▁แอม	-6363
เทิร์น	-6364
▁อาณานิคม	-6365
▁เด็กผู้หญิง	-6366
USE	-6367
บอก	-6368
▁Pe	-6369
▁ยอดนิยม	-6370
isc	-6371
▁มัค	-6372
▁เลอะ	-6373
ความเป็น	-6374
▁นําไปสู่	-6375
▁เป็นประจํา	-6376
▁เป็นที่รู้จัก	-6377
az	-6378
▁เท่านี้	-6379
▁ประกันตัว	-6380
▁ที่อยู่อาศัย	-6381
มอน	-6382
ความเป็นจริง	-6383
%)	-6384
▁ซะ	-6385
ทันที	-6386
ิวัติ	-6387
▁ทานอาหาร	-6388
พืช	-6389
หน๎า	-6390
เท็จ	-6391
▁Reg	-6392
▁ยานยนต์	-6393
ตตา	-6394
ฟ่า	-6395
อบอุ่น	-6396
▁Sw	-6397
▁ระบ	-6398
ากรรม	-6399
▁1000	-6400
▁ตอนกลาง	-6401
▁โซเวียต	-6402
▁ผลตอบแทน	-6403
▁ความอบอุ่น	-6404
ไบ	-6405
▁ES	-6406
▁อสังหาร	-6407
ound	-6408
▁พ้น	-6409
▁มัลติ	-6410
ก่อการร้าย	-6411
▁Collection	-6412
ใหล	-6413
▁Max	-6414
▁แพท	-6415
▁ครอง	-6416
44	-6417
สิบ	-6418
▁FIT	-6419
▁เทศกาล	-6420
เท็จจริง	-6421
▁มะพร้าว	-6422
▁โปโล	-6423
▁ย่างก้าว	-6424
▁โรแมนติก	-6425
▁ข้อเท็จจริง	-6426
▁ยุติ	-6427
▁เต้น	-6428
▁บัค	-6429
▁บ่น	-6430
▁Edge	-6431
ขาสั้น	-6432
▁เกลียว	-6433
ซีดี	-6434
▁รึเปล่า	-6435
ั้ว	-6436
▁51	-6437
▁86	-6438
กระดุม	-6439
ผู้ชาย	-6440
▁เลอร์	-6441
▁สันติภาพ	-6442
▁อัง	-6443
▁โซลูชั่น	-6444
▁ความเข้าใจ	-6445
ซิ	-6446
โค	-6447
โดด	-6448
▁กว้างขวาง	-6449
▁ค่าเงินบาท	-6450
▁การคาดการณ์	-6451
าน์	-6452
▁ซัม	-6453
ทรีย์	-6454
▁ติดกระดุม	-6455
▁www	-6456
NA	-6457
ตีน	-6458
▁4.2	-6459
ยัง	-6460
atch	-6461
▁แร่	-6462
▁2012	-6463
ื่อสาร	-6464
▁a	-6465
ิร์ก	-6466
ซักผ้า	-6467
▁แบล็ค	-6468
INS	-6469
▁สีส้ม	-6470
▁เปิดเผย	-6471
▁คอมมิวนิสต์	-6472
ศร	-6473
▁77	-6474
▁For	-6475
▁ฟิต	-6476
▁โปรตีน	-6477
▁เชื่อถือ	-6478
▁เครื่องซักผ้า	-6479
CO	-6480
ปะรด	-6481
▁3.3	-6482
▁สลับ	-6483
▁มาร์ค	-6484
▁โรงพยาบาล	-6485
▁ระมัดระวัง	-6486
▁สหประชาชาติ	-6487
++	-6488
ux	-6489
ธา	-6490
▁Skin	-6491
▁ลิขสิทธิ์	-6492
ภาย	-6493
look	-6494
▁แกร	-6495
▁ซ่อน	-6496
วิทยาศาสตร์	-6497
▁96	-6498
▁ชู	-6499
หลาก	-6500
รักษ์	-6501
▁ใช้ไม่ได้	-6502
▁ในขณะ	-6503
ปรัส	-6504
▁คาส	-6505
▁มืด	-6506
▁หัน	-6507
▁บรรเทา	-6508
รานซิสโก	-6509
ไพร	-6510
▁:(	-6511
▁สู้	-6512
▁iPhone	-6513
บางอย่าง	-6514
▁กางเกงขาสั้น	-6515
▁ชั้นดี	-6516
▁สมมติฐาน	-6517
ผลไม้	-6518
▁คําตอบ	-6519
▁แมค	-6520
▁53	-6521
▁ย่าน	-6522
น้ําหนัก	-6523
▁อย่างหนึ่ง	-6524
▁รีบ	-6525
▁แมตต์	-6526
▁ราชวงศ์	-6527
▁บางสิ่งบางอย่าง	-6528
งค์	-6529
หญ้า	-6530
▁ทารก	-6531
เชย	-6532
▁TO	-6533
กอฮอล์	-6534
▁กลาโหม	-6535
▁ปรุงอาหาร	-6536
trol	-6537
▁2.7	-6538
▁คล้ํา	-6539
▁ด์	-6540
▁ตอ	-6541
ศตวรรษ	-6542
▁ฉีกขาด	-6543
FC	-6544
▁AS	-6545
▁CM	-6546
▁210	-6547
▁กรีซ	-6548
▁วงจร	-6549
▁ให้อ	-6550
▁อสังหาริมทรัพย์	-6551
99	-6552
อรี	-6553
โซเวียต	-6554
▁จริงจัง	-6555
ai	-6556
บา	-6557
วัด	-6558
ิกิ	-6559
▁ม่วง	-6560
▁รีไซ	-6561
▁รีไซเคิล	-6562
▁เซ็นเซอร์	-6563
ฟิศ	-6564
หรู	-6565
▁มีข้อ	-6566
บัญญัติ	-6567
▁ตีพิมพ์	-6568
▁COMP	-6569
ราชทูต	-6570
▁นักแสดง	-6571
▁แพ็คเกจ	-6572
▁มีเหตุผล	-6573
กู้	-6574
▁โยน	-6575
ดนตรี	-6576
▁กอล์ฟ	-6577
▁กระโดด	-6578
▁นํามาใช้	-6579
▁สหภาพโซเวียต	-6580
vel	-6581
▁มิส	-6582
▁ชุ่มชื่น	-6583
โดว์	-6584
็กซัส	-6585
▁ข้อแนะนํา	-6586
▁5.0	-6587
▁วิชา	-6588
▁งดงาม	-6589
▁สมเด็จ	-6590
ooth	-6591
สีสัน	-6592
แชโดว์	-6593
▁ออฟฟิศ	-6594
▁บก	-6595
▁Blu	-6596
▁lot	-6597
▁ชาม	-6598
▁ผู้ช่วย	-6599
▁อายแชโดว์	-6600
▁วอลเลย์บอล	-6601
ตน	-6602
ating	-6603
▁โหลด	-6604
▁ทางการเงิน	-6605
▁มีข้อบกพร่อง	-6606
▁160	-6607
▁iPad	-6608
▁สนทนา	-6609
▁มีสีสัน	-6610
▁น้ําร้อน	-6611
▁ช็อกโกแลต	-6612
ซอน	-6613
▁ใกล้ชิด	-6614
iss	-6615
▁ทั้งสิ้น	-6616
IE	-6617
▁ไต	-6618
▁พิธี	-6619
▁คุณแม่	-6620
▁เพอร์เฟ	-6621
▁โปรโมชั่น	-6622
▁น่าตื่นเต้น	-6623
▁1.9	-6624
▁เม็กซิโก	-6625
INE	-6626
ช่วง	-6627
▁เพชร	-6628
▁คิดถึง	-6629
▁เหนื่อย	-6630
▁พฤหัส	-6631
▁ขีดความสามารถ	-6632
OOTH	-6633
▁การระบายอากาศ	-6634
RAN	-6635
▁ปลอด	-6636
▁ความมัน	-6637
บวน	-6638
ฟเฟ	-6639
▁ประจุ	-6640
▁แอปเป	-6641
ประวัติ	-6642
▁No	-6643
▁RE	-6644
oogle	-6645
▁แทรก	-6646
ดม	-6647
มิ	-6648
ks	-6649
ยอม	-6650
▁Gal	-6651
▁MAC	-6652
▁วํา	-6653
▁ลิฟต์	-6654
37	-6655
▁THE	-6656
owder	-6657
▁กระทํา	-6658
▁อนุภาค	-6659
▁Mas	-6660
▁อาช	-6661
▁Play	-6662
ปกครอง	-6663
▁จากกัน	-6664
๋อง	-6665
▁Wi	-6666
▁125	-6667
กุญแจ	-6668
▁รายชื่อ	-6669
▁เท็กซัส	-6670
ลิน	-6671
▁FL	-6672
▁อือ	-6673
▁ภัตตา	-6674
▁สี่เหลี่ยม	-6675
eb	-6676
▁for	-6677
▁พันธุ์	-6678
▁เป็นที่นิยม	-6679
ฟอร์ม	-6680
▁ฉันท	-6681
▁ประจําปี	-6682
ราง	-6683
▁9.5	-6684
▁การทด	-6685
▁เคาน์	-6686
▁ความหลาก	-6687
▁ภัตตาคาร	-6688
▁ถ่ายเอกสาร	-6689
led	-6690
▁CON	-6691
▁วิจัย	-6692
▁แอลกอฮอล์	-6693
21	-6694
ครอน	-6695
▁นคร	-6696
เปื้อน	-6697
St	-6698
▁Lim	-6699
▁นิค	-6700
▁มหาสมุทร	-6701
28	-6702
ERM	-6703
ฝึก	-6704
โป๊	-6705
▁สงบ	-6706
▁แพน	-6707
▁สีตก	-6708
▁อาชญ	-6709
นมาร์ก	-6710
▁ลองดู	-6711
▁ไมครอน	-6712
▁ปาร์ตี้	-6713
▁การถ่ายภาพ	-6714
▁ท่องเที่ยว	-6715
oud	-6716
ณิต	-6717
เขือ	-6718
▁Ess	-6719
▁กั้น	-6720
▁แถลง	-6721
▁รุ่นใหม่	-6722
▁เกษตรกรรม	-6723
▁ความรุนแรง	-6724
▁ยะ	-6725
▁แฉ	-6726
▁(4)	-6727
▁DVD	-6728
▁ลุก	-6729
ําคาญ	-6730
▁แมตช์	-6731
ารกิจ	-6732
เมอร์	-6733
▁เพดาน	-6734
▁ความหลากหลาย	-6735
▁ปืน	-6736
สาธาร	-6737
▁หนังโป๊	-6738
▁ผลประโยชน์	-6739
TY	-6740
ษฐ	-6741
axy	-6742
▁ชด	-6743
GO	-6744
▁.....	-6745
▁ฝน	-6746
ด่วน	-6747
▁มี่	-6748
▁อ่าง	-6749
▁ไลท์	-6750
▁การเกษตร	-6751
▁เดนมาร์ก	-6752
▁โต๊ะทํางาน	-6753
▁ประชาธิปไตย	-6754
▁จอภาพ	-6755
▁ทาวน์	-6756
▁ทั่วถึง	-6757
จิ	-6758
▁And	-6759
▁Pan	-6760
▁กลู	-6761
▁น่าอ	-6762
▁ลอนดอน	-6763
▁ประเมิน	-6764
▁ไซเบอร์	-6765
▁กิโลเมตร	-6766
▁ข้อมูลทั่วไป	-6767
โยค	-6768
▁ชีว	-6769
▁ดัก	-6770
▁ช็อป	-6771
iv	-6772
▁2008	-6773
▁การช	-6774
▁เชอร์	-6775
▁พิถีพิถัน	-6776
ซึ้ง	-6777
▁ก้น	-6778
▁2018	-6779
▁Char	-6780
tick	-6781
ความคิด	-6782
แม่นยํา	-6783
▁หลายชนิด	-6784
▁กระแสไฟฟ้า	-6785
▁ความแม่นยํา	-6786
แซม	-6787
ACOAL	-6788
▁บรรทัด	-6789
ภาพยนตร์	-6790
▁นัดหมาย	-6791
▁ในความเป็นจริง	-6792
ich	-6793
รรศ	-6794
ประชุม	-6795
ไม่ช้า	-6796
▁บล็อก	-6797
กําเนิด	-6798
▁โน้ตบุ๊ค	-6799
ATION	-6800
เมนต์	-6801
▁เชีย	-6802
▁แนวทาง	-6803
▁Lo	-6804
สังคม	-6805
เบิ้ล	-6806
ETOOTH	-6807
▁เว้นแต่	-6808
ign	-6809
▁ธน	-6810
ม่ขึน้	-6811
▁คงที่	-6812
▁เห็นด้วย	-6813
ark	-6814
▁หอ	-6815
เกรด	-6816
▁ศรี	-6817
▁มาส์	-6818
▁สตั๊ด	-6819
สร้างสรรค์	-6820
▁Dis	-6821
▁แตะ	-6822
▁แผนที่	-6823
▁ขั้นสูง	-6824
ธรรมเนียม	-6825
▁น้ําผลไม้	-6826
สลาย	-6827
▁3.4	-6828
▁แฉก	-6829
▁คลาย	-6830
ริบ	-6831
▁67	-6832
กระแทก	-6833
▁กรุ่น	-6834
สัมพันธ์	-6835
▁ําง	-6836
มวลผล	-6837
▁การสัมผัส	-6838
▁ลงทะเบียน	-6839
▁Lift	-6840
▁Rose	-6841
ational	-6842
USB	-6843
มาน	-6844
▁นิ่ง	-6845
▁ประโยค	-6846
ปรับอากาศ	-6847
ปา	-6848
▁ซ์	-6849
IGHT	-6850
ซิน	-6851
ณฑล	-6852
เกีย	-6853
▁SPF	-6854
▁เปล่า	-6855
ตําแหน่ง	-6856
▁คริสตัล	-6857
▁ให้เสียง	-6858
▁เปลี่ยนไป	-6859
▁หลุม	-6860
▁ทฤษฎี	-6861
กระจ	-6862
▁แคบ	-6863
▁ปุ่มกด	-6864
▁เสียค่า	-6865
▁ํอนหน๎า	-6866
เชิง	-6867
▁รัล	-6868
▁ฮิต	-6869
▁PLAY	-6870
▁เน็ต	-6871
▁เป็นไปตาม	-6872
ฉาย	-6873
▁2011	-6874
▁84	-6875
▁ไมค์	-6876
▁SC	-6877
สถาน	-6878
▁Sil	-6879
▁นิก	-6880
▁บีบ	-6881
▁รูด	-6882
บรื่น	-6883
▁อิมพ	-6884
▁ราบรื่น	-6885
วัย	-6886
ิร์ด	-6887
▁2017	-6888
▁คุกกี้	-6889
เพศ	-6890
▁อับ	-6891
▁ไซปรัส	-6892
▁ผิดพลาด	-6893
▁อะเม	-6894
▁การเมือง	-6895
ทูธ	-6896
สุดท้าย	-6897
▁ตราบใด	-6898
▁บลูทูธ	-6899
▁ทะ	-6900
▁ไม่เลว	-6901
▁วัยรุ่น	-6902
▁อะเมซอน	-6903
ther	-6904
▁ยื่น	-6905
▁ตามปกติ	-6906
▁การกระแทก	-6907
au	-6908
car	-6909
▁(9	-6910
▁GU	-6911
อบรม	-6912
SD	-6913
หมู่	-6914
▁เบื้องต้น	-6915
▁st	-6916
▁สิ่งใด	-6917
▁กระป๋อง	-6918
▁รอยด่าง	-6919
▁ไปเที่ยว	-6920
▁กันกระแทก	-6921
▁ความผิดพลาด	-6922
▁SY	-6923
▁วิล	-6924
▁สปริง	-6925
▁เปลือก	-6926
วาว	-6927
ิโอ	-6928
▁FOR	-6929
▁ซุป	-6930
▁ที่ดิน	-6931
▁เคาน์เตอร์	-6932
ดิบ	-6933
โซ่	-6934
วกาย	-6935
▁ผืน	-6936
▁ผิวกาย	-6937
▁มีความรู้	-6938
▁Res	-6939
▁จดหมาย	-6940
▁นเด็กซ์	-6941
▁ในทันที	-6942
ตะวันออกเฉียงใต้	-6943
เนส	-6944
▁Tw	-6945
▁ซานฟ	-6946
ิกิริยา	-6947
ชิง	-6948
บาก	-6949
▁ชัย	-6950
▁หนาว	-6951
▁ดํารง	-6952
▁แก้ปัญหา	-6953
ANCE	-6954
อยส์	-6955
▁บีช	-6956
▁ตรงเวลา	-6957
▁อินเตอร์	-6958
▁ไร้ประโยชน์	-6959
▁:1	-6960
ภาระ	-6961
▁ปลุก	-6962
▁สนอง	-6963
▁แก๊ส	-6964
▁ตกค้าง	-6965
▁น่ารําคาญ	-6966
แคล	-6967
▁61	-6968
ทรรศ	-6969
หรี่	-6970
สมควร	-6971
ากรณ์	-6972
▁เป็นจริง	-6973
▁เป็นไปไม่ได้	-6974
yc	-6975
ด้า	-6976
▁คลุม	-6977
▁แฮร์	-6978
▁คนรัก	-6979
เขือเทศ	-6980
▁ใช้การ	-6981
▁ครู่	-6982
วยากรณ์	-6983
▁การคลัง	-6984
oh	-6985
▁ต้า	-6986
▁พุธ	-6987
▁สไล	-6988
▁รับมือ	-6989
▁เยี่ยมชม	-6990
▁SW	-6991
▁KID	-6992
▁Body	-6993
▁แต่งงาน	-6994
▁ไวยากรณ์	-6995
▁ตราบใดที่	-6996
66	-6997
ศิล	-6998
ารย์	-6999
บทบาท	-7000
▁หัวหน้า	-7001
own	-7002
▁ชํ	-7003
▁2.6	-7004
▁350	-7005
▁ร้าย	-7006
▁แหละ	-7007
ั่งยืน	-7008
▁เรือน	-7009
▁เลโก้	-7010
▁WACOAL	-7011
▁รอยต่อ	-7012
▁ใช้ชีวิต	-7013
▁ประจําวัน	-7014
▁โชค	-7015
▁สเต็ก	-7016
▁Galaxy	-7017
▁ดูก่อน	-7018
▁ความน่า	-7019
HI	-7020
ยุ	-7021
▁PR	-7022
ราจร	-7023
▁Star	-7024
▁กระต	-7025
▁จมูก	-7026
▁เที่ยวบิน	-7027
อัคร	-7028
มกลาง	-7029
▁สีเข้ม	-7030
▁อิทธิพล	-7031
อัครราชทูต	-7032
ฟัน	-7033
▁พิสูจน์	-7034
▁นําไปใช้	-7035
ank	-7036
▁หล่อ	-7037
▁ท่ามกลาง	-7038
▁เมื่อวาน	-7039
▁ความเป็นไป	-7040
▁74	-7041
▁สตร	-7042
▁High	-7043
▁ผลัก	-7044
▁เจ็ด	-7045
▁สมัคร	-7046
▁พฤติกรรม	-7047
▁แสงสว่าง	-7048
AIN	-7049
▁พาร์	-7050
▁เนีย	-7051
▁การสื่อสาร	-7052
200	-7053
ษฐ์	-7054
ไหว	-7055
▁โว	-7056
▁ขั้ว	-7057
▁ลิฟท์	-7058
▁เงินสด	-7059
▁ส้นเท้า	-7060
▁สมัยใหม่	-7061
▁ครั้งก่อน	-7062
ys	-7063
ron	-7064
▁NY	-7065
ัตรู	-7066
▁Fin	-7067
ดินสอ	-7068
▁Lock	-7069
▁เงินกู้	-7070
▁ประหยัดเวลา	-7071
แก้	-7072
▁Op	-7073
▁ฝัง	-7074
▁สํารวจ	-7075
▁ต่ําสุด	-7076
▁ฟื้นตัว	-7077
▁ในไม่ช้า	-7078
▁ชําระเงิน	-7079
ริยะ	-7080
รียว	-7081
▁3.6	-7082
▁Regular	-7083
▁ข้อกําหนด	-7084
out	-7085
วาย	-7086
▁EN	-7087
ulti	-7088
▁:-)	-7089
▁DIS	-7090
▁มวล	-7091
▁ช็อต	-7092
▁Canon	-7093
▁ซาก	-7094
▁ลอย	-7095
▁ลาว	-7096
เศร้า	-7097
▁ระยะสั้น	-7098
▁SE	-7099
▁ชว	-7100
▁วะ	-7101
▁ของใช้	-7102
▁Edition	-7103
▁ความพร้อม	-7104
▁BE	-7105
▁ละคร	-7106
▁หมอง	-7107
▁เล็บ	-7108
▁Google	-7109
CS	-7110
รรถ	-7111
วาด	-7112
▁69	-7113
ี่ยน	-7114
▁Eye	-7115
นัด	-7116
แง่	-7117
ดิษฐ์	-7118
▁2013	-7119
▁ซานฟรานซิสโก	-7120
OCK	-7121
▁ช้าง	-7122
VERTER	-7123
▁ราวกับว่า	-7124
MS	-7125
ode	-7126
▁กบ	-7127
▁มาส์ก	-7128
▁เดี๋ยวนี้	-7129
พี	-7130
▁าร	-7131
▁มัส	-7132
▁ศัตรู	-7133
▁Powder	-7134
ครั้งที่	-7135
้วง	-7136
▁อม	-7137
เฉิน	-7138
▁หลังคา	-7139
▁ใช้ประโยชน์	-7140
26	-7141
RY	-7142
oss	-7143
ทอด	-7144
▁Pri	-7145
▁2020	-7146
▁ความคาด	-7147
▁คริสต์ศตวรรษ	-7148
▁87	-7149
หยวก	-7150
▁Per	-7151
▁ฮืม	-7152
▁โง่	-7153
พาหนะ	-7154
▁หนังสือพิมพ์	-7155
.30	-7156
500	-7157
▁สรร	-7158
▁เหนอะ	-7159
▁รวมตัว	-7160
▁ลําดับ	-7161
▁พริกหยวก	-7162
▁Class	-7163
▁MICRO	-7164
▁แคมป์	-7165
แท้	-7166
คอัพ	-7167
▁ขี้	-7168
▁แกล	-7169
ุกเฉิน	-7170
▁วิทยาลัย	-7171
▁ค่าธรรมเนียม	-7172
The	-7173
oom	-7174
oun	-7175
▁ดั่ง	-7176
▁BLACK	-7177
▁เตาอบ	-7178
ิเค	-7179
ุนไพร	-7180
▁น้ํานม	-7181
▁ผู้อื่น	-7182
▁ที่หนึ่ง	-7183
▁ยานพาหนะ	-7184
▁ศูนย์กลาง	-7185
ตางค์	-7186
▁10.5	-7187
▁เหลา	-7188
ชนะเลิศ	-7189
▁ติดตัว	-7190
▁Outlook	-7191
ต้ม	-7192
▁ตึง	-7193
พลิเค	-7194
อรีน	-7195
เบีย	-7196
▁130	-7197
▁มิด	-7198
powerbuy	-7199
▁วันอาทิตย์	-7200
▁คาน	-7201
▁แลน	-7202
ฝรั่ง	-7203
สนิยม	-7204
▁หลอก	-7205
บรรทุก	-7206
รางวัล	-7207
▁ออสเตรีย	-7208
▁เหนอะหนะ	-7209
ข์	-7210
▁ดัด	-7211
▁เผา	-7212
▁แคป	-7213
▁คอวี	-7214
▁เลีย	-7215
etooth	-7216
▁ลินิน	-7217
▁ใส่ใจ	-7218
▁แผนการ	-7219
▁ระดับโลก	-7220
ah	-7221
▁ซุ	-7222
▁อังคาร	-7223
▁เสื่อม	-7224
ผวน	-7225
▁PM	-7226
▁อัจ	-7227
▁ทางเท	-7228
▁Fly	-7229
▁คดี	-7230
▁โน๊ต	-7231
เสื้อผ้า	-7232
▁AM	-7233
▁บ่ง	-7234
มีชีวิต	-7235
ตัวอย่าง	-7236
▁บ่อยครั้ง	-7237
จง	-7238
ซาบ	-7239
roid	-7240
yle	-7241
▁RES	-7242
▁สวี	-7243
เข้าร	-7244
▁ระยะทาง	-7245
เปรียบ	-7246
▁Sport	-7247
▁คว่ํา	-7248
▁ภารกิจ	-7249
▁น้ํามันดิบ	-7250
ENS	-7251
▁ลาด	-7252
▁CARD	-7253
air	-7254
ซึม	-7255
▁II	-7256
▁ว์	-7257
กล้า	-7258
ท้อง	-7259
▁บอส	-7260
ปล่อย	-7261
ยกรรม	-7262
▁แหลม	-7263
▁หายใจ	-7264
▁มะเร็ง	-7265
▁เมคอัพ	-7266
▁แอปเปิ้ล	-7267
FT	-7268
กะ	-7269
แม้	-7270
▁ส์	-7271
▁Cor	-7272
▁รสนิยม	-7273
▁คุ้มครอง	-7274
▁น้ําผึ้ง	-7275
โจ	-7276
าวร	-7277
▁ผ้าปู	-7278
▁ตระหนัก	-7279
▁ทางอากาศ	-7280
▁สถาบันการ	-7281
▁DC	-7282
เตือน	-7283
▁ติดขัด	-7284
▁สมุนไพร	-7285
ตต์	-7286
▁คิน	-7287
▁บูธ	-7288
▁ปิโ	-7289
▁พลิก	-7290
▁ข้อดี	-7291
▁ตัวเร่ง	-7292
เตน	-7293
▁(4	-7294
▁แช่แข็ง	-7295
ive	-7296
ณีต	-7297
ป่วย	-7298
▁4.7	-7299
▁แมลง	-7300
▁กระแสไฟ	-7301
โลม	-7302
▁Ste	-7303
▁ทองแดง	-7304
▁รถบรรทุก	-7305
▁อาชญากรรม	-7306
▁ข้อบกพร่อง	-7307
▁วัสดุสังเคราะห์	-7308
EY	-7309
▁63	-7310
ance	-7311
▁แก้ม	-7312
▁ปิโตร	-7313
▁ซึมซับ	-7314
▁เปี่ยม	-7315
▁คืนเงิน	-7316
ีมือ	-7317
▁อัจฉ	-7318
▁Ultra	-7319
▁กระดูก	-7320
▁นอร์เวย์	-7321
แสงอาทิตย์	-7322
▁4.4	-7323
▁เลน	-7324
▁ไฮไล	-7325
▁ชุดนอน	-7326
▁อย่างเช่น	-7327
ตัด	-7328
หัก	-7329
ญญาณ	-7330
▁แทร	-7331
▁2019	-7332
▁ปกครอง	-7333
▁ลูกบอล	-7334
▁มิฉะนั้น	-7335
ู้ด	-7336
เงา	-7337
ครัน	-7338
แข่ง	-7339
▁สัมภาระ	-7340
▁งานเขียน	-7341
▁ISO	-7342
▁โฮม	-7343
▁ขยับ	-7344
▁กระทบ	-7345
▁ธนบัตร	-7346
▁ตั้งขึ้น	-7347
UP	-7348
▁TY	-7349
เกียจ	-7350
▁SKECH	-7351
โพด	-7352
▁73	-7353
▁190	-7354
▁ครู	-7355
▁สืบ	-7356
อิสระ	-7357
▁กลมกล	-7358
▁ซิตี้	-7359
▁ดีแต่	-7360
▁ต้นไม้	-7361
▁ภายในบ้าน	-7362
ตลาด	-7363
▁ความเรียบ	-7364
หู	-7365
▁โค้ด	-7366
▁ปาล์ม	-7367
▁ผู้ตรวจ	-7368
IND	-7369
ost	-7370
ated	-7371
▁ขบวน	-7372
▁โดยประมาณ	-7373
▁Pre	-7374
ันผวน	-7375
▁กิจการ	-7376
▁คราว	-7377
▁ซึมซาบ	-7378
▁ครบครัน	-7379
▁มีระดับ	-7380
รรณ	-7381
▁หง	-7382
▁๎ม	-7383
▁การร้อง	-7384
▁2.9	-7385
ขับขี่	-7386
▁SKECHERS	-7387
▁MO	-7388
▁Sk	-7389
▁Ind	-7390
▁ตะแก	-7391
▁หมดจด	-7392
ภิ	-7393
รรูป	-7394
▁คอล	-7395
▁ช้าๆ	-7396
สาเหตุ	-7397
▁ผู้รับ	-7398
▁โรงภาพยนตร์	-7399
▁การระคายเคือง	-7400
สมุด	-7401
▁กอด	-7402
▁ญแจ	-7403
ความสะดวก	-7404
▁พึงประสงค์	-7405
โบ	-7406
วงจร	-7407
▁รีย์	-7408
▁สไลด์	-7409
ซู	-7410
ork	-7411
▁Top	-7412
เฉลี่ย	-7413
▁หมื่น	-7414
ความต้องการ	-7415
29	-7416
ning	-7417
BLACK	-7418
▁ทรงผม	-7419
ถั่ว	-7420
▁ฮาว	-7421
▁เนอ	-7422
ผ้าใบ	-7423
▁ญแจล	-7424
▁ตะแกรง	-7425
▁ที่พัก	-7426
ยินดี	-7427
▁บทบาท	-7428
ต้านทาน	-7429
▁พอเหมาะ	-7430
ตล	-7431
▁ถอย	-7432
▁เพิ	-7433
เมียม	-7434
▁กระบอก	-7435
▁แปรรูป	-7436
▁กันสนิม	-7437
▁ลอ	-7438
วิสา	-7439
▁ละเม	-7440
▁เจมส์	-7441
▁ตลอดจน	-7442
▁ต้อนรับ	-7443
ok	-7444
▁700	-7445
▁Sony	-7446
▁สากล	-7447
▁โดเมน	-7448
▁วงเงิน	-7449
▁ส่งผ่าน	-7450
▁นักศึกษา	-7451
ถั่วเหลือง	-7452
▁คา้	-7453
▁ชิล	-7454
▁1200	-7455
▁Clim	-7456
▁Full	-7457
▁มิลลิ	-7458
▁เยือน	-7459
▁แพทเทิร์น	-7460
▁เป็นสาเหตุ	-7461
▁ได้รับอนุญาต	-7462
yst	-7463
ปาก	-7464
▁Qu	-7465
▁นท	-7466
▁ลุย	-7467
▁แคร	-7468
▁เมทัล	-7469
สาธารณะ	-7470
▁ตู้เสื้อผ้า	-7471
ที่นอน	-7472
▁พอสมควร	-7473
▁อย่างนี้	-7474
EB	-7475
นอง	-7476
อ้อม	-7477
▁Fry	-7478
▁Plus	-7479
▁บันได	-7480
▁รุ่นเก่า	-7481
▁ผู้ประกอบการ	-7482
ให๎	-7483
▁คาบ	-7484
▁Bluetooth	-7485
▁สนองความต้องการ	-7486
▁Lin	-7487
คล่อง	-7488
▁Mini	-7489
▁ฉลาด	-7490
▁สบายดี	-7491
▁การสํารวจ	-7492
ital	-7493
▁WOR	-7494
▁ครา	-7495
▁จ้า	-7496
▁เลขที่	-7497
▁ระดับน้ํา	-7498
▁ผ้าปูที่นอน	-7499
▁เปร	-7500
การบิน	-7501
บรรทัด	-7502
▁SPEED	-7503
▁ดิสก์	-7504
ัตยกรรม	-7505
▁ทองคํา	-7506
▁เด็กหญิง	-7507
▁ระบบปฏิบัติการ	-7508
ome	-7509
เพียง	-7510
▁วอร์	-7511
▁รองเท้าผ้าใบ	-7512
ปวด	-7513
สอย	-7514
คราบ	-7515
▁ซีด	-7516
▁ฟิว	-7517
▁ชดเชย	-7518
สัปดาห์	-7519
▁อัจฉริยะ	-7520
▁กระเป๋าสตางค์	-7521
วี่	-7522
OWER	-7523
▁War	-7524
▁Free	-7525
▁แฟกซ์	-7526
▁อุบัติ	-7527
▁ไนล่อน	-7528
▁กระทัดรัด	-7529
▁จั	-7530
olog	-7531
หกิจ	-7532
วิสาหกิจ	-7533
▁น่าจะเป็น	-7534
▁จุดประสงค์	-7535
เวลาเดียวกัน	-7536
ฝ่าย	-7537
▁เยน	-7538
แชมป์	-7539
▁พม่า	-7540
▁ตัดสิน	-7541
▁ในเวลาเดียวกัน	-7542
วนอน	-7543
าหาร	-7544
▁กรีน	-7545
▁การบ	-7546
▁Cloud	-7547
▁พ่อแม่	-7548
▁แนวนอน	-7549
▁ให้อาหาร	-7550
ATE	-7551
ABLE	-7552
▁ในแง่	-7553
▁เซรามิค	-7554
OME	-7555
๊อป	-7556
▁Gr	-7557
▁4.1	-7558
▁ลาน	-7559
▁เวย์	-7560
78	-7561
ล้า	-7562
▁AL	-7563
▁4.3	-7564
▁Aut	-7565
้ารับ	-7566
▁Look	-7567
▁หนุน	-7568
▁บรรดา	-7569
▁ร่วมมือ	-7570
▁เต้ารับ	-7571
▁ลด์	-7572
▁หยา	-7573
▁เอ๊	-7574
▁ถาวร	-7575
มาเนีย	-7576
▁หรือยัง	-7577
▁เจ้าหญิง	-7578
▁เป็นความ	-7579
▁ไส้ดินสอ	-7580
▁การประเมิน	-7581
IVE	-7582
▁มิได้	-7583
▁อีกที	-7584
▁ฮาวาย	-7585
▁การตลาด	-7586
▁มิลลิเมตร	-7587
▁91	-7588
ภาวะ	-7589
▁ฝันดี	-7590
สะเทือน	-7591
▁ขอบเขต	-7592
▁โรมาเนีย	-7593
▁ความต้านทาน	-7594
▁รัฐวิสาหกิจ	-7595
▁นมถั่วเหลือง	-7596
รมิต	-7597
▁ซาติน	-7598
ความสูง	-7599
▁เกลียด	-7600
▁เด็กโต	-7601
▁Elastane	-7602
หลักทรัพย์	-7603
Fi	-7604
เดน	-7605
▁ดังที่	-7606
ms	-7607
▁Gre	-7608
▁New	-7609
▁ขูด	-7610
▁อ่อนแอ	-7611
23	-7612
ME	-7613
ene	-7614
รดก	-7615
▁94	-7616
ิทัล	-7617
▁3.7	-7618
▁900	-7619
▁แม็กซ์	-7620
▁ฝึกอบรม	-7621
▁สถาปัตยกรรม	-7622
▁:–	-7623
▁Cr	-7624
ปรึกษา	-7625
▁ขวดนม	-7626
▁บรรลุ	-7627
▁สั่นสะเทือน	-7628
ise	-7629
▁WH	-7630
▁อาณา	-7631
▁ยูฟ่า	-7632
▁เนี่ย	-7633
▁เปราะ	-7634
▁บริเตน	-7635
▁แสดงว่า	-7636
▁ระดับความสูง	-7637
▁หาร	-7638
รี่ส์	-7639
▁IPHONE	-7640
หง	-7641
ป่า	-7642
ยธรรม	-7643
เจริญ	-7644
▁TYPE	-7645
▁ดิจิทัล	-7646
▁ผู้ตรวจสอบ	-7647
AW	-7648
SL	-7649
▁71	-7650
▁PI	-7651
▁ดูไบ	-7652
▁มิ่ง	-7653
▁สารพิษ	-7654
▁สายการบิน	-7655
▁ไอโฟน	-7656
▁ประสาน	-7657
▁ไฮไลท์	-7658
▁สิ้นเดือน	-7659
๊ป	-7660
ยุทธ	-7661
▁สิว	-7662
▁ฮัง	-7663
▁เลอ	-7664
▁Tech	-7665
ไนเต็ด	-7666
▁สักพัก	-7667
▁แหล่งข	-7668
▁กระดาษแข็ง	-7669
ออน	-7670
▁ก้า	-7671
เลื่อน	-7672
▁Water	-7673
▁เวสต์	-7674
▁มีบทบาท	-7675
▁ทิ	-7676
▁4.6	-7677
▁อุปโภค	-7678
▁ห้องสมุด	-7679
ม้า	-7680
เน้น	-7681
▁105	-7682
▁กัล	-7683
พิพาท	-7684
่างาม	-7685
▁Role	-7686
▁ชํวง	-7687
amazon	-7688
ฏิวัติ	-7689
นิ้วมือ	-7690
▁Limited	-7691
▁ออร์เดอร์	-7692
▁เลือกตั้ง	-7693
ด้าน	-7694
ิลลา	-7695
เติบโต	-7696
▁ผ้าขน	-7697
▁เดอร์	-7698
▁เสียด	-7699
▁ตรงไหน	-7700
▁วานิลลา	-7701
▁มุ่งเน้น	-7702
▁คลอรีน	-7703
▁ค่าโดยสาร	-7704
มห	-7705
▁อุท	-7706
▁ไซร	-7707
ิจารณา	-7708
▁ยั่งยืน	-7709
OG	-7710
▁แชมป์	-7711
▁ประณีต	-7712
▁เนรมิต	-7713
▁จุดด่าง	-7714
▁ตรวจจับ	-7715
▁ตลาดหลักทรัพย์	-7716
ator	-7717
▁กัป	-7718
ชิงตัน	-7719
อันดับ	-7720
กิจกรรม	-7721
ric	-7722
กุม	-7723
างเกง	-7724
▁เด้ง	-7725
▁ฟอร์ด	-7726
▁ลูกศร	-7727
▁บรรยาย	-7728
DF	-7729
าวด์	-7730
▁คิม	-7731
พิบัติ	-7732
่อสร้าง	-7733
▁บราซิล	-7734
ตาร์	-7735
เข็ม	-7736
▁ฮ๋า	-7737
asonic	-7738
▁สถิติ	-7739
▁ยึดติด	-7740
▁วอชิงตัน	-7741
▁ภัยพิบัติ	-7742
▁เครื่องใน	-7743
▁ตอนกลางคืน	-7744
▁NEW	-7745
▁เชื้อรา	-7746
▁BLUETOOTH	-7747
ยาม	-7748
▁ยุง	-7749
▁เนเธ	-7750
▁กํามะ	-7751
▁เนื้อสัตว์	-7752
ray	-7753
▁หุ้นส่วน	-7754
▁ค่าบริการ	-7755
▁จุดเริ่มต้น	-7756
▁เนเธอร์แลนด์	-7757
กรธ	-7758
▁82	-7759
▁BU	-7760
▁to	-7761
▁ฮอล	-7762
▁ไลน์	-7763
▁กราฟฟ	-7764
▁เร่งรัด	-7765
▁เหมือนเดิม	-7766
เฮ	-7767
สภาพ	-7768
สรรพ	-7769
▁กรร	-7770
▁เคน	-7771
▁หุงข้าว	-7772
▁INVERTER	-7773
▁TS	-7774
▁กรม	-7775
▁ยิม	-7776
▁อัก	-7777
▁ฮอน	-7778
การเมือง	-7779
▁เข้าที่	-7780
▁เขียนหนังสือ	-7781
ame	-7782
▁สนิม	-7783
▁อาชีพ	-7784
▁ลําตัว	-7785
▁ความไม่	-7786
▁ลูกเล่น	-7787
▁ใช้แล้ว	-7788
▁เฉพาะตัว	-7789
บี้	-7790
▁แจ็คเก็ต	-7791
46	-7792
ELL	-7793
จอด	-7794
ชี้	-7795
ค่ํา	-7796
เพิ่ม	-7797
▁พีซี	-7798
▁คํานึง	-7799
enti	-7800
ด้าย	-7801
▁Red	-7802
เดียม	-7803
▁เบียร์	-7804
▁กระเทียม	-7805
▁ช่องว่าง	-7806
▁มะเขือเทศ	-7807
sp	-7808
หยี่	-7809
▁กรีก	-7810
▁ล้วน	-7811
▁สภาวะ	-7812
▁เปลือ	-7813
▁ยับยั้ง	-7814
▁ระยะไกล	-7815
▁อ้างว่า	-7816
▁ขจัดคราบ	-7817
▁ความสนุก	-7818
▁กํามะหยี่	-7819
▁Me	-7820
▁ร์	-7821
การี	-7822
ไปถึง	-7823
▁2004	-7824
SW	-7825
OSE	-7826
หุ้น	-7827
▁วสี	-7828
▁น่าน	-7829
▁Rolex	-7830
▁ให้สี	-7831
▁ค่าเฉลี่ย	-7832
96	-7833
▁SL	-7834
รกรรม	-7835
▁Soft	-7836
▁การย	-7837
▁เป็นไง	-7838
▁นามบัตร	-7839
▁มันฝรั่ง	-7840
▁รวมไปถึง	-7841
In	-7842
▁!"	-7843
ซ้อม	-7844
ใกล้	-7845
▁!!!!	-7846
▁Color	-7847
▁ร้อนที่	-7848
▁ด้วยซ้ํา	-7849
▁ย้อนกลับ	-7850
▁การพิจารณา	-7851
ina	-7852
right	-7853
▁พอที่	-7854
▁สมาธิ	-7855
▁โกลด์	-7856
▁Mid	-7857
จอดรถ	-7858
▁ข้าวโพด	-7859
▁ผ้าขนหนู	-7860
▁พวงกุญแจ	-7861
GH	-7862
าส์	-7863
▁97	-7864
▁Ah	-7865
ylon	-7866
▁):10	-7867
▁ปลอบ	-7868
▁จดจํา	-7869
▁กัปตัน	-7870
▁อิสลาม	-7871
▁เมืองหลวง	-7872
ถ้วน	-7873
พุทธ	-7874
็กต์	-7875
▁Set	-7876
▁หวี	-7877
▁LEGO	-7878
▁เวลาน	-7879
▁ชั่วคราว	-7880
"")	-7881
ASH	-7882
ห่ม	-7883
▁PORT	-7884
▁เศร้า	-7885
าวเวอร์	-7886
▁ฮังการี	-7887
▁Compress	-7888
▁ข้อจํากัด	-7889
▁การก่อการร้าย	-7890
ถัง	-7891
ส้น	-7892
▁(6	-7893
▁ปิ	-7894
▁นึกถึง	-7895
▁การปรุง	-7896
AK	-7897
nit	-7898
book	-7899
▁ซีล	-7900
▁ทดลอง	-7901
ซื้อขาย	-7902
▁amazon	-7903
▁หลงรัก	-7904
ยู	-7905
▁ปุ	-7906
▁มังส	-7907
▁ซีรี่ส์	-7908
▁เส้นด้าย	-7909
▁ชุดชั้นใน	-7910
ake	-7911
und	-7912
แช่	-7913
ไก๋	-7914
ผนึก	-7915
▁สํง	-7916
▁อยู่ดี	-7917
▁Panasonic	-7918
▁140	-7919
▁กาก	-7920
▁ตอนนั้น	-7921
▁ลายเส้น	-7922
งวด	-7923
STEM	-7924
STON	-7925
สนาม	-7926
▁3.9	-7927
▁Bro	-7928
▁รอคอย	-7929
▁สะพาน	-7930
▁ถ่ายเท	-7931
▁อยู่ใน	-7932
▁เก๋ไก๋	-7933
▁ในขณะเดียวกัน	-7934
¡¡	-7935
ดอก	-7936
▁บี้	-7937
เลือด	-7938
▁จัดหา	-7939
▁แชมพู	-7940
ส่วนใหญ่	-7941
▁รอยเตอร์	-7942
▁ทางเทคนิค	-7943
§¡	-7944
สท์	-7945
แยก	-7946
▁02	-7947
ทราย	-7948
ILL	-7949
กล้าม	-7950
▁เบรก	-7951
▁ระบอบ	-7952
▁การบรร	-7953
▁ตลอดไป	-7954
▁ความเป็นไปได้	-7955
KO	-7956
ott	-7957
ัมภ	-7958
▁อิง	-7959
▁ชายแดน	-7960
ุส	-7961
ปิด	-7962
▁UP	-7963
tical	-7964
▁ความหมาย	-7965
▁การผจญภัย	-7966
MA	-7967
ฟา	-7968
ime	-7969
▁Bal	-7970
▁จ๊ะ	-7971
▁นักวิ	-7972
▁ประมง	-7973
▁กระติก	-7974
▁แถลงการณ์	-7975
▁ความสําเร็จ	-7976
88	-7977
▁การปฏิวัติ	-7978
โซน	-7979
▁ที่นอน	-7980
▁มีส่วนร่วม	-7981
ห้า	-7982
▁102	-7983
ใบไม้	-7984
▁ไฟฉาย	-7985
▁เอกราช	-7986
▁ห้องพัก	-7987
▁Compressor	-7988
OOK	-7989
▁GL	-7990
▁2546	-7991
▁มาลา	-7992
การผลิต	-7993
▁Finish	-7994
▁ซีเรีย	-7995
▁น้ําอุ่น	-7996
▁หุ่นยนต์	-7997
▁เรื่องสั้น	-7998
,0	-7999
??	-8000
ไอ	-8001
LUM	-8002
็อง	-8003
เกิล	-8004
▁4.8	-8005
้ายวน	-8006
▁Pink	-8007
▁เย้ายวน	-8008
▁ฤดูใบไม้	-8009
ystem	-8010
WH	-8011
aw	-8012
▁Tre	-8013
▁เพน	-8014
เชื่อถือ	-8015
▁Android	-8016
▁แค่นั้น	-8017
ิ์	-8018
โช	-8019
cess	-8020
▁ช็อค	-8021
▁ละเมิด	-8022
▁เพรียว	-8023
▁เซรามิก	-8024
▁ซัพพอร์ต	-8025
TS	-8026
มพร	-8027
▁ทริ	-8028
▁จําย	-8029
▁หน่าย	-8030
ิทิน	-8031
ือ่ง	-8032
▁อ่น	-8033
▁มลภาวะ	-8034
▁เปื้อน	-8035
▁เชื้อโรค	-8036
▁สุดสัปดาห์	-8037
▁มีความสําคัญ	-8038
gl	-8039
ripes	-8040
ยุทธ์	-8041
▁รายรับ	-8042
▁ปิดผนึก	-8043
▁ส่งสัญญาณ	-8044
▁All	-8045
▁นิตย	-8046
pro	-8047
สรรค	-8048
▁บัง	-8049
▁ฝัก	-8050
จราจร	-8051
เตียน	-8052
ตะวันตก	-8053
▁จับได้	-8054
▁อยู่ในเกณฑ์	-8055
▁วิกฤต	-8056
▁ยุคใหม่	-8057
▁หลักการ	-8058
▁อุปสรรค	-8059
▁ข้อพิพาท	-8060
รัติ	-8061
▁BPA	-8062
▁Cool	-8063
▁เซ็ท	-8064
ไม่นาน	-8065
47	-8066
amp	-8067
▁AV	-8068
▁DI	-8069
▁นิตยสาร	-8070
▁แต่ละคน	-8071
ความคิดเห็น	-8072
bon	-8073
ินี	-8074
พติด	-8075
▁XXL	-8076
▁ราก	-8077
ประตู	-8078
▁Multi	-8079
▁SMART	-8080
▁ท่าเรือ	-8081
▁จดบันทึก	-8082
OUR	-8083
▁ตี้	-8084
▁ฝาก	-8085
▁หนี	-8086
▁12.5	-8087
▁Face	-8088
วิรัติ	-8089
▁ยอดขาย	-8090
▁นักกีฬา	-8091
▁อยากรู้	-8092
▁มังสวิรัติ	-8093
ีเอ	-8094
▁ลอส	-8095
▁Cros	-8096
▁กลิ่นอับ	-8097
▁เป็นหลัก	-8098
"""	-8099
ก้า	-8100
รษณ	-8101
▁BOD	-8102
▁Anti	-8103
idsole	-8104
▁ออร์แก	-8105
▁ใช้สอย	-8106
▁ตั้งโต๊ะ	-8107
แลกเปลี่ยน	-8108
▁ผู้ปกครอง	-8109
▁ความเครียด	-8110
89	-8111
เยซู	-8112
▁TPU	-8113
สวัสด	-8114
▁ลงนาม	-8115
▁การฝึก	-8116
▁อุดตัน	-8117
▁ต่อไปนี้	-8118
▁ปฏิกิริยา	-8119
านคร	-8120
สนับสนุน	-8121
▁กรรมการ	-8122
▁เสรีภาพ	-8123
▁เหนือกว่า	-8124
▁อุบัติเหตุ	-8125
▁เป็นสมาชิก	-8126
ซูล	-8127
ากษา	-8128
▁หลา	-8129
▁1080	-8130
▁พระเยซู	-8131
▁มีเรื่อง	-8132
▁เหลืออยู่	-8133
▁การซื้อขาย	-8134
▁สินค้าส่งออก	-8135
CT	-8136
300	-8137
ยุก	-8138
▁OF	-8139
▁วน	-8140
▁ไพร	-8141
ีดกัน	-8142
▁เป็นระบบ	-8143
▁จดทะเบียน	-8144
ถ้า	-8145
คเกจ	-8146
▁KIDSTON	-8147
▁อัตราแลกเปลี่ยน	-8148
น็	-8149
ถนน	-8150
▁AT	-8151
▁โปเก	-8152
▁ผ้าห่ม	-8153
▁แตกหัก	-8154
มเป	-8155
▁UN	-8156
▁วาย	-8157
ศาสนา	-8158
ส้นสูง	-8159
▁Croslite	-8160
▁ร้องเพลง	-8161
ld	-8162
▁จี้	-8163
▁โฟล	-8164
▁ถึงแม้	-8165
▁ลื่นไหล	-8166
▁สองเท่า	-8167
▁คาบสมุทร	-8168
▁ออร์แกนิค	-8169
เลิศ	-8170
▁Coo	-8171
▁เพรส	-8172
รษณีย์	-8173
▁ขอเวลา	-8174
▁บุคลิก	-8175
uri	-8176
▁%•	-8177
▁/1	-8178
▁รณ	-8179
▁But	-8180
▁หรือว่า	-8181
27	-8182
พับ	-8183
▁XP	-8184
▁การทดลอง	-8185
▁สภาพคล่อง	-8186
ัค	-8187
▁(%	-8188
▁ดึก	-8189
▁น่ง	-8190
▁หัด	-8191
▁ALUM	-8192
อนุรักษ์	-8193
▁วิศวกรรม	-8194
▁เสื้อกล้าม	-8195
▁ความคาดหวัง	-8196
bo	-8197
การ์	-8198
▁อ่าว	-8199
▁เอเช	-8200
ประโลม	-8201
▁ฟิลเตอร์	-8202
▁คริสเตียน	-8203
▁ปลอบประโลม	-8204
▁ผู้บัญชาการ	-8205
▁สถาบันการเงิน	-8206
▁ac	-8207
▁ทวิ	-8208
▁มีความหมาย	-8209
▁เด็กผู้ชาย	-8210
▁Em	-8211
▁5.2	-8212
INDOW	-8213
กว้าง	-8214
กระดาษ	-8215
▁ปฏิทิน	-8216
▁นั้นแหละ	-8217
▁การอนุรักษ์	-8218
ITY	-8219
ขยะ	-8220
สาบ	-8221
▁BRO	-8222
▁Mag	-8223
▁13.5	-8224
▁หลานชาย	-8225
49	-8226
MB	-8227
ไท	-8228
ขัน	-8229
มพร้อม	-8230
▁แพคเกจ	-8231
▁เอสเพรส	-8232
▁ไฟฟ้าสถ	-8233
▁SS	-8234
ELESS	-8235
▁พ่วง	-8236
▁เอกชน	-8237
ียมพร้อม	-8238
▁ช่องแช่	-8239
▁เส้นบรรทัด	-8240
เบิร์ก	-8241
▁เคี้ยว	-8242
▁ล้อเลื่อน	-8243
▁รองเท้าส้นสูง	-8244
▁พุทธ	-8245
ทรงจํา	-8246
รู	-8247
▁ซูชิ	-8248
ESSION	-8249
คุณค่า	-8250
▁จัดวาง	-8251
▁แคปซูล	-8252
▁Leather	-8253
▁ป้ายชื่อ	-8254
▁คํานึงถึง	-8255
▁เสร็จสิ้น	-8256
▁ความทรงจํา	-8257
ey	-8258
ary	-8259
าวชน	-8260
▁She	-8261
▁เกร	-8262
เอเชีย	-8263
▁Upper	-8264
IRELESS	-8265
▁ถ่ายรูป	-8266
▁สับปะรด	-8267
▁อากาศยาน	-8268
▁เชฟ	-8269
▁Melody	-8270
▁ความตึง	-8271
คุก	-8272
▁AAA	-8273
▁ดาด	-8274
▁2009	-8275
▁Prot	-8276
▁ม็อบ	-8277
ทิศทาง	-8278
ลักษณะ	-8279
▁ลําคอ	-8280
▁สตรีม	-8281
▁นักงาน	-8282
▁ปลายทาง	-8283
▁อัพเกรด	-8284
ผ่า	-8285
เครน	-8286
เล่า	-8287
▁โพง	-8288
็คชั่น	-8289
▁คอนเฟ	-8290
▁ยูเครน	-8291
▁อย่างใด	-8292
▁ช่องแช่แข็ง	-8293
,6	-8294
fl	-8295
mm	-8296
ชู	-8297
ไกร	-8298
▁อส	-8299
พริบ	-8300
▁One	-8301
ศิลปะ	-8302
▁วิลล์	-8303
▁เปลือง	-8304
for	-8305
บัว	-8306
▁6.2	-8307
เยียม	-8308
▁promo	-8309
▁กุหลาบ	-8310
▁ชิงแชมป์	-8311
▁สูญญากาศ	-8312
▁วันทํางาน	-8313
▁ปิโตรเลียม	-8314
ุฒ	-8315
ธยม	-8316
▁ME	-8317
▁แพล	-8318
▁กํากับ	-8319
▁เบลเยียม	-8320
▁โทรทัศน์	-8321
UND	-8322
พวก	-8323
▁BO	-8324
▁ไวรัส	-8325
▁ความดัน	-8326
▁อาณาเขต	-8327
▁คอนเฟิร์ม	-8328
▁กระเป๋าถือ	-8329
to	-8330
ental	-8331
▁พระม	-8332
▁หวัด	-8333
▁คินเด	-8334
▁น้องสาว	-8335
▁ผ้าอ้อม	-8336
▁polyamide	-8337
▁ชั้นเรียน	-8338
SP	-8339
ผ่	-8340
ติ้ง	-8341
กลุ่ม	-8342
สงคราม	-8343
หรูหรา	-8344
▁ตะกร้า	-8345
▁เยาวชน	-8346
▁ยึดครอง	-8347
▁LT	-8348
▁งู	-8349
ดูแล	-8350
▁เวท	-8351
▁แขก	-8352
▁แหวน	-8353
▁สุภาพ	-8354
▁โปรเจ	-8355
ความยินดี	-8356
▁ความสําคัญ	-8357
UAL	-8358
▁TB	-8359
▁บุก	-8360
▁ป้า	-8361
▁ว้าว	-8362
▁เอเชียน	-8363
▁ข้าวเย็น	-8364
ครั้งที่สอง	-8365
เปล	-8366
สรุป	-8367
▁Control	-8368
▁เนื้อใน	-8369
▁โครเมียม	-8370
▁PER	-8371
▁อนา	-8372
▁ทั้งตัว	-8373
▁น่าเชื่อถือ	-8374
เพาะ	-8375
▁Des	-8376
▁พาย	-8377
▁พารา	-8378
▁มณฑล	-8379
▁การสอน	-8380
▁ผู้ป่วย	-8381
ZZ	-8382
ORE	-8383
ชุด	-8384
▁คาแ	-8385
▁ความหรูหรา	-8386
amb	-8387
คลัง	-8388
ทิ้ง	-8389
▁แกรนด์	-8390
▁ไหลเวียน	-8391
▁ทองเหลือง	-8392
▁ดําเนินงาน	-8393
▁5.8	-8394
ivers	-8395
▁อาหรับ	-8396
▁จัดอันดับ	-8397
ซอ	-8398
REE	-8399
afe	-8400
ค้น	-8401
▁ปอน	-8402
▁ซูเปอร์	-8403
▁รหัสผ่าน	-8404
▁อินทรีย์	-8405
▁เบื้องหลัง	-8406
▁วู	-8407
ธาตุ	-8408
▁Gas	-8409
▁ทัศ	-8410
▁ลิต	-8411
▁ฮัน	-8412
▁โซ่	-8413
▁Ther	-8414
▁บาเรล	-8415
▁ดาดฟ้า	-8416
▁สวีเดน	-8417
▁หลงใหล	-8418
▁สนามหญ้า	-8419
▁แต่งตั้ง	-8420
BI	-8421
UB	-8422
▁DE	-8423
ภายใน	-8424
็อกซ์	-8425
▁11.5	-8426
กลางวัน	-8427
▁น้อยที่สุด	-8428
▁เชิงพาณิชย์	-8429
les	-8430
▁ผี	-8431
แถลง	-8432
▁NYX	-8433
▁ครีเอ	-8434
▁ระเหย	-8435
▁แสงไฟ	-8436
▁Intern	-8437
▁ผู้ซื้อ	-8438
บัด	-8439
▁Fil	-8440
▁Net	-8441
▁ตัก	-8442
สนทนา	-8443
▁แน่นหนา	-8444
▁กางเกงใน	-8445
▁ตลอดทั้ง	-8446
▁เราเตอร์	-8447
85	-8448
สงบ	-8449
▁รร	-8450
▁โฉ	-8451
▁แปร	-8452
▁PHIL	-8453
▁เป๊ะ	-8454
ผู้แทน	-8455
▁รังสรรค์	-8456
▁แป้นพิมพ์	-8457
▁การปฏิบัติ	-8458
▁ความนุ่มนวล	-8459
GA	-8460
IST	-8461
ทส์	-8462
▁โปเกมอน	-8463
บังคับใช้	-8464
▁การร้องเรียน	-8465
▁บัส	-8466
▁สุ่ม	-8467
▁คําพูด	-8468
▁ปลดปล่อย	-8469
eng	-8470
ย่า	-8471
LINE	-8472
▁ภาษ	-8473
▁ให้น	-8474
▁ไอเดีย	-8475
▁ในเวลาน	-8476
▁ที่จอดรถ	-8477
นนิส	-8478
▁Int	-8479
▁ลับ	-8480
▁ไอศ	-8481
ืบหน้า	-8482
เพื่อน	-8483
เสพติด	-8484
▁แอมป์	-8485
▁ภาพวาด	-8486
▁ฮอนด้า	-8487
▁สหพันธ์	-8488
นาว	-8489
entr	-8490
▁Print	-8491
▁จ่ายไฟ	-8492
▁สิบห้า	-8493
▁เนื่องใน	-8494
ทอ	-8495
ียเตอร์	-8496
▁คัดเลือก	-8497
ิจฉ	-8498
ิมะ	-8499
ไหม้	-8500
▁เขม	-8501
▁อิหร	-8502
▁เดือนก่อน	-8503
ACE	-8504
ins	-8505
ype	-8506
▁PS	-8507
ซ้าย	-8508
ห่าง	-8509
▁104	-8510
▁บิล	-8511
▁ค่าย	-8512
ระเบิด	-8513
▁Lifting	-8514
▁แสดงถึง	-8515
▁งานศิลปะ	-8516
▁ช็อคโกแลต	-8517
▁ip	-8518
เสน่ห์	-8519
▁บาดเจ็บ	-8520
▁อิหร่าน	-8521
Bl	-8522
ปลา	-8523
แปล	-8524
ATER	-8525
คลึง	-8526
▁ควัน	-8527
▁รายใหญ่	-8528
▁การปรุงอาหาร	-8529
76	-8530
GL	-8531
UTO	-8532
▁79	-8533
หงิด	-8534
▁170	-8535
▁ทัศน	-8536
▁ผู้ว	-8537
▁โอ๊ค	-8538
ข้อมูล	-8539
รับรอง	-8540
ุดหงิด	-8541
ําร้าย	-8542
▁ช้อปปิ้ง	-8543
หากษัตริย์	-8544
ตรอน	-8545
▁230	-8546
▁Mon	-8547
▁ชัก	-8548
▁ดี้	-8549
▁หมี	-8550
▁แดด	-8551
▁CATH	-8552
▁Flex	-8553
▁มรดก	-8554
มากขึ้น	-8555
▁ส่วนมาก	-8556
ตัวอย่างเช่น	-8557
▁เพิ่มมากขึ้น	-8558
แบ	-8559
omp	-8560
รุษ	-8561
▁93	-8562
ซ่อม	-8563
อิ่ม	-8564
▁ลัท	-8565
▁โกรธ	-8566
▁คู่แข่ง	-8567
▁มีอํานาจ	-8568
แตก	-8569
ปลาย	-8570
▁เขมร	-8571
INDOWS	-8572
▁จําคุก	-8573
▁เอกอัครราชทูต	-8574
BTU	-8575
ภาษ	-8576
fort	-8577
▁หลบ	-8578
▁BUIL	-8579
▁Hand	-8580
สวัสดิ์	-8581
▁ค่าที่	-8582
▁นับแต่	-8583
▁พฤหัสบดี	-8584
IES	-8585
ley	-8586
ีร์	-8587
ITAL	-8588
foam	-8589
ภาคี	-8590
▁ชิม	-8591
▁กุ้ง	-8592
▁หยาบ	-8593
▁เลียน	-8594
▁ชัยชนะ	-8595
▁ชื่นชม	-8596
อย่างมาก	-8597
▁ทางเดิน	-8598
2.1	-8599
นี่	-8600
ลีท	-8601
▁7.0	-8602
▁Gel	-8603
มพลีท	-8604
▁ม่าน	-8605
▁โซฟา	-8606
▁อันนั้น	-8607
▁สินทรัพย์	-8608
▁อะไรก็ตาม	-8609
▁ครั้งหนึ่ง	-8610
▁เป็นอย่างมาก	-8611
▁ผู้จัดจําหน่าย	-8612
▁Cath	-8613
▁คว้า	-8614
▁บุตร	-8615
▁Green	-8616
▁ความผ	-8617
▁มีพลัง	-8618
▁ฉุกเฉิน	-8619
▁บ่ายโมง	-8620
▁ทํากิจกรรม	-8621
56	-8622
79	-8623
ips	-8624
▁/6	-8625
soft	-8626
ท้วง	-8627
▁ย่อม	-8628
เกี่ยว	-8629
ใต้ดิน	-8630
▁บทสนทนา	-8631
▁แร่ธาตุ	-8632
▁อาหารกลางวัน	-8633
กิ	-8634
AMS	-8635
amic	-8636
สาระ	-8637
อร์น	-8638
▁/10	-8639
▁สุญ	-8640
ireless	-8641
▁สุญญากาศ	-8642
▁ผู้ใช้งาน	-8643
▁รับผิดชอบ	-8644
▁สายพันธุ์	-8645
▁พระมหากษัตริย์	-8646
by	-8647
ii	-8648
คติ	-8649
▁อล	-8650
itch	-8651
▁GEN	-8652
▁CONT	-8653
▁ต้นขา	-8654
▁ผู้แทน	-8655
▁โปร่งใส	-8656
กาก	-8657
งับ	-8658
มุม	-8659
อริ	-8660
▁5.1	-8661
▁ปลอม	-8662
Section	-8663
▁Cooled	-8664
▁ปีใหม่	-8665
แม่เหล็ก	-8666
▁ลึกซึ้ง	-8667
▁เข้มงวด	-8668
▁เท่ากัน	-8669
▁หมวดหมู่	-8670
▁เป็นช่วง	-8671
▁ผู้บริหาร	-8672
มนุษ	-8673
▁SIZ	-8674
▁HOME	-8675
▁Kids	-8676
เบื้อง	-8677
▁Serum	-8678
▁เรียล	-8679
▁ตามคํา	-8680
▁บทเรียน	-8681
▁ร่วมสมัย	-8682
ตระ	-8683
ปราน	-8684
▁ลูกบ	-8685
แรงงาน	-8686
▁การกรอง	-8687
▁ได้ขนาด	-8688
▁คําเตือน	-8689
ANI	-8690
ohn	-8691
▁CAM	-8692
▁อิล	-8693
▁ทราย	-8694
▁หิมะ	-8695
▁การแก้	-8696
▁จัดทํา	-8697
▁มอบให้	-8698
▁ซ่อมแซม	-8699
๊บ	-8700
▁นู	-8701
เปิด	-8702
โทรล	-8703
▁โทษ	-8704
▁ดูจะ	-8705
▁เชิญ	-8706
▁โปรดปราน	-8707
▁การเคลือบ	-8708
▁เตรียมพร้อม	-8709
eed	-8710
บัส	-8711
▁/3	-8712
THER	-8713
▁สิ้นสุดลง	-8714
▁อาหารเย็น	-8715
▁ระบบเศรษฐกิจ	-8716
▁BAL	-8717
▁Pol	-8718
▁ติดต	-8719
▁ซิงค์	-8720
▁Cleans	-8721
▁SYSTEM	-8722
▁กําแพง	-8723
▁เซ็กซี่	-8724
▁ติดต่อกัน	-8725
▁รับรางวัล	-8726
ty	-8727
ตลก	-8728
▁ดอน	-8729
ยุกต์	-8730
iscose	-8731
▁เสี่ยง	-8732
ควง	-8733
แหล	-8734
▁ร็อค	-8735
▁กลยุทธ์	-8736
▁ความจํา	-8737
▁มีเสน่ห์	-8738
ํอน	-8739
ไซด์	-8740
▁):6	-8741
▁Fed	-8742
▁ทรวง	-8743
กํากับ	-8744
▁เรือง	-8745
▁กองทุน	-8746
▁ปราสาท	-8747
▁สําเร็จรูป	-8748
IGITAL	-8749
▁วงกลม	-8750
ที่เหลือ	-8751
▁หลานสาว	-8752
▁เบอร์เกอร์	-8753
43	-8754
ABY	-8755
gan	-8756
▁ดะ	-8757
ุกรม	-8758
▁108	-8759
▁เย้	-8760
▁CHAR	-8761
▁เว้า	-8762
▁เอียง	-8763
▁ภาคพื้น	-8764
400	-8765
เสบ	-8766
ative	-8767
▁เซิร์ฟ	-8768
▁ระเบียง	-8769
▁ครั้งสุดท้าย	-8770
59	-8771
▁ER	-8772
▁You	-8773
▁โฆษก	-8774
▁ไขควง	-8775
▁ถังขยะ	-8776
▁ผู้จัดการ	-8777
▁อพ	-8778
คงทน	-8779
▁Bra	-8780
▁CAR	-8781
▁Rem	-8782
▁หาว	-8783
▁รุกราน	-8784
▁ความคงทน	-8785
▁ภาพประกอบ	-8786
ไฮ	-8787
:00	-8788
จิต	-8789
ดิ์	-8790
▁Su	-8791
สมรส	-8792
ology	-8793
▁กลาส	-8794
▁ทีละ	-8795
▁หญ้า	-8796
▁อนุมูล	-8797
▁ยูไนเต็ด	-8798
lic	-8799
▁Am	-8800
▁On	-8801
▁ไค	-8802
idas	-8803
▁ว้า	-8804
▁ฉนวน	-8805
▁ทริป	-8806
▁เก่ง	-8807
▁วิเศษ	-8808
ลอก	-8809
▁SA	-8810
▁น์	-8811
▁(10	-8812
▁6.0	-8813
▁6.3	-8814
▁ทัง	-8815
▁Croc	-8816
▁เจริญ	-8817
▁โมเดล	-8818
▁ขาดหาย	-8819
▁กลางวัน	-8820
▁แผ่นซีดี	-8821
FL	-8822
▁FW	-8823
▁JP	-8824
มาตร	-8825
เช็ด	-8826
▁อภิ	-8827
▁เหลี่ยม	-8828
▁เชอร์รี่	-8829
ELF	-8830
ini	-8831
▁83	-8832
▁sp	-8833
ical	-8834
ano	-8835
โมย	-8836
ชิโน	-8837
นั่ง	-8838
▁เรต	-8839
▁ให๎	-8840
คาร่า	-8841
▁Elec	-8842
▁คาปู	-8843
▁สู้รบ	-8844
▁กรรไกร	-8845
▁ตกหลุม	-8846
▁ตํานาน	-8847
▁คอนโทรล	-8848
▁ผลักดัน	-8849
▁คาปูชิโน	-8850
▁มาสคาร่า	-8851
▁ส่วนกลาง	-8852
▁คุณผู้หญิง	-8853
ik	-8854
นวณ	-8855
สถ์	-8856
▁ขี่	-8857
▁มาน	-8858
▁สลัด	-8859
▁เกีย	-8860
▁ลัทธิ	-8861
▁FILTER	-8862
▁สักหน่อย	-8863
▁หงุดหงิด	-8864
PT	-8865
ูท	-8866
ura	-8867
▁on	-8868
▁Met	-8869
▁ซิง	-8870
▁ไอพ	-8871
▁23.5	-8872
▁Fresh	-8873
▁เอาท์	-8874
วัฒนธรรม	-8875
▁ฝ่าเท้า	-8876
อย่างนั้น	-8877
▁กรรมวิธี	-8878
▁ทั้งหลาย	-8879
▁ให้ความสําคัญ	-8880
สห	-8881
ลัด	-8882
▁XS	-8883
▁เก้	-8884
รัฐบาล	-8885
▁อนาคต	-8886
▁เป่าผม	-8887
▁เหมือง	-8888
▁สารอาหาร	-8889
▁แบบฟอร์ม	-8890
▁การกีดกัน	-8891
หด	-8892
▁ไก	-8893
ขยาย	-8894
▁โรม	-8895
ียรติ	-8896
▁แสวง	-8897
คํานวณ	-8898
▁ครบรอบ	-8899
▁พาสต้า	-8900
▁ยอมแพ้	-8901
▁เม้าส์	-8902
▁รับเงิน	-8903
▁แช่เย็น	-8904
▁สัมพันธ์	-8905
กูล	-8906
หม้อ	-8907
▁123	-8908
▁สูท	-8909
▁โบสถ์	-8910
อาบน้ํา	-8911
▁ตกหล่น	-8912
ํานวยการ	-8913
▁ให้ราคา	-8914
▁เต็มอิ่ม	-8915
▁เพื่อนบ้าน	-8916
ษฎ	-8917
ITA	-8918
els	-8919
ฟุต	-8920
▁):0	-8921
▁อวด	-8922
้อมูล	-8923
▁เพาะ	-8924
▁ปลายเดือน	-8925
▁แหล่งข้อมูล	-8926
▁ความตึงเครียด	-8927
5)	-8928
ATUR	-8929
oost	-8930
ปลูก	-8931
▁ขัน	-8932
▁ตรม	-8933
▁มีอ	-8934
▁หาง	-8935
▁สีสด	-8936
▁ไฮโด	-8937
▁จอร์จ	-8938
▁บาล์ม	-8939
▁กษัตริย์	-8940
▁ดุลการค้า	-8941
ั่งน้ําหนัก	-8942
▁เครื่องเขียน	-8943
▁Bu	-8944
▁DRI	-8945
▁วู้	-8946
▁16.5	-8947
▁COOL	-8948
▁Grey	-8949
▁แล้วแต่	-8950
▁เชี่ยวชาญ	-8951
▁ความคืบหน้า	-8952
98	-8953
▁).	-8954
▁(80	-8955
▁5.7	-8956
▁ตราสาร	-8957
▁การเจริญ	-8958
▁ประยุกต์	-8959
▁เวอร์ชัน	-8960
▁ทางการแพทย์	-8961
ier	-8962
rans	-8963
กภัย	-8964
บคู่	-8965
อภัย	-8966
▁GPS	-8967
▁ทางใน	-8968
inn	-8969
ยชน	-8970
โร่	-8971
๎าง	-8972
▁SF	-8973
▁ฆา	-8974
หวัด	-8975
แหลม	-8976
าส่วน	-8977
▁คณิต	-8978
▁วรรณ	-8979
▁เยื่อ	-8980
▁ควบคู่	-8981
▁กักเก็บ	-8982
บาด	-8983
▁/8	-8984
▁5.3	-8985
▁6.1	-8986
▁CRO	-8987
▁รีม	-8988
▁ตื้น	-8989
▁จิตใจ	-8990
▁เพลย์	-8991
▁ความคม	-8992
▁ตวัรอ้ย	-8993
▁ดอกเบี้ย	-8994
▁อาณาจักร	-8995
▁เครื่องเทศ	-8996
oga	-8997
▁พีช	-8998
ัมภีร์	-8999
▁ลักซ์	-9000
▁ตอนท้าย	-9001
▁ล้างหน้า	-9002
▁การคํานวณ	-9003
▁เพิม่ขึน้	-9004
ee	-9005
จี	-9006
ITH	-9007
ยาง	-9008
สัต	-9009
orld	-9010
▁(""	-9011
▁OUT	-9012
▁Run	-9013
▁ชิป	-9014
▁แวว	-9015
▁SHOP	-9016
▁ฟาร์	-9017
▁ห่วย	-9018
▁มะนาว	-9019
▁วีซ่า	-9020
▁ฮีโร่	-9021
▁คัมภีร์	-9022
▁โดยปกติ	-9023
▁ความหวาน	-9024
หิน	-9025
๊อก	-9026
▁Rec	-9027
▁BODY	-9028
▁แม็ก	-9029
▁หาว่า	-9030
▁เดือด	-9031
▁ทําร้าย	-9032
41	-9033
▁(5)	-9034
▁7.1	-9035
▁ชํา	-9036
▁ทอม	-9037
▁มุก	-9038
ภาษณ์	-9039
▁POLY	-9040
▁คลัง	-9041
▁เอ็ด	-9042
จากนี้	-9043
▁เพียงใด	-9044
ista	-9045
▁ขายดี	-9046
▁ความว	-9047
▁ฝักบัว	-9048
▁ครอบครอง	-9049
เฉียงเหนือ	-9050
DR	-9051
▁Wh	-9052
REEN	-9053
▁Off	-9054
▁กระช	-9055
▁เฉียบ	-9056
▁ครีเอท	-9057
▁ความใน	-9058
▁สถาปนา	-9059
▁Midsole	-9060
▁อิมพอร์ต	-9061
▁การฟื้นฟู	-9062
▁สังคมนิยม	-9063
▁เม็กซิกัน	-9064
▁เครื่องทํา	-9065
▁เป็นเพื่อน	-9066
▁106	-9067
▁Rev	-9068
▁รับสาย	-9069
▁Comfort	-9070
▁ความแรง	-9071
▁ทะเลสาบ	-9072
▁ใช้กําลัง	-9073
▁น่าประทับใจ	-9074
ฝัน	-9075
CLUS	-9076
ก็ดี	-9077
▁ลูบ	-9078
▁Gold	-9079
▁เซีย	-9080
CLUSIVE	-9081
▁สื่อสาร	-9082
▁การจราจร	-9083
▁การแก้ปัญหา	-9084
▁ตะวันออกกลาง	-9085
HS	-9086
ัจ	-9087
FIT	-9088
IGE	-9089
▁Dry	-9090
▁แซม	-9091
พัฒนา	-9092
▁Fire	-9093
▁พัสดุ	-9094
▁โอโซน	-9095
พลังงาน	-9096
▁ครบถ้วน	-9097
▁ถอยหลัง	-9098
▁หัวเข็ม	-9099
▁กรุงเทพฯ	-9100
▁EXCLUSIVE	-9101
▁เป็นเจ้าภาพ	-9102
IME	-9103
ดี้	-9104
ารพ	-9105
ไล่	-9106
ดีโอ	-9107
แล้ง	-9108
▁Rub	-9109
▁ซิม	-9110
▁ฟิน	-9111
▁รอด	-9112
ittle	-9113
▁ONLINE	-9114
▁บ่งบอก	-9115
▁พี่ชาย	-9116
▁วีดีโอ	-9117
▁โมเดิร์น	-9118
▁กองทัพอากาศ	-9119
LD	-9120
เทน	-9121
▁Wal	-9122
ouble	-9123
วรรค์	-9124
ารถนา	-9125
▁14.5	-9126
▁MAKE	-9127
▁ตัวตน	-9128
▁ทุกปี	-9129
▁BALANCE	-9130
▁PHILIPS	-9131
▁เด็กชาย	-9132
▁ความหวัง	-9133
▁ตกหลุมรัก	-9134
▁การเจริญเติบโต	-9135
▁BR	-9136
▁๎ย	-9137
▁HEPA	-9138
▁ฟอกสี	-9139
▁เอื้อ	-9140
▁ขออภัย	-9141
▁ทรวงอก	-9142
▁ด้วยว่า	-9143
คอมพิวเตอร์	-9144
รัง	-9145
rome	-9146
บาตร	-9147
กลิ่น	-9148
▁ซิ่ง	-9149
▁ลูชั่น	-9150
▁จุดหมาย	-9151
▁ร้ายแรง	-9152
▁คว่ําบาตร	-9153
arm	-9154
สัก	-9155
▁.,	-9156
▁sh	-9157
จ่าง	-9158
ภาษี	-9159
โค้ง	-9160
▁ดัม	-9161
▁Sens	-9162
▁สํวน	-9163
▁ละออง	-9164
ก้าวหน้า	-9165
▁สง่างาม	-9166
▁อุทกภัย	-9167
▁ความกระจ่าง	-9168
ts	-9169
tte	-9170
รกี	-9171
▁(-	-9172
▁Di	-9173
▁Lite	-9174
▁Mask	-9175
▁คาแรค	-9176
▁Lotion	-9177
▁Kidston	-9178
▁กลมกลืน	-9179
▁สัมภาษณ์	-9180
▁คาแรคเตอร์	-9181
▁เสียค่าเช่า	-9182
ave	-9183
ี้ยน	-9184
▁ตุรกี	-9185
▁อักเสบ	-9186
▁ใบอนุญาต	-9187
▁กําหนดให้	-9188
▁๎อย	-9189
▁เฉียง	-9190
▁เรซิน	-9191
▁Silver	-9192
▁ตระกูล	-9193
▁ยาเสพติด	-9194
OOM	-9195
อัล	-9196
▁450	-9197
ASTIC	-9198
กระจาย	-9199
ทันสมัย	-9200
▁เก่าแก่	-9201
con	-9202
dle	-9203
▁Adv	-9204
▁18.5	-9205
▁BABY	-9206
▁สต็อก	-9207
▁เขย่า	-9208
มนุษยชน	-9209
▁เร่งด่วน	-9210
▁หมุนเวียน	-9211
▁สวนสาธารณะ	-9212
ฝ้า	-9213
วิน	-9214
สนิท	-9215
▁กาล	-9216
ZZION	-9217
▁Moist	-9218
▁PAZZION	-9219
ซา	-9220
ษ์	-9221
ทอง	-9222
▁MS	-9223
▁ฮู	-9224
กชัน	-9225
ิลด์	-9226
▁297	-9227
เรียง	-9228
▁ป๊อป	-9229
▁ชาร์ต	-9230
▁หน้าปก	-9231
▁ตอบกลับ	-9232
▁มาลาเรีย	-9233
▁ประกอบอาหาร	-9234
RES	-9235
ica	-9236
▁Day	-9237
คมนาคม	-9238
เข้าร่วม	-9239
AV	-9240
Ex	-9241
ตาย	-9242
▁บะ	-9243
▁ลน	-9244
ัมป์	-9245
ุฒิส	-9246
▁แบล็ก	-9247
▁Wireless	-9248
▁คอลเลกชัน	-9249
▁แต่ละครั้ง	-9250
eld	-9251
ife	-9252
มูล	-9253
นิธิ	-9254
▁5.4	-9255
▁ขุด	-9256
▁เหง	-9257
▁Plan	-9258
▁พร่อง	-9259
แรกเกิด	-9260
▁หนังกลับ	-9261
▁ชิงชนะเลิศ	-9262
▁เด็กแรกเกิด	-9263
ิบัต	-9264
▁บิต	-9265
press	-9266
▁LAUR	-9267
ยอมรับ	-9268
▁ที่รวม	-9269
▁เทรนด์	-9270
▁คนเขียน	-9271
▁แอฟริกาใต้	-9272
73	-9273
บาน	-9274
ล้ม	-9275
▁แง	-9276
ํารา	-9277
▁แอป	-9278
หร่าย	-9279
▁1996	-9280
▁Goga	-9281
▁ปราบ	-9282
▁ปฏิบัต	-9283
▁อีเมล์	-9284
ฟอกอากาศ	-9285
▁เป็นงาน	-9286
▁WIRELESS	-9287
▁ลูชั่นส์	-9288
▁เป็นอิสระ	-9289
▁ความทันสมัย	-9290
▁ส่วนที่เหลือ	-9291
ูงใจ	-9292
▁กริ	-9293
▁ไซต์	-9294
▁การคืน	-9295
▁คิดค้น	-9296
▁ตอนเย็น	-9297
▁ผ้าเช็ด	-9298
▁สาหร่าย	-9299
▁สถานีรถไฟ	-9300
▁ผู้เข้าร่วม	-9301
▁ผู้อํานวยการ	-9302
▁เครื่องฟอกอากาศ	-9303
๊อ	-9304
DER	-9305
ker	-9306
▁ด้	-9307
โครง	-9308
▁อัญ	-9309
light	-9310
ไม่ดี	-9311
▁ระดม	-9312
▁ติดกัน	-9313
▁คินเดิล	-9314
▁ค้าปลีก	-9315
▁รูปถ่าย	-9316
▁Microsoft	-9317
▁สิ่งมีชีวิต	-9318
,8	-9319
UNG	-9320
ote	-9321
ตส์	-9322
ึง่	-9323
▁Gu	-9324
ฉลอง	-9325
▁5.6	-9326
▁Gen	-9327
▁ฮิล	-9328
▁Grip	-9329
้าร้อน	-9330
▁ที่ใด	-9331
▁ผู้วิจ	-9332
▁ทางหลวง	-9333
▁มูลนิธิ	-9334
▁งานวิจัย	-9335
▁แอปพลิเค	-9336
▁เซ็นเตอร์	-9337
iti	-9338
▁ตู	-9339
เทิล	-9340
▁4.9	-9341
ิจฉัย	-9342
▁15.5	-9343
▁ซ้อน	-9344
ตั้งใจ	-9345
▁จําได้	-9346
นั่งเล่น	-9347
▁หน้าร้อน	-9348
▁ปรับอากาศ	-9349
▁แผ่นดินไหว	-9350
▁ดํารงตําแหน่ง	-9351
HZ	-9352
ือ่	-9353
เลก	-9354
▁กน	-9355
roup	-9356
▁Med	-9357
▁NOT	-9358
▁ทัช	-9359
▁ทิว	-9360
▁บูร	-9361
▁25.5	-9362
▁พายุ	-9363
▁ไอซ์	-9364
▁ในทาง	-9365
น้ํามัน	-9366
▁ทางออก	-9367
▁พรรคการเมือง	-9368
▁ห้องนั่งเล่น	-9369
PR	-9370
▁(0	-9371
▁Up	-9372
ling	-9373
แปลก	-9374
▁101	-9375
▁คัล	-9376
▁Auto	-9377
▁ปากี	-9378
ล่าช้า	-9379
และกัน	-9380
▁ชั้นใน	-9381
▁ปลายปี	-9382
▁อํานวย	-9383
▁เลี้ยว	-9384
▁หญิงสาว	-9385
▁ผู้สมัคร	-9386
▁ด้วยความยินดี	-9387
๋น	-9388
ube	-9389
▁EC	-9390
▁กม	-9391
▁แฝ	-9392
▁อรุณ	-9393
▁สิทธิ์	-9394
▁อนุมัติ	-9395
ICK	-9396
ero	-9397
▁Li	-9398
จริต	-9399
แขวน	-9400
▁ทาส	-9401
เรือง	-9402
▁17.5	-9403
▁บลัช	-9404
▁สวิท	-9405
▁เกราะ	-9406
▁แวววาว	-9407
▁ความประทับใจ	-9408
HE	-9409
๊อต	-9410
▁Ro	-9411
▁ฟอ	-9412
▁ตอก	-9413
▁นัย	-9414
โยต้า	-9415
▁นมสด	-9416
▁บุ๊ค	-9417
▁เรื่อ	-9418
▁ส่งกลับ	-9419
▁โตโยต้า	-9420
▁Polyamide	-9421
▁รู้เรื่อง	-9422
▁ความล่าช้า	-9423
หนี	-9424
หลง	-9425
▁คี	-9426
▁ปอ	-9427
▁พน	-9428
▁Hyd	-9429
▁ซีน	-9430
ําบัด	-9431
▁2002	-9432
▁ลุ่ม	-9433
▁ล้อม	-9434
▁หัวร	-9435
▁Touch	-9436
▁ยางลบ	-9437
▁ถ่ายทอด	-9438
▁เจ้าชาย	-9439
▁103	-9440
▁Bar	-9441
▁""""	-9442
▁หั่น	-9443
ฟุตบอล	-9444
ิสิกส์	-9445
▁สมควร	-9446
▁โดยไม่	-9447
▁ที่จริง	-9448
▁ระยะห่าง	-9449
▁หัวรุนแรง	-9450
▁สระว่ายน้ํา	-9451
เดท	-9452
ามัย	-9453
▁ข่า	-9454
หนุ่ม	-9455
▁Back	-9456
ุ่นวาย	-9457
▁สบายใจ	-9458
▁อัพเดท	-9459
▁โฟลเดอร์	-9460
▁เธียเตอร์	-9461
▁ผู้วิจารณ์	-9462
ประวัติศาสตร์	-9463
▁สิทธิมนุษยชน	-9464
WN	-9465
กรี	-9466
▁บ่า	-9467
▁หมู	-9468
▁Slim	-9469
▁สเกล	-9470
▁ความย	-9471
▁ลังเล	-9472
▁เวิร์	-9473
ค่ําคืน	-9474
▁Cloudfoam	-9475
▁ปฏิบัติตาม	-9476
▁ยามค่ําคืน	-9477
Re	-9478
ี๊	-9479
โธ	-9480
แพด	-9481
เสียบ	-9482
▁เออร์	-9483
▁System	-9484
▁ปากีสถาน	-9485
▁ความผันผวน	-9486
ศึก	-9487
อีก	-9488
▁ฟุ	-9489
▁WITH	-9490
▁ก๊อก	-9491
▁ผลัด	-9492
ลําบาก	-9493
▁หารือ	-9494
▁เต้าเสียบ	-9495
▁ดูแลตัวเอง	-9496
เตา	-9497
▁ตึก	-9498
▁อืน	-9499
ฏิรูป	-9500
หมดจด	-9501
▁เมีย	-9502
▁เซาท์	-9503
▁บุคลากร	-9504
▁ชั้นล่าง	-9505
▁สิ่งใหม่	-9506
▁เลือกสรร	-9507
▁ผิดกฎหมาย	-9508
▁มีผลกระทบ	-9509
▁สะอาดหมดจด	-9510
▁กระบวนการผลิต	-9511
son	-9512
▁ML	-9513
▁SO	-9514
▁Dual	-9515
▁คนไทย	-9516
▁บนสุด	-9517
▁ออกซิ	-9518
พิพากษา	-9519
▁กระชาก	-9520
▁ที่ปรึกษา	-9521
cm	-9522
ata	-9523
คว้า	-9524
▁รอน	-9525
ลังกา	-9526
อํานวย	-9527
▁Series	-9528
▁ตอนเหนือ	-9529
▁แต่ละวัน	-9530
ซุง	-9531
ไส้	-9532
▁TR	-9533
▁)...	-9534
▁ขโมย	-9535
▁ฟอร์	-9536
▁ส่วนสูง	-9537
77	-9538
โปร	-9539
เทอะ	-9540
แคลน	-9541
▁6.7	-9542
▁Mesh	-9543
ential	-9544
▁เลอะเทอะ	-9545
▁การอธิบาย	-9546
▁น่าอัศจรรย์	-9547
IRE	-9548
wear	-9549
กั้น	-9550
ตัรา	-9551
▁ด้า	-9552
▁ล้า	-9553
▁แคว	-9554
ตระเวน	-9555
▁กาต้ม	-9556
▁เป็นอ	-9557
อย่างไร	-9558
▁วิจารณ์	-9559
▁กาต้มน้ํา	-9560
▁อย่างไรก็ดี	-9561
▁ความก้าวหน้า	-9562
XT	-9563
หก	-9564
IDE	-9565
แต่น	-9566
าว่าง	-9567
▁กราน	-9568
▁รักษ	-9569
▁CROCS	-9570
▁มายัง	-9571
▁ทรัมป์	-9572
▁ทางเพศ	-9573
▁เวลาว่าง	-9574
▁แบบอย่าง	-9575
CA	-9576
ct	-9577
ADA	-9578
bit	-9579
▁BT	-9580
pson	-9581
อนุม	-9582
▁Cup	-9583
▁มาด	-9584
▁Time	-9585
▁กวาง	-9586
▁กิ้ง	-9587
▁ฉลอง	-9588
▁วิถี	-9589
▁ซุปเป	-9590
▁ระงับ	-9591
▁มองว่า	-9592
▁Optical	-9593
▁ดับเบิ้ล	-9594
▁การปฏิรูป	-9595
▁ส่องสว่าง	-9596
▁เซิร์ฟเวอร์	-9597
นาย	-9598
ลวง	-9599
▁EM	-9600
▁อาบ	-9601
ening	-9602
บุรุษ	-9603
▁John	-9604
กันแดด	-9605
▁ขอรับ	-9606
▁การตาม	-9607
▁นอกบ้าน	-9608
▁ทุกวันนี้	-9609
BA	-9610
▁y	-9611
เด็ก	-9612
▁โล่	-9613
▁ไข้	-9614
White	-9615
▁2003	-9616
▁ไฮโดร	-9617
เหมาะสม	-9618
▁คนอื่นๆ	-9619
▁คอมพลีท	-9620
ถ่ายเอกสาร	-9621
▁ความเหมาะสม	-9622
▁International	-9623
95	-9624
ภ์	-9625
▁ภาระ	-9626
▁โล่ง	-9627
▁ผ้าคลุม	-9628
▁เหล็กกล้า	-9629
▁คณิตศาสตร์	-9630
ญั	-9631
▁FM	-9632
ROID	-9633
▁Book	-9634
▁การทูต	-9635
▁นิ้วมือ	-9636
▁ประมวลผล	-9637
PC	-9638
คซ	-9639
เถ	-9640
บัง	-9641
ไร้	-9642
ergy	-9643
สหรัฐ	-9644
▁2007	-9645
▁คลับ	-9646
▁ป่วย	-9647
▁มอยส์	-9648
▁กองทัพบก	-9649
▁La	-9650
อ่าน	-9651
▁128	-9652
▁Dyn	-9653
▁SET	-9654
▁2006	-9655
▁ตกใจ	-9656
▁บักส์	-9657
▁Little	-9658
▁จําลอง	-9659
▁ทําตาม	-9660
▁Essence	-9661
▁ทั่วประเทศ	-9662
▁เรื่องใหญ่	-9663
▁พระราชบัญญัติ	-9664
SM	-9665
sc	-9666
นิต	-9667
▁CR	-9668
▁le	-9669
เซียม	-9670
▁21.5	-9671
▁Bott	-9672
ทําการ	-9673
▁กันแดด	-9674
▁ดาวเทียม	-9675
▁เนื้อที่	-9676
TE	-9677
บล	-9678
▁สแ	-9679
ESSOR	-9680
ฝีมือ	-9681
▁IPAD	-9682
▁|-||	-9683
igital	-9684
อนามัย	-9685
▁คําขอ	-9686
▁เชิงลบ	-9687
▁แต่ต้น	-9688
▁วันหนึ่ง	-9689
▁มีอิทธิพล	-9690
▁ภูมิศาสตร์	-9691
ga	-9692
โส	-9693
ํน	-9694
ming	-9695
หมอน	-9696
ิติช	-9697
▁กวน	-9698
▁ทัพ	-9699
▁โนะ	-9700
▁CLAR	-9701
AMSUNG	-9702
▁ตะกรัน	-9703
▁บริติช	-9704
▁ความประ	-9705
▁พลเมือง	-9706
▁เรื่อยๆ	-9707
▁อาหารทะเล	-9708
ANO	-9709
▁พึ่งพา	-9710
▁เดินเล่น	-9711
▁เข้าใจผิด	-9712
▁แหล่งพลังงาน	-9713
ทิ	-9714
สากล	-9715
▁การร	-9716
▁เก็ต	-9717
▁น่านน้ํา	-9718
▁ใครก็ตาม	-9719
li	-9720
เรน	-9721
▁ญา	-9722
รรมา	-9723
ษฐาน	-9724
▁7.2	-9725
▁เจิด	-9726
อนุมัติ	-9727
▁Rubber	-9728
▁ต่อกัน	-9729
▁ความหนา	-9730
▁ทางสังคม	-9731
▁ทางวิทยาศาสตร์	-9732
ALL	-9733
▁Bi	-9734
▁รฐ	-9735
▁วาร	-9736
▁หมุด	-9737
▁ของแท้	-9738
▁ประทับ	-9739
▁ดัดแปลง	-9740
▁นิ้วเท้า	-9741
▁แพร่หลาย	-9742
▁รอบทิศทาง	-9743
▁ฮาร์ดแวร์	-9744
▁ทั้งสองฝ่าย	-9745
avy	-9746
uit	-9747
พูล	-9748
มณี	-9749
เปรส	-9750
▁Mil	-9751
▁สีด	-9752
กลิ้ง	-9753
▁22.5	-9754
▁PROF	-9755
▁ฮอร์	-9756
▁ข้าวส	-9757
▁อัญมณี	-9758
▁พรีเมียม	-9759
▁ฟองอากาศ	-9760
▁เฉพาะที่	-9761
เคลื่อนไหว	-9762
▁ในเวลานั้น	-9763
TON	-9764
▁สปา	-9765
▁24.5	-9766
▁แฟร์	-9767
▁โยคะ	-9768
มหานคร	-9769
▁ข่าวก	-9770
▁ผู้ใด	-9771
ดําน้ํา	-9772
เชสเตอร์	-9773
▁จุดเด่น	-9774
▁เอสเปรส	-9775
▁ปลอกหมอน	-9776
เพลิดเพลิน	-9777
▁กรุงเทพมหานคร	-9778
SC	-9779
udio	-9780
▁AIR	-9781
อริโอ	-9782
▁เมือ	-9783
ไรเซอร์	-9784
▁ต่อรอง	-9785
▁ติดเชื้อ	-9786
▁สเตอริโอ	-9787
▁โชคไม่ดี	-9788
tim	-9789
▁จง	-9790
▁Ink	-9791
▁อวย	-9792
▁CASE	-9793
▁พุ่ง	-9794
๊กเกอร์	-9795
▁นักบิน	-9796
▁ศรีลังกา	-9797
าช	-9798
asy	-9799
ลอน	-9800
เป้า	-9801
▁เตะ	-9802
▁MINI	-9803
▁เอ่อ	-9804
▁เครดิต	-9805
ก่อสร้าง	-9806
ุ่งเรือง	-9807
▁Brother	-9808
▁ข่าวกรอง	-9809
▁แปลกใหม่	-9810
▁โอกาสพิเศษ	-9811
HC	-9812
เอส	-9813
▁81	-9814
▁iPod	-9815
▁สูญหาย	-9816
การศึกษา	-9817
เก็บเงิน	-9818
▁การทหาร	-9819
▁การแถลง	-9820
▁พลเรือน	-9821
▁ปลายนิ้ว	-9822
้ท	-9823
eth	-9824
▁BK	-9825
▁CT	-9826
▁บรู	-9827
มาจาก	-9828
▁Pure	-9829
▁มาหา	-9830
▁Brush	-9831
▁จองที่	-9832
▁ซัมซุง	-9833
▁ลดราคา	-9834
▁วิกฤติ	-9835
▁เรือดําน้ํา	-9836
▁ตามคําแนะนํา	-9837
EE	-9838
cl	-9839
▁Fu	-9840
port	-9841
▁Cap	-9842
▁DPI	-9843
▁ไผ่	-9844
คริสต์	-9845
▁Crocs	-9846
ลิมฉลอง	-9847
▁ลูกบิด	-9848
เวอร์พูล	-9849
▁ถั่วเหลือง	-9850
▁แสดงความคิดเห็น	-9851
ยพ	-9852
แขน	-9853
▁kg	-9854
ัตรา	-9855
่มุม	-9856
▁JBL	-9857
▁รัน	-9858
กเว้น	-9859
▁ล่อง	-9860
▁ค่อยๆ	-9861
สักครู่	-9862
▁ดักจับ	-9863
▁อีกสักครู่	-9864
INT	-9865
Top	-9866
▁CE	-9867
▁Mer	-9868
▁บัต	-9869
▁Epson	-9870
▁ตามมา	-9871
▁มลพิษ	-9872
▁SPEEDO	-9873
▁คลาวด์	-9874
▁ฐานทัพ	-9875
▁รถเมล์	-9876
▁แง่มุม	-9877
▁บัญญัติ	-9878
▁แมนเชสเตอร์	-9879
,5	-9880
atur	-9881
สกุล	-9882
▁LEE	-9883
▁King	-9884
▁ชาร์ล	-9885
หลังจาก	-9886
▁พอแล้ว	-9887
▁ธุรกรรม	-9888
▁ความหนาแน่น	-9889
▁ความเรียบง่าย	-9890
า่ง	-9891
ใช่	-9892
ยุติ	-9893
▁หาด	-9894
ชันส์	-9895
ushion	-9896
▁มอลล์	-9897
อตแลนด์	-9898
▁CLARINS	-9899
▁อาจารย์	-9900
▁รวมตัวกัน	-9901
▁ลิเวอร์พูล	-9902
▁หนึ่งเดียว	-9903
โท	-9904
ASY	-9905
ผลิ	-9906
วกล	-9907
▁Aqu	-9908
▁เนา	-9909
เครือ	-9910
▁ผู้ส	-9911
เบิร์ต	-9912
▁Middle	-9913
▁ข้าวกล	-9914
▁ประท้วง	-9915
▁ผิวเนียน	-9916
อย่างหนึ่ง	-9917
▁สกอตแลนด์	-9918
▁ให้ความสนใจ	-9919
ศาล	-9920
EFAL	-9921
▁Man	-9922
▁ปีน	-9923
▁เข่า	-9924
จําลอง	-9925
▁Spenc	-9926
▁จิตวิ	-9927
▁แฮนด์	-9928
▁ยุติธรรม	-9929
▁คุณลักษณะ	-9930
▁ตกแต่งภายใน	-9931
▁ละเอียดอ่อน	-9932
▁Av	-9933
▁an	-9934
▁Gra	-9935
▁Tri	-9936
▁นูน	-9937
สนีย์	-9938
▁สปีด	-9939
▁สลัก	-9940
คิดเลข	-9941
ุฒิสภา	-9942
ทรรศการ	-9943
▁จิตรกรรม	-9944
▁ต้นเดือน	-9945
▁กระเบื้อง	-9946
▁นิทรรศการ	-9947
▁ประเทศสมาชิก	-9948
▁เครื่องคิดเลข	-9949
71	-9950
ANT	-9951
itan	-9952
บุรี	-9953
▁ANG	-9954
▁มูฟ	-9955
▁โรล	-9956
▁0.25	-9957
เชื่อม	-9958
▁ฝ่ามือ	-9959
▁ฟิตเนส	-9960
ESSIONAL	-9961
▁ดิสนีย์	-9962
▁หน้ากาก	-9963
▁เซนเซอร์	-9964
รช	-9965
เภอ	-9966
เอล	-9967
ไข้	-9968
▁Go	-9969
▁มง	-9970
UDIO	-9971
▁OEM	-9972
▁หิว	-9973
SWISS	-9974
างวัน	-9975
▁เบรค	-9976
▁เผื่อ	-9977
▁เฮาส์	-9978
▁ขายของ	-9979
▁ภาคใต้	-9980
▁วารสาร	-9981
▁DIGITAL	-9982
▁สองหน้า	-9983
▁เวลานี้	-9984
▁---------	-9985
▁ความผิดหวัง	-9986
▁ชุดว่ายน้ํา	-9987
AG	-9988
uro	-9989
วิด	-9990
▁RO	-9991
adow	-9992
เพณี	-9993
▁งค์	-9994
▁ซูม	-9995
▁ดอท	-9996
▁ตาล	-9997
▁เวจ	-9998
▁Bright	-9999
▁ข้อต่อ	-10000
▁วิศวกร	-10001
▁สําคัญๆ	-10002
▁หน้าเตา	-10003
▁ความอ่อน	-10004
▁ฆ่าเชื้อ	-10005
▁ใบรับรอง	-10006
ner	-10007
▁กลีบ	-10008
▁สแตน	-10009
▁แผนก	-10010
nology	-10011
▁มาสู่	-10012
▁ในนาม	-10013
▁Spencer	-10014
▁ค่ําคืน	-10015
▁นักวิจัย	-10016
▁ขั้นพื้นฐาน	-10017
▁ดอลลาร์สหรัฐ	-10018
ONIC	-10019
คซีน	-10020
ปลุก	-10021
▁ชาน	-10022
▁ลอรี	-10023
กางเกง	-10024
▁ดิฉัน	-10025
▁แชมเป	-10026
▁Bottom	-10027
▁ตรงข้าม	-10028
▁ทั้งที่	-10029
▁ชื่อเรื่อง	-10030
▁PROFESSIONAL	-10031
MO	-10032
SH	-10033
yd	-10034
ODE	-10035
พุต	-10036
หนา้	-10037
▁ชาญ	-10038
▁ไบร	-10039
▁น่าเศร้า	-10040
▁แอ็คชั่น	-10041
สหประชาชาติ	-10042
▁รอยนิ้วมือ	-10043
▁/5	-10044
▁As	-10045
2.11	-10046
ional	-10047
▁1990	-10048
▁INPUT	-10049
▁เทียน	-10050
STATION	-10051
▁ลอรีอัล	-10052
▁อรุณสวัสดิ์	-10053
osh	-10054
ราษฎ	-10055
▁DOU	-10056
▁คุม	-10057
stick	-10058
การัง	-10059
สัตย์	-10060
▁Phil	-10061
เที่ยง	-10062
▁สมรรถ	-10063
▁ไอแพด	-10064
▁สตาร์ท	-10065
▁แสวงหา	-10066
▁โน๊ตบุ๊ค	-10067
▁เทียบเท่า	-10068
▁การอนุมัติ	-10069
ลัก	-10070
▁03	-10071
▁คื	-10072
▁ฟลอร	-10073
▁วาระ	-10074
▁เดย์	-10075
ลําโพง	-10076
▁Marks	-10077
▁Night	-10078
▁เลตต์	-10079
▁โปร่งแสง	-10080
▁เช่นเดียวกัน	-10081
▁ความเป็นส่วนตัว	-10082
,7	-10083
ลอย	-10084
ลิง	-10085
▁NO	-10086
knit	-10087
▁Bre	-10088
▁LIT	-10089
▁Log	-10090
▁นวล	-10091
▁ผัด	-10092
▁ฮู้	-10093
▁Nylon	-10094
▁มีลูก	-10095
▁เมื่อไร	-10096
▁PLAYSTATION	-10097
▁ะ	-10098
▁):8	-10099
▁249	-10100
▁6.8	-10101
▁8.1	-10102
▁ฉุน	-10103
▁เฮล	-10104
▁มิตร	-10105
▁รอยย	-10106
▁ห้อย	-10107
oundation	-10108
▁ประดิษฐ์	-10109
▁จิตวิญญาณ	-10110
▁เมื่อไม่นาน	-10111
ควร์	-10112
▁SAB	-10113
ีวีซี	-10114
เขียว	-10115
▁พีวีซี	-10116
▁เท็กซ์	-10117
▁ส่งสินค้า	-10118
NUS	-10119
▁PE	-10120
าทาง	-10121
ชิแกน	-10122
ูดิโอ	-10123
▁2005	-10124
กระนั้น	-10125
▁ขับไล่	-10126
▁ขาดแคลน	-10127
▁มิชิแกน	-10128
▁สตูดิโอ	-10129
▁พื้นสนาม	-10130
▁ตามกฎหมาย	-10131
อย่างไรก็ตาม	-10132
65	-10133
▁ฎ	-10134
net	-10135
ไก่	-10136
▁BB	-10137
▁RAM	-10138
▁Tra	-10139
▁บอด	-10140
EATUR	-10141
่ายแพ้	-10142
▁ไซรัป	-10143
▁การจับ	-10144
▁สแควร์	-10145
▁กรอบรูป	-10146
▁ซุปเปอร์	-10147
▁สนามกีฬา	-10148
▁ท้ายที่สุด	-10149
ft	-10150
arg	-10151
▁DB	-10152
▁Jet	-10153
▁PAN	-10154
▁สลาย	-10155
▁คู่ใจ	-10156
▁ต้นปี	-10157
▁ALUMNUS	-10158
▁การแพทย์	-10159
▁ไดรเวอร์	-10160
▁เรื่องจริง	-10161
▁นักวิทยาศาสตร์	-10162
ONG	-10163
▁!)	-10164
▁FG	-10165
▁7.8	-10166
▁750	-10167
▁แคช	-10168
▁แผ่	-10169
▁นาโน	-10170
▁เฟรม	-10171
แน่นอน	-10172
▁MAKEUP	-10173
▁การตอบ	-10174
เรียบร้อย	-10175
▁วรรณกรรม	-10176
▁แต่งเติม	-10177
▁เรียกเก็บเงิน	-10178
ผง	-10179
บบุ	-10180
เพิ	-10181
บทวน	-10182
▁ซอก	-10183
▁เมม	-10184
▁แมก	-10185
▁แวน	-10186
▁แวะ	-10187
alite	-10188
เหนียว	-10189
▁ชชั่น	-10190
บบุหรี่	-10191
▁การชะลอ	-10192
▁ผู้เสีย	-10193
▁หมู่บ้าน	-10194
▁นาฬิกาปลุก	-10195
▁รับประโยชน์	-10196
ไพ	-10197
รอด	-10198
ัลด์	-10199
▁สตี	-10200
▁เทพ	-10201
▁สมาส	-10202
▁ไบโอ	-10203
▁Vista	-10204
▁ความอ	-10205
▁แปลกใจ	-10206
▁สถานทูต	-10207
▁เพิ่งจะ	-10208
app	-10209
ไอน	-10210
▁RP	-10211
▁We	-10212
aser	-10213
▁010	-10214
▁5.9	-10215
▁Cal	-10216
ไอน้ํา	-10217
▁เธอร์	-10218
▁คณะรัฐ	-10219
▁ห่างไกล	-10220
▁แคลอรี่	-10221
▁อาหารเช้า	-10222
ern	-10223
▁ซีซ	-10224
▁ราบ	-10225
▁โกะ	-10226
สันต์	-10227
▁ยิ้ม	-10228
▁ไหม้	-10229
กระเป๋	-10230
▁ศักดิ์	-10231
▁ไร้สาระ	-10232
กลางเมือง	-10233
▁ลูกกลิ้ง	-10234
▁สุขสันต์	-10235
▁บํารุงรักษา	-10236
DE	-10237
II	-10238
แลน	-10239
▁con	-10240
▁นิส	-10241
▁Home	-10242
▁แอนด	-10243
เจาะจง	-10244
▁THERM	-10245
▁Double	-10246
▁อุปทาน	-10247
ื่อสัตย์	-10248
▁ชิ้นงาน	-10249
▁ช่วงต้น	-10250
▁ราคาขาย	-10251
▁เฉพาะเจาะจง	-10252
▁(8	-10253
atic	-10254
▁7.3	-10255
▁Pig	-10256
▁Perf	-10257
▁World	-10258
▁เฮ้าส์	-10259
▁ฟิสิกส์	-10260
▁อาหารจีน	-10261
▁สูบบุหรี่	-10262
▁j	-10263
ธิ์	-10264
▁Bad	-10265
▁สไป	-10266
▁ใช๎	-10267
▁1992	-10268
▁สเก็ต	-10269
▁ชํารุด	-10270
▁ตัวใหม่	-10271
▁รั่วไหล	-10272
ุทโธ	-10273
▁ดัล	-10274
▁บาส	-10275
▁ภูม	-10276
▁ระย	-10277
เลกุล	-10278
Stripes	-10279
▁ยี่สิบ	-10280
สิ้นเชิง	-10281
▁ปริ้นท์	-10282
▁โมเลกุล	-10283
ภูมิอากาศ	-10284
▁ทางวัฒนธรรม	-10285
▁โดยสิ้นเชิง	-10286
):1	-10287
ney	-10288
▁ex	-10289
▁REM	-10290
▁ฮับ	-10291
itech	-10292
tract	-10293
ทรรศน์	-10294
ึงพอใจ	-10295
▁นิกาย	-10296
▁วอลล์	-10297
▁ตัวถัง	-10298
▁คล้ายคลึง	-10299
กิน	-10300
ศนา	-10301
านา	-10302
play	-10303
ฉลาด	-10304
▁(20	-10305
▁กัง	-10306
▁31.5	-10307
▁LIGHT	-10308
▁ผู้มี	-10309
สมบูรณ์	-10310
▁นับว่า	-10311
▁เหยื่อ	-10312
▁พื้นดิน	-10313
▁เข้าใกล้	-10314
▁เตรียมตัว	-10315
▁สงครามกลางเมือง	-10316
67	-10317
ปป	-10318
ะลิ	-10319
โคล	-10320
รนช์	-10321
▁6.6	-10322
▁สมม	-10323
▁ซาร์	-10324
▁SFERA	-10325
▁อวยพร	-10326
▁ไอพอด	-10327
▁ความระ	-10328
ต่อไปนี้	-10329
▁ต้านทาน	-10330
▁มีผลต่อ	-10331
นอกจากนี้	-10332
ORY	-10333
ats	-10334
▁bl	-10335
ตแลน	-10336
andex	-10337
กุหลาบ	-10338
เปี่ยม	-10339
▁BUILD	-10340
▁TEFAL	-10341
▁ฟิลล์	-10342
▁มัธยม	-10343
▁ลิงก์	-10344
▁วงการ	-10345
▁ปริศนา	-10346
กว่านั้น	-10347
▁ดื่มได้	-10348
▁เต็มเปี่ยม	-10349
ki	-10350
ANE	-10351
TRA	-10352
que	-10353
ดัม	-10354
BEAR	-10355
▁ม่า	-10356
▁ยืม	-10357
astic	-10358
กรรมา	-10359
▁with	-10360
▁บราว	-10361
▁Steel	-10362
ณาธิการ	-10363
ถ่ายรูป	-10364
▁ตวัของ	-10365
▁แอตแลน	-10366
▁ชั้นวาง	-10367
▁บัตเตอร์	-10368
▁ดอกกุหลาบ	-10369
▁คณะรัฐมนตรี	-10370
พ่อ	-10371
▁pl	-10372
▁6.4	-10373
▁ซิน	-10374
▁วัว	-10375
▁แฝง	-10376
▁ฟาร์ม	-10377
▁เอี้ย	-10378
▁ดอกลําโพง	-10379
▁การฝึกซ้อม	-10380
▁ดังต่อไปนี้	-10381
▁สภาพภูมิอากาศ	-10382
iner	-10383
▁ซัล	-10384
▁อิม	-10385
เดียน	-10386
▁วรรค	-10387
▁ไอออน	-10388
▁Classic	-10389
▁นามสกุล	-10390
▁เสียงดนตรี	-10391
▁เสื่อมสภาพ	-10392
XS	-10393
ฐม	-10394
BLU	-10395
▁HZ	-10396
azer	-10397
▁Eau	-10398
เกมส์	-10399
▁Speed	-10400
▁บอดี้	-10401
▁มีหน้า	-10402
▁ออกเสียง	-10403
▁เปลือกตา	-10404
▁เป็นตัวแทน	-10405
▁ฤดูใบไม้ผลิ	-10406
CC	-10407
Ch	-10408
ด่ํา	-10409
พรรณ	-10410
ัชญา	-10411
▁Mod	-10412
▁ตอ่	-10413
▁ตะก	-10414
innam	-10415
บัญชี	-10416
ราเอล	-10417
▁ขึน้	-10418
▁ผู้ชม	-10419
▁ตลอดกาล	-10420
▁เสียดสี	-10421
▁เรืองแสง	-10422
▁สติ๊กเกอร์	-10423
▁ความระมัดระวัง	-10424
HOP	-10425
▁ขํา	-10426
▁ถิ่น	-10427
▁POWER	-10428
▁ทั้งคืน	-10429
▁ที่ต่ํา	-10430
▁เด่นชัด	-10431
▁อิสราเอล	-10432
▁นักวิเคราะห์	-10433
▁ความเพลิดเพลิน	-10434
DA	-10435
OF	-10436
br	-10437
WOO	-10438
ดื่ม	-10439
▁ปูน	-10440
▁รัช	-10441
ราษฎร	-10442
▁ดาร์	-10443
ักผ่อน	-10444
▁BROWN	-10445
▁สร้อย	-10446
ให้ทราบ	-10447
▁เซ็กซ์	-10448
รับผิดชอบ	-10449
▁นั่นแหละ	-10450
▁การพักผ่อน	-10451
▁ความลึกลับ	-10452
▁แจ้งให้ทราบ	-10453
▁เข้ากันได้ดี	-10454
▁พันธบัตรรัฐบาล	-10455
▁าณ	-10456
▁ล่ม	-10457
▁1980	-10458
▁Matte	-10459
▁แมรี่	-10460
▁แยกกัน	-10461
▁กลิ่นอาย	-10462
▁Essential	-10463
▁ทางกฎหมาย	-10464
ูบ	-10465
ULL	-10466
▁กค	-10467
over	-10468
▁7.6	-10469
▁จูบ	-10470
▁รีส	-10471
ution	-10472
มานี้	-10473
▁PLUS	-10474
▁กรอก	-10475
▁การอ	-10476
▁เด็ด	-10477
▁การนัด	-10478
▁ขูดขีด	-10479
▁ได้รูป	-10480
▁ช่องทาง	-10481
▁ดวงอาทิตย์	-10482
▁กองบัญชาการ	-10483
RAY	-10484
ROL	-10485
สุน	-10486
▁OR	-10487
▁เซา	-10488
▁1920	-10489
▁Line	-10490
▁ซ้อม	-10491
▁นีโอ	-10492
▁ฮาร์	-10493
▁INTER	-10494
▁เข้าชม	-10495
▁อ่นหนา้	-10496
ไปกว่านั้น	-10497
อํานวยความสะดวก	-10498
BY	-10499
ถอน	-10500
▁(;	-10501
▁To	-10502
กิ่ง	-10503
น้อง	-10504
ปราม	-10505
▁ริก	-10506
ละลาย	-10507
บํารุง	-10508
▁ปริญญา	-10509
▁ขบวนการ	-10510
▁คริสตจักร	-10511
▁Foundation	-10512
put	-10513
▁Dr	-10514
▁ทํ	-10515
นิ่ง	-10516
▁Sand	-10517
▁Zone	-10518
▁การท	-10519
▁ANGEL	-10520
▁มาร์ก	-10521
▁เมมโม	-10522
▁ลองของ	-10523
▁สเตอร์	-10524
▁เหยือก	-10525
▁ของจริง	-10526
▁ปฏิกรณ์	-10527
▁อธิปไตย	-10528
▁เพรียวบาง	-10529
ELS	-10530
aco	-10531
box	-10532
enn	-10533
tif	-10534
unc	-10535
ลิส	-10536
ล์ว	-10537
สก์	-10538
atin	-10539
ซีย์	-10540
▁Fir	-10541
▁ผ้าน	-10542
▁รับรู้	-10543
▁ลึกลับ	-10544
▁สองชั้น	-10545
▁เปลี่ยนสี	-10546
▁นักวิจารณ์	-10547
▁รวมทั้งหมด	-10548
▁ความรับผิดชอบ	-10549
AXY	-10550
FER	-10551
จุด	-10552
แนะ	-10553
▁up	-10554
ield	-10555
ward	-10556
▁"",	-10557
▁6.9	-10558
▁ARM	-10559
ATHER	-10560
ปกรณ์	-10561
▁26.5	-10562
▁ผ้านวม	-10563
เบอร์รี่	-10564
▁Digital	-10565
▁ปักกิ่ง	-10566
▁ไลเนอร์	-10567
ุทโธปกรณ์	-10568
▁โครงเรื่อง	-10569
):2	-10570
ino	-10571
นอม	-10572
หนิ	-10573
▁ขม	-10574
fera	-10575
sole	-10576
ปราย	-10577
ร๎อย	-10578
สลาก	-10579
▁ชีพ	-10580
KSHOP	-10581
acter	-10582
▁EASY	-10583
▁ซึง่	-10584
▁บิดา	-10585
▁ลิ้ม	-10586
ราชการ	-10587
ุ้มค่า	-10588
เนือ่ง	-10589
▁GUESS	-10590
พระช่วย	-10591
▁ราชการ	-10592
▁น่าพอใจ	-10593
▁การบรรจุ	-10594
▁อัตราส่วน	-10595
▁อินเด็กซ์	-10596
▁เป็นต้นมา	-10597
,9	-10598
โข	-10599
ild	-10600
tiv	-10601
ิตก	-10602
ียส	-10603
erry	-10604
inal	-10605
▁COL	-10606
▁Sec	-10607
▁Hard	-10608
▁PRET	-10609
▁Sfera	-10610
ไปรษณีย์	-10611
▁เบอร์ลิน	-10612
▁แก้วน้ํา	-10613
กรรมาธิการ	-10614
▁ที่ประชุม	-10615
▁สิ่งจําเป็น	-10616
วาล	-10617
mium	-10618
▁MEL	-10619
▁ธัญ	-10620
ARRAN	-10621
▁เปน็	-10622
ลูกไม้	-10623
▁ดื่มด่ํา	-10624
▁คุณพระช่วย	-10625
▁ความคุ้มค่า	-10626
ARS	-10627
หรอ	-10628
▁LG	-10629
ตินา	-10630
ิร์ล	-10631
แก๊ส	-10632
▁ทะล	-10633
▁มัด	-10634
▁แดน	-10635
▁แอบ	-10636
▁32.5	-10637
▁กล้า	-10638
บรรยาย	-10639
ARRANTY	-10640
▁ชีวภาพ	-10641
▁แย่จัง	-10642
▁วันนั้น	-10643
▁ข้างหลัง	-10644
▁ปราบปราม	-10645
▁มิสเตอร์	-10646
▁โรงไฟฟ้า	-10647
eet	-10648
ตนา	-10649
▁อุ้ม	-10650
คําถาม	-10651
▁สามัญ	-10652
▁จับกุม	-10653
▁ส้นสูง	-10654
▁งานหนัก	-10655
▁ความยุ่ง	-10656
▁ทางเดียว	-10657
▁เป็นอัตรา	-10658
▁เหลือเชื่อ	-10659
▁ก๊าซธรรมชาติ	-10660
64	-10661
▁Rad	-10662
▁จุล	-10663
▁เคา	-10664
▁เติ	-10665
ชาร์ด	-10666
▁Port	-10667
▁คลิน	-10668
▁Trans	-10669
▁มีมติ	-10670
▁เทศบาล	-10671
▁เทอร์โม	-10672
▁เสียงดี	-10673
สรรพสินค้า	-10674
▁ผ้าลูกไม้	-10675
▁It	-10676
เกิ้ล	-10677
▁แน่ๆ	-10678
▁ถึงที่	-10679
▁กราฟฟิค	-10680
▁ชาญฉลาด	-10681
▁ออกซิเจน	-10682
ผู้แทนราษฎร	-10683
▁การประมวลผล	-10684
CP	-10685
oQ	-10686
ภชน	-10687
ิดา	-10688
▁.)	-10689
▁bu	-10690
▁ไจ	-10691
amin	-10692
▁+++	-10693
▁Low	-10694
▁ยิว	-10695
▁เชล	-10696
ALAXY	-10697
▁Zoom	-10698
▁คั่น	-10699
▁พอใช้	-10700
▁ตัวนํา	-10701
▁วัคซีน	-10702
▁อําเภอ	-10703
▁Dynamic	-10704
▁ผู้สนับสนุน	-10705
▁คณะกรรมาธิการ	-10706
▁ห้างสรรพสินค้า	-10707
▁Hi	-10708
▁สึ	-10709
คณิต	-10710
▁Nik	-10711
กร่อน	-10712
▁19.5	-10713
▁Twin	-10714
▁แพลต	-10715
ภชนาการ	-10716
เจนตินา	-10717
▁ญแจล็อก	-10718
▁โปสเตอร์	-10719
Un	-10720
ret	-10721
▁KT	-10722
กรีม	-10723
ามีน	-10724
▁112	-10725
▁EST	-10726
▁Mus	-10727
▁ปอด	-10728
▁มติ	-10729
ATING	-10730
นาฬิกา	-10731
▁พิกัด	-10732
▁สก๊อต	-10733
▁เอฟเฟ	-10734
▁ไอคอน	-10735
▁PRETTY	-10736
▁บราวน์	-10737
▁ลูชันส์	-10738
▁ไอศกรีม	-10739
▁ตั้งชื่อ	-10740
▁อาร์เจนตินา	-10741
▁ความน่าเชื่อถือ	-10742
นะ	-10743
ape	-10744
opy	-10745
ไข่	-10746
เอ็น	-10747
▁8.0	-10748
▁พู่	-10749
ประมง	-10750
▁ด้าย	-10751
▁MOUSE	-10752
▁กําไร	-10753
▁นิยาม	-10754
▁พีทส์	-10755
▁เคอร์	-10756
▁แอนน์	-10757
▁คุณพ่อ	-10758
▁กระต่าย	-10759
▁ตรงนั้น	-10760
▁พระพุทธ	-10761
▁แม่พิมพ์	-10762
let	-10763
▁ปน	-10764
คาโก	-10765
▁8.9	-10766
▁Leg	-10767
▁ทรอ	-10768
▁สึก	-10769
▁เลส	-10770
▁บังก	-10771
▁Stand	-10772
▁ซอฟท์	-10773
▁ชิคาโก	-10774
▁ตรงกัน	-10775
▁ออกเดินทาง	-10776
ลวด	-10777
ลัย	-10778
▁อ่	-10779
▁Card	-10780
▁Mark	-10781
▁มอร์	-10782
▁Watch	-10783
▁ดูดซึม	-10784
▁ตัดต่อ	-10785
▁ไฟต่ํา	-10786
▁มีความรู้สึก	-10787
CB	-10788
จาค	-10789
ผูก	-10790
▁HT	-10791
รงค์	-10792
สด็จ	-10793
ิดจ์	-10794
▁สกี	-10795
▁อัส	-10796
เจลิส	-10797
▁LANE	-10798
▁เทนนิส	-10799
▁สํานักข่าว	-10800
ผ่าศูนย์กลาง	-10801
fr	-10802
▁th	-10803
▁115	-10804
▁ฉับ	-10805
▁อวบ	-10806
▁โภค	-10807
atter	-10808
range	-10809
▁Make	-10810
▁ลอสแ	-10811
▁สวิง	-10812
▁Prime	-10813
▁เตี้ย	-10814
▁ปกคลุม	-10815
แห่งชาติ	-10816
▁ฆาตกรรม	-10817
▁ร้อนแรง	-10818
▁เตาแก๊ส	-10819
▁สไปเดอร์	-10820
▁หมดปัญหา	-10821
▁สามเหลี่ยม	-10822
▁แอปพลิเคชัน	-10823
▁ปัจจัยเสี่ยง	-10824
ุระ	-10825
เวศ	-10826
ULTI	-10827
ทยาน	-10828
ย้ํา	-10829
ห้าม	-10830
▁8.3	-10831
▁สัป	-10832
ลาเทศ	-10833
▁TECH	-10834
▁มิใช่	-10835
▁แผนงาน	-10836
▁เป็นครั้งคราว	-10837
าต	-10838
ACT	-10839
ORG	-10840
ays	-10841
ถูก	-10842
ยืม	-10843
หัน	-10844
▁(7	-10845
▁ad	-10846
▁พย	-10847
ICAL	-10848
ring	-10849
▁San	-10850
▁เซล	-10851
่างใด	-10852
▁คนใด	-10853
▁ฉ่ํา	-10854
▁พลัส	-10855
▁ลา้น	-10856
▁สมูท	-10857
▁แต่อย	-10858
▁โรงรถ	-10859
▁Butter	-10860
▁Design	-10861
▁โดยรอบ	-10862
▁พาวเวอร์	-10863
▁ในกรณีนี้	-10864
▁แต่อย่างใด	-10865
คู	-10866
แนก	-10867
เฟีย	-10868
▁135	-10869
▁178	-10870
▁Sol	-10871
▁จีบ	-10872
▁นาว	-10873
▁ยอน	-10874
AMING	-10875
จารย์	-10876
จูงใจ	-10877
▁2001	-10878
▁จรัส	-10879
▁ญาติ	-10880
▁เมดิ	-10881
ailand	-10882
▁ลมแรง	-10883
เตอร์เร	-10884
▁ขาดตอน	-10885
▁มันวาว	-10886
▁เจ้นท์	-10887
ิตกกังวล	-10888
▁จัดแสดง	-10889
▁รีสอร์ท	-10890
▁เมมโมรี่	-10891
เตอร์เรเนียน	-10892
▁เครื่องกรอง	-10893
3)	-10894
ARB	-10895
ari	-10896
ware	-10897
ม่าน	-10898
▁ดาร	-10899
สีฟัน	-10900
▁Over	-10901
ิทัศน์	-10902
▁Razer	-10903
▁เสด็จ	-10904
ที่จริง	-10905
▁Cinnam	-10906
▁งานการ	-10907
▁ทางกาย	-10908
▁นิสสัน	-10909
▁ซื้อขาย	-10910
▁ประเพณี	-10911
▁ฟีเจอร์	-10912
▁เมื่อใด	-10913
▁Lightning	-10914
▁สังเกตว่า	-10915
▁แปรงสีฟัน	-10916
แกง	-10917
▁Vol	-10918
ณาการ	-10919
▁สรีร	-10920
▁อ้อย	-10921
▁เวียน	-10922
▁สิ้นปี	-10923
▁แรงม้า	-10924
▁ความลับ	-10925
▁อยู่เลย	-10926
▁WORKSHOP	-10927
▁ถนอมอาหาร	-10928
▁อํานวยความสะดวก	-10929
RID	-10930
USH	-10931
land	-10932
ว่าน	-10933
▁CLE	-10934
▁MAM	-10935
▁ซอม	-10936
▁โรย	-10937
เลียน	-10938
▁เสื่อ	-10939
▁ผ่าตัด	-10940
▁อุทยาน	-10941
▁ญแจล็อค	-10942
▁เจ็บปวด	-10943
▁เมลามีน	-10944
▁ไร้กังวล	-10945
ตํอ	-10946
มัส	-10947
เอา	-10948
▁ทบ	-10949
ROST	-10950
▁คลา	-10951
▁คิต	-10952
▁พอล	-10953
▁เพลิง	-10954
▁เอาใจ	-10955
▁ทางได้	-10956
▁ธัญพืช	-10957
▁มันเงา	-10958
▁ล่าช้า	-10959
เป้าหมาย	-10960
▁viscose	-10961
▁ความเจ็บ	-10962
▁เครื่องช	-10963
▁มหัศจรรย์	-10964
▁สั่งอาหาร	-10965
รป	-10966
▁HO	-10967
▁MR	-10968
▁Si	-10969
▁175	-10970
ิเตอร์	-10971
▁ทางใต้	-10972
ยุติธรรม	-10973
▁ของตลาด	-10974
▁เจ้าตัว	-10975
▁ล้ําสมัย	-10976
▁อินเตอร์เน	-10977
ISH	-10978
ดาว	-10979
ถาน	-10980
▁ED	-10981
กรีต	-10982
▁LTD	-10983
▁Ret	-10984
▁กัว	-10985
▁จิม	-10986
่งั้น	-10987
▁Type	-10988
▁เวที	-10989
▁Cover	-10990
▁กล้วย	-10991
▁พาร์ท	-10992
▁ตอบรับ	-10993
▁บีเอ็ม	-10994
▁LANEIGE	-10995
▁powerbuy	-10996
▁ลาดตระเวน	-10997
▁แพลตฟอร์ม	-10998
NO	-10999
alk	-11000
▁:5	-11001
▁Ag	-11002
▁UL	-11003
acer	-11004
▁):7	-11005
▁แลก	-11006
อาวุธ	-11007
▁Comm	-11008
▁ตําง	-11009
▁ทนาย	-11010
▁หยวน	-11011
ตาตื่น	-11012
▁ระวาง	-11013
▁คงคลัง	-11014
▁ความอด	-11015
▁ลาก่อน	-11016
▁สมาสต์	-11017
ตาตื่นใจ	-11018
▁ไม่งั้น	-11019
▁ซัมเมอร์	-11020
DB	-11021
MP	-11022
bs	-11023
mp	-11024
ครร	-11025
ามา	-11026
แซง	-11027
▁UR	-11028
▁จร	-11029
▁8.6	-11030
▁เบะ	-11031
anced	-11032
ครรภ์	-11033
▁ฉลาม	-11034
▁ดินส	-11035
ECTION	-11036
▁Clean	-11037
▁ปีเตอร์	-11038
▁ฟินแลนด์	-11039
▁บรรณาธิการ	-11040
▁ผู้เริ่มต้น	-11041
ARE	-11042
BBI	-11043
ute	-11044
ISSA	-11045
็นท์	-11046
▁เฉย	-11047
ylene	-11048
atural	-11049
ัมพันธ	-11050
▁AUDIO	-11051
▁Boost	-11052
▁พาร์ค	-11053
▁มือใหม่	-11054
▁บังกลาเทศ	-11055
▁หลักทรัพย์	-11056
68	-11057
▁ิ	-11058
PON	-11059
คา่	-11060
น่า	-11061
ุติ	-11062
▁GT	-11063
▁นย	-11064
IPSE	-11065
ายาง	-11066
▁เปป	-11067
ement	-11068
▁Fran	-11069
▁คั้น	-11070
▁ตุ๋น	-11071
▁อรรถ	-11072
▁Treat	-11073
▁วาล์ว	-11074
▁เจนต์	-11075
▁กีตาร์	-11076
▁จัดสรร	-11077
▁ตรายาง	-11078
▁ผจญภัย	-11079
▁ชื่อดัง	-11080
▁ปริมาตร	-11081
▁คัตเตอร์	-11082
KI	-11083
IFI	-11084
ขวา	-11085
ดัก	-11086
แก้ว	-11087
▁Cre	-11088
▁ECL	-11089
▁ศาส	-11090
▁เคิล	-11091
▁นอร์ท	-11092
▁วิทยา	-11093
▁Philips	-11094
▁ผ้าม่าน	-11095
▁ขั้นต่ํา	-11096
▁Climalite	-11097
▁การแถลงข่าว	-11098
▁มาตรฐานสากล	-11099
ll	-11100
รุก	-11101
▁1960	-11102
▁ถูกใจ	-11103
▁เชียง	-11104
▁ค่าเช่า	-11105
▁ทําเป็น	-11106
▁ครึ่งทาง	-11107
▁มีคุณค่า	-11108
▁งานเลี้ยง	-11109
▁เพราะฉะนั้น	-11110
ยศ	-11111
QoQ	-11112
ถอย	-11113
▁Sn	-11114
▁001	-11115
ิสถาน	-11116
แคล่ว	-11117
เปลือก	-11118
▁GLASS	-11119
▁micro	-11120
▁ดีเซล	-11121
▁ยักษ์	-11122
▁บอสตัน	-11123
▁กองเรือ	-11124
▁งานฝีมือ	-11125
▁เป็นสําคัญ	-11126
▁เครื่องปรุง	-11127
▁ผู้เสียชีวิต	-11128
BAN	-11129
rom	-11130
แร่	-11131
▁"(	-11132
▁ปท	-11133
PPLE	-11134
ized	-11135
ิบัญ	-11136
▁720	-11137
▁หมอ	-11138
▁แจก	-11139
BLOOM	-11140
phone	-11141
กําไร	-11142
▁2545	-11143
▁เบิล	-11144
▁เบีย	-11145
verter	-11146
ิบัญญัติ	-11147
เดินเรือ	-11148
▁ย่อหน้า	-11149
▁รอยยิ้ม	-11150
▁สัปปะรด	-11151
▁เมื่อคืน	-11152
▁ยิ่งไปกว่านั้น	-11153
2)	-11154
FI	-11155
Sh	-11156
๎ย	-11157
bps	-11158
ยอง	-11159
▁ra	-11160
oint	-11161
ทธิ์	-11162
▁COP	-11163
▁ริน	-11164
หลงใหล	-11165
เมี่ยม	-11166
▁เหม็น	-11167
▁Thermo	-11168
▁เมื่อย	-11169
▁เวลาปิด	-11170
▁น่าหลงใหล	-11171
่ด	-11172
ขวด	-11173
เบล	-11174
ster	-11175
หุ้ม	-11176
อยซ์	-11177
่มุก	-11178
▁PDF	-11179
▁แตง	-11180
เฟอร์	-11181
▁Nick	-11182
▁ฝนตก	-11183
▁COVER	-11184
▁GALAXY	-11185
▁ไข่มุก	-11186
▁น้ําส้ม	-11187
▁ออร์ก้า	-11188
▁เปราะบาง	-11189
▁ความเป็นจริง	-11190
gr	-11191
fal	-11192
▁or	-11193
พลัน	-11194
▁BTU	-11195
▁Cam	-11196
▁Rou	-11197
▁ดัต	-11198
ผลให๎	-11199
▁หยัก	-11200
▁อดใจ	-11201
เบิลยู	-11202
▁กลับด้าน	-11203
ka	-11204
PRO	-11205
▁Sm	-11206
▁oil	-11207
▁ยาส	-11208
▁ริบ	-11209
เทอร์	-11210
▁NEXT	-11211
▁Slip	-11212
▁รถบัส	-11213
▁แทร็ก	-11214
▁ร้อนใน	-11215
▁หลบหนี	-11216
▁แกลลอน	-11217
▁MELISSA	-11218
▁อภิปราย	-11219
▁ออร์แกน	-11220
▁ไฟฟ้าสถิต	-11221
▁เอสเพรสโซ่	-11222
กั	-11223
สิ	-11224
นัย	-11225
ศัก	-11226
เท่	-11227
บนัส	-11228
เลย์	-11229
▁ช่อ	-11230
▁อาว	-11231
▁เนป	-11232
▁ไขว	-11233
▁DOUG	-11234
▁สตัน	-11235
▁อาสา	-11236
▁ELECT	-11237
▁ทันใจ	-11238
▁หลอกลวง	-11239
▁ทิวทัศน์	-11240
▁ปรากฏตัว	-11241
▁ความไม่แน่นอน	-11242
QUE	-11243
SET	-11244
VES	-11245
key	-11246
ซัส	-11247
ไล้	-11248
▁ไช	-11249
umin	-11250
▁CAN	-11251
▁Har	-11252
▁ดิส	-11253
▁ปฐม	-11254
▁การข	-11255
▁ข่วน	-11256
ั่วไหล	-11257
▁ลูบไล้	-11258
▁ขัดขวาง	-11259
▁ความเท่	-11260
▁ภาษาจีน	-11261
▁ภูมิแพ้	-11262
▁หัวแหลม	-11263
▁การรั่วไหล	-11264
▁ตระหนักถึง	-11265
ฤก	-11266
ออ	-11267
▁ID	-11268
▁KI	-11269
ซึ่ง	-11270
▁Bea	-11271
▁Ver	-11272
ดิสก์	-11273
ทดแทน	-11274
ือรือ	-11275
▁Sing	-11276
กระบอก	-11277
▁นอร์ธ	-11278
▁เยิ้ม	-11279
▁แบงค์	-11280
▁802.11	-11281
▁Chrome	-11282
▁ดีแล้ว	-11283
▁รณรงค์	-11284
▁แคนนอน	-11285
▁เป็นประกาย	-11286
ตอ	-11287
ล้อ	-11288
แยะ	-11289
เจีย	-11290
▁):4	-11291
▁ธีม	-11292
Black	-11293
QUIRE	-11294
▁Nikon	-11295
▁ของมี	-11296
▁ปัญญา	-11297
▁มีเงิน	-11298
▁หน้าตา	-11299
▁เหยียบ	-11300
▁ไมเคิล	-11301
▁คุณประโยชน์	-11302
de	-11303
RIG	-11304
ตาร	-11305
แปร	-11306
▁SR	-11307
▁111	-11308
▁9.7	-11309
▁CAS	-11310
▁ฟอร	-11311
▁ฟิช	-11312
oroll	-11313
แกเรีย	-11314
▁Laser	-11315
▁ฟิวส์	-11316
▁เซนส์	-11317
▁โบนัส	-11318
▁ปรัชญา	-11319
▁Cushion	-11320
▁ECLIPSE	-11321
▁Spandex	-11322
▁ทางรถไฟ	-11323
▁โภชนาการ	-11324
▁โรเบิร์ต	-11325
▁Cleansing	-11326
▁นัยสําคัญ	-11327
▁บัลแกเรีย	-11328
▁ประสบปัญหา	-11329
▁ฮาร์ดดิสก์	-11330
▁Pa	-11331
อลิก	-11332
▁อัย	-11333
OSEPH	-11334
ตินิยม	-11335
สูงสุด	-11336
▁FEATUR	-11337
▁JOSEPH	-11338
เติมเต็ม	-11339
▁SAMSUNG	-11340
▁ความถูก	-11341
▁ลงคะแนน	-11342
▁ลุกขึ้น	-11343
▁จอร์เจีย	-11344
▁เปลืองเงิน	-11345
▁เอนกประสงค์	-11346
ky	-11347
คิ	-11348
fess	-11349
ปปี้	-11350
าล่ะ	-11351
▁9.2	-11352
▁KEY	-11353
▁นีน	-11354
▁รัม	-11355
คร้าย	-11356
▁inch	-11357
เวิร์ด	-11358
▁Clear	-11359
▁Rental	-11360
▁ซีซั่น	-11361
▁วิญญาณ	-11362
▁แฮปปี้	-11363
▁WINDOWS	-11364
▁กินเวลา	-11365
▁ตัดแต่ง	-11366
▁พึงพอใจ	-11367
▁หนาแน่น	-11368
▁เต็มตัว	-11369
▁คุณผู้ชาย	-11370
▁บทบัญญัติ	-11371
▁ภูมิทัศน์	-11372
▁Cinnamoroll	-11373
▁สนามแม่เหล็ก	-11374
▁เสียค่าใช้จ่าย	-11375
||	-11376
600	-11377
INA	-11378
ตาก	-11379
▁05	-11380
▁ยง	-11381
izer	-11382
sion	-11383
หล่น	-11384
▁330	-11385
▁Saf	-11386
▁Sur	-11387
▁๎อง	-11388
▁27.5	-11389
▁ขวาง	-11390
▁แบ็ค	-11391
ประกาศ	-11392
▁Office	-11393
▁ต้องหา	-11394
▁ผ้าพัน	-11395
▁มูฟวี่	-11396
▁รัดรูป	-11397
▁ESQUIRE	-11398
▁ล้าสมัย	-11399
▁เรตติ้ง	-11400
▁ตัวเมือง	-11401
▁ร่วงหล่น	-11402
▁ไฮโดรเจน	-11403
▁กลางเมือง	-11404
▁ทรงกระบอก	-11405
▁พระราชวัง	-11406
▁เหลือเกิน	-11407
▁ดาราศาสตร์	-11408
,4	-11409
82	-11410
หิต	-11411
อิน	-11412
๊อค	-11413
▁Ev	-11414
▁JR	-11415
work	-11416
▁ทิช	-11417
▁เลค	-11418
▁AUTO	-11419
▁คอนเส	-11420
▁RESPON	-11421
▁ทวิภาคี	-11422
▁ระบายสี	-11423
▁ความมุ่ง	-11424
▁คําศัพท์	-11425
▁ชีวิตจริง	-11426
▁เล่าเรื่อง	-11427
COM	-11428
นุม	-11429
ฮัท	-11430
โหล	-11431
▁Ge	-11432
LESS	-11433
ธุรก	-11434
▁Non	-11435
▁คลอ	-11436
▁อ้อ	-11437
▁แปะ	-11438
erman	-11439
เยือน	-11440
ํานาญ	-11441
▁Care	-11442
▁MODE	-11443
ธุรกิจ	-11444
แกงลิง	-11445
▁Flash	-11446
▁ชีพจร	-11447
▁ไวนิล	-11448
iversal	-11449
▁คัดลอก	-11450
▁ชุมนุม	-11451
▁รอยแตก	-11452
▁สังหาร	-11453
▁เผชิญหน้า	-11454
),	-11455
hy	-11456
its	-11457
len	-11458
▁PT	-11459
▁ขด	-11460
▁ฟร	-11461
ycra	-11462
าร์ต	-11463
▁30.5	-11464
▁Life	-11465
▁ชนบท	-11466
▁นาซี	-11467
▁PHASE	-11468
จักรยาน	-11469
ออกไซด์	-11470
▁ยอมให้	-11471
▁เอาล่ะ	-11472
▁การเจาะ	-11473
▁รเมี่ยม	-11474
▁แนบสนิท	-11475
▁โชคร้าย	-11476
▁อารมณ์ขัน	-11477
▁ผ้าเช็ดตัว	-11478
pr	-11479
:30	-11480
URE	-11481
นึง	-11482
▁MU	-11483
ิคอป	-11484
▁คีม	-11485
▁เวอ	-11486
▁โดะ	-11487
ender	-11488
▁Waco	-11489
▁ท่วง	-11490
entral	-11491
▁SUPER	-11492
▁TECHN	-11493
▁Adidas	-11494
▁OUTPUT	-11495
▁จักรวาล	-11496
▁เฮลิคอป	-11497
▁แรกเกิด	-11498
▁ผู้ขับขี่	-11499
▁มนุษยธรรม	-11500
▁การอาบน้ํา	-11501
▁เฮลิคอปเตอร์	-11502
Pl	-11503
TO	-11504
UX	-11505
ger	-11506
ซาน	-11507
▁cl	-11508
▁ชะ	-11509
▁วก	-11510
ATCH	-11511
RAPH	-11512
▁ทิป	-11513
▁เบร	-11514
▁Cont	-11515
▁Screen	-11516
▁เกียร์	-11517
▁ของหวาน	-11518
▁ซักล้าง	-11519
รัฐธรรมนูญ	-11520
▁แสงอาทิตย์	-11521
63	-11522
RAM	-11523
time	-11524
▁Bel	-11525
▁End	-11526
▁วอน	-11527
▁เพา	-11528
บัญชา	-11529
▁1988	-11530
▁Pack	-11531
▁นิดนึง	-11532
▁เพนซิล	-11533
▁แต่วัน	-11534
ข้าวหม้อ	-11535
▁การทราบ	-11536
▁พรีเมียร์	-11537
▁เพื่อนร่วม	-11538
ข้าวหม้อแกงลิง	-11539
คี	-11540
.20	-11541
บุญ	-11542
อาร	-11543
เนต	-11544
▁CA	-11545
▁Base	-11546
▁เร้า	-11547
▁ศัพท์	-11548
▁ไว้ใจ	-11549
▁Wacoal	-11550
▁ต่างหู	-11551
▁วาดภาพ	-11552
▁ความยาก	-11553
▁ถ่านหิน	-11554
▁อนุรักษ์	-11555
▁คอนเสิร์ต	-11556
ร้น	-11557
ลี่	-11558
▁ล์	-11559
มิโน	-11560
▁Rep	-11561
▁ลัด	-11562
▁เวต	-11563
▁1500	-11564
▁1984	-11565
▁เลขา	-11566
▁Perfect	-11567
▁ความกลัว	-11568
▁น้ําดื่ม	-11569
▁น้ําสะอาด	-11570
▁ค่อนข้างจะ	-11571
▁ทางตะวันตก	-11572
▁ยกตัวอย่างเช่น	-11573
62	-11574
วา	-11575
ety	-11576
uty	-11577
ผล่	-11578
๊อบ	-11579
ames	-11580
▁ตีน	-11581
▁ฝูง	-11582
acool	-11583
สนเทศ	-11584
▁SENS	-11585
▁หมัก	-11586
▁โผล่	-11587
▁ไทมส์	-11588
▁วิลล่า	-11589
▁วุฒิสภา	-11590
โทรทรรศน์	-11591
▁เวนเดอร์	-11592
▁ความตั้งใจ	-11593
▁ผู้พิพากษา	-11594
▁วิวัฒนาการ	-11595
▁เอสเปรสโซ่	-11596
Pr	-11597
NEY	-11598
ates	-11599
ting	-11600
▁SIL	-11601
▁TRI	-11602
▁เรท	-11603
▁โด่ง	-11604
▁ถึงว่า	-11605
▁เห็นชอบ	-11606
▁ผ้าพันคอ	-11607
OGY	-11608
ปืน	-11609
เรก	-11610
▁ก่	-11611
▁อัม	-11612
▁โระ	-11613
aster	-11614
▁20.5	-11615
▁Plug	-11616
▁สเปก	-11617
ประสาท	-11618
▁วางใจ	-11619
▁นับถือ	-11620
▁ส่งต่อ	-11621
▁ล้างจาน	-11622
▁เข้าใจง่าย	-11623
ze	-11624
บู	-11625
.45	-11626
ati	-11627
▁สศ	-11628
ตาซี	-11629
▁BAT	-11630
ลาเจน	-11631
▁35.5	-11632
▁ควีน	-11633
▁เฝ้า	-11634
ภายนอก	-11635
▁FedEx	-11636
▁บล็อค	-11637
▁แฟนซี	-11638
▁ซอมบี้	-11639
▁กองทหาร	-11640
▁ชาเขียว	-11641
▁แฟนตาซี	-11642
▁คอลลาเจน	-11643
▁Treatment	-11644
▁การขับขี่	-11645
▁รถจักรยาน	-11646
▁อันที่จริง	-11647
▁ความตื่นเต้น	-11648
▁กล้องโทรทรรศน์	-11649
.80	-11650
ุโส	-11651
▁ธา	-11652
OLBY	-11653
OUCH	-11654
รอ๎ย	-11655
▁รฐั	-11656
▁บ็อบ	-11657
ัดเลือก	-11658
แบบฉบับ	-11659
▁เงินตรา	-11660
▁เพอร์เฟค	-11661
▁เนื้อเพลง	-11662
▁ตามแบบฉบับ	-11663
▁การคัดเลือก	-11664
▁เอเชียนเกมส์	-11665
Yo	-11666
att	-11667
ense	-11668
▁107	-11669
▁Rel	-11670
▁เฟส	-11671
BOARD	-11672
PLING	-11673
▁อวัย	-11674
▁แคร์	-11675
สุดยอด	-11676
▁BOBBI	-11677
▁ผู้ชนะ	-11678
ตราจารย์	-11679
ือรือร้น	-11680
▁Complex	-11681
▁เข้าคู่	-11682
▁Thailand	-11683
▁บูรณาการ	-11684
▁น้ําเชื่อม	-11685
▁ความพึงพอใจ	-11686
▁กระตือรือร้น	-11687
ถม	-11688
บอ	-11689
▁:3	-11690
▁TN	-11691
▁ถด	-11692
....	-11693
▁9.0	-11694
▁Fuj	-11695
▁Pod	-11696
▁Van	-11697
▁จ่ะ	-11698
berry	-11699
▁HIGH	-11700
▁Mode	-11701
▁พานา	-11702
ขณะที่	-11703
▁บ่อยๆ	-11704
ซ่อมแซม	-11705
▁ข้างบน	-11706
▁อวัยวะ	-11707
▁เรือรบ	-11708
▁ความตาย	-11709
▁ภัยแล้ง	-11710
▁การบังคับใช้	-11711
▁ความวิตกกังวล	-11712
72	-11713
83	-11714
:1	-11715
Fit	-11716
TLE	-11717
oot	-11718
จ๊ะ	-11719
นัล	-11720
▁(50	-11721
▁ฟลู	-11722
▁10.1	-11723
▁คั่ว	-11724
▁นะจ๊ะ	-11725
▁ระยิบ	-11726
▁Premium	-11727
▁เรื่องตลก	-11728
▁โครเอเชีย	-11729
▁Protection	-11730
นนิ	-11731
▁Ke	-11732
▁ค่	-11733
ange	-11734
วกัส	-11735
▁สศช	-11736
▁แบก	-11737
▁1970	-11738
▁Dark	-11739
▁ทะลุ	-11740
▁เผ่า	-11741
▁Tefal	-11742
▁ดัตช์	-11743
▁วิสัย	-11744
นนิบัติ	-11745
▁ความถูกต้อง	-11746
erm	-11747
▁งิ	-11748
▁ธี	-11749
▁่ง	-11750
▁นิช	-11751
▁บาก	-11752
▁บิก	-11753
▁Fuse	-11754
▁Part	-11755
▁ฝีมือ	-11756
▁จองแล้ว	-11757
▁ความตกลง	-11758
▁แรงจูงใจ	-11759
▁นิวเคลียส	-11760
▁ภาพลักษณ์	-11761
▁Technology	-11762
▁การซ่อมแซม	-11763
uss	-11764
▁HR	-11765
ําระ	-11766
▁MON	-11767
▁USA	-11768
▁เนส	-11769
under	-11770
กอล์ฟ	-11771
ลงนาม	-11772
นิรภัย	-11773
ประเภท	-11774
▁ดีฉัน	-11775
▁เทือก	-11776
▁ลําบาก	-11777
▁กราฟฟิก	-11778
▁คัดค้าน	-11779
▁ภาษาไทย	-11780
▁วิชาการ	-11781
▁โซเดียม	-11782
▁ออร์แกนิก	-11783
▁เป็นส่วนใหญ่	-11784
▁ความเคลื่อนไหว	-11785
wood	-11786
▁มุส	-11787
▁ลัน	-11788
▁เชน	-11789
ระยับ	-11790
▁HARD	-11791
▁Inst	-11792
▁ค้ํา	-11793
▁สยอง	-11794
▁เครา	-11795
▁แวร์	-11796
▁เวลส์	-11797
▁รําคาญ	-11798
▁สมมุติ	-11799
▁แล้วไป	-11800
▁ระเบียบ	-11801
▁สมูทตี้	-11802
▁ทางเหนือ	-11803
▁ระยิบระยับ	-11804
๋อ	-11805
.40	-11806
NAL	-11807
OLD	-11808
ทยา	-11809
▁Fi	-11810
illa	-11811
peed	-11812
▁IND	-11813
▁กลบ	-11814
▁ฟูจิ	-11815
▁ฟู้ด	-11816
▁ร็อก	-11817
▁ลาร์	-11818
▁ล่อน	-11819
ขนมปัง	-11820
▁Index	-11821
▁กดดัน	-11822
▁อีสต์	-11823
▁เดวิด	-11824
▁เอกซ์	-11825
เหตุนี้	-11826
▁ความปร	-11827
▁ฉะนั้น	-11828
▁เหงือก	-11829
▁KIPLING	-11830
▁คอนกรีต	-11831
▁หน้าท้อง	-11832
▁พิซซ่าฮัท	-11833
▁อินเตอร์เน็ต	-11834
▁เป็นที่ยอมรับ	-11835
VA	-11836
ทิส	-11837
ร์ก	-11838
▁al	-11839
FACE	-11840
นยาว	-11841
▁Mir	-11842
▁พิน	-11843
▁มวย	-11844
▁ลาม	-11845
สร๎าง	-11846
▁Navy	-11847
▁ใครๆ	-11848
จันทร์	-11849
แขนยาว	-11850
▁Brown	-11851
▁นายพล	-11852
▁สว่าน	-11853
▁เกล็ด	-11854
▁เดสก์	-11855
หัวเราะ	-11856
▁Nickel	-11857
▁เชียร์	-11858
▁ความอดทน	-11859
▁ห้องเรียน	-11860
▁เงินลงทุน	-11861
▁ชี้ให้เห็น	-11862
▁การเดินเรือ	-11863
▁ความเจ็บปวด	-11864
▁อุปกรณ์ไฟฟ้า	-11865
Fl	-11866
ปฏ	-11867
อิ	-11868
นาง	-11869
AKER	-11870
ount	-11871
นานา	-11872
▁320	-11873
▁MER	-11874
▁Dell	-11875
▁กวาด	-11876
▁รถแท	-11877
▁เนปาล	-11878
เปเปอร์	-11879
▁Natural	-11880
▁กลับคืน	-11881
▁ต่อหน้า	-11882
▁บางแห่ง	-11883
▁ล่มสลาย	-11884
▁แบ่งแยก	-11885
fessional	-11886
▁มุ่งหน้า	-11887
▁ดาวเคราะห์	-11888
▁รถไฟใต้ดิน	-11889
▁ชั่งน้ําหนัก	-11890
▁เตารีดไอน้ํา	-11891
61	-11892
INK	-11893
MER	-11894
สอน	-11895
ีนา	-11896
▁ขี	-11897
ซ่อน	-11898
ราว์	-11899
ีม่า	-11900
เซโล	-11901
▁8.8	-11902
▁กบฏ	-11903
▁ขนาน	-11904
▁ฟ้อง	-11905
▁อัยการ	-11906
▁เบราว์	-11907
▁CONTROL	-11908
▁ยุทธการ	-11909
▁เงินได้	-11910
▁กระดาษสี	-11911
▁กัดกร่อน	-11912
▁บาร์เซโล	-11913
▁สํงผลให๎	-11914
ปิ้งขนมปัง	-11915
▁ผู้กํากับ	-11916
▁เบราว์เซอร์	-11917
▁เสื้อแขนยาว	-11918
▁ความมุ่งมั่น	-11919
ดั	-11920
YoY	-11921
oli	-11922
zer	-11923
เบน	-11924
▁2,	-11925
▁OPT	-11926
▁..."	-11927
▁BLUE	-11928
▁Stra	-11929
▁หาทาง	-11930
▁ผู้สูง	-11931
นานาชาติ	-11932
▁บอกเล่า	-11933
▁พริกไทย	-11934
▁Lipstick	-11935
▁แอพพลิเค	-11936
▁ผู้ก่อการร้าย	-11937
ศุ	-11938
ENG	-11939
นิก	-11940
▁:4	-11941
ทารก	-11942
▁จอน	-11943
▁กะทิ	-11944
▁เผ็ด	-11945
▁ไขว้	-11946
ปะการัง	-11947
▁มิดชิด	-11948
▁สิ่งทอ	-11949
▁เวิลด์	-11950
▁โต้ตอบ	-11951
▁ความฝัน	-11952
▁ตามเวลา	-11953
▁พ่ายแพ้	-11954
▁แทรกแซง	-11955
▁เพาเวอร์	-11956
▁ปรากฏการณ์	-11957
▁อิเล็กตรอน	-11958
▁เหนื่อยล้า	-11959
▁ระดับนานาชาติ	-11960
NET	-11961
oop	-11962
oto	-11963
▁Mr	-11964
▁fl	-11965
▁us	-11966
▁ต๎	-11967
▁ติก	-11968
▁ลิม	-11969
OLOGY	-11970
▁1972	-11971
▁ORIG	-11972
▁PIEC	-11973
▁Pale	-11974
▁ม่อน	-11975
INIQUE	-11976
▁เท่ห์	-11977
ต้อนรับ	-11978
ล้มเหลว	-11979
ไม่เห็น	-11980
▁DISNEY	-11981
▁ค้าส่ง	-11982
▁ผ้าลาย	-11983
ตั้งโต๊ะ	-11984
ัมพันธมิตร	-11985
เซอร์แลนด์	-11986
▁ชั้นวางของ	-11987
▁สวิตเซอร์แลนด์	-11988
69	-11989
ติค	-11990
่มข	-11991
▁ธร	-11992
wire	-11993
รภาพ	-11994
▁LIF	-11995
▁ตับ	-11996
▁บัฟ	-11997
▁ผู๎	-11998
หายใจ	-11999
เสาร์	-12000
▁Amer	-12001
▁mini	-12002
▁คลอง	-12003
▁บรอด	-12004
▁เทอะ	-12005
▁เรย์	-12006
รับเงิน	-12007
▁สวรรค์	-12008
▁กูเกิ้ล	-12009
▁เป็นคุณ	-12010
ิสัมพันธ์	-12011
▁ทาวเวอร์	-12012
▁มีความหวัง	-12013
▁ความล้มเหลว	-12014
▁เครื่องเสียง	-12015
84	-12016
ฤด	-12017
16)	-12018
กต์	-12019
มุข	-12020
านุ	-12021
เลน	-12022
ไห้	-12023
คั่ง	-12024
▁145	-12025
▁Cut	-12026
▁Fre	-12027
▁Lum	-12028
▁ลู่	-12029
▁วาว	-12030
round	-12031
าชการ	-12032
▁/100	-12033
▁สาวก	-12034
สังเกต	-12035
สัมผัส	-12036
▁ตํารา	-12037
▁ลูกหนี้	-12038
▁มองไม่เห็น	-12039
▁แนวปะการัง	-12040
6)	-12041
งด	-12042
RAD	-12043
มิน	-12044
โรย	-12045
▁co	-12046
▁กง	-12047
▁ยอ	-12048
lend	-12049
▁Tur	-12050
▁พลา	-12051
โซนิค	-12052
▁จิตร	-12053
จดหมาย	-12054
▁Orange	-12055
▁ขายส่ง	-12056
▁ประมุข	-12057
▁ANDROID	-12058
▁คอมเพรส	-12059
▁เอาหน้า	-12060
▁โด่งดัง	-12061
▁ไหลผ่าน	-12062
▁บังคับใช้	-12063
▁ภูมิอากาศ	-12064
▁การผ่อนคลาย	-12065
▁กล้องถ่ายรูป	-12066
▁คอมเพรสเซอร์	-12067
▁ใบเสร็จรับเงิน	-12068
4/	-12069
รต	-12070
ํง	-12071
BER	-12072
LUX	-12073
เปร	-12074
โกน	-12075
ย่อย	-12076
แหวน	-12077
▁Bur	-12078
▁Easy	-12079
▁PIECES	-12080
▁ขี้เกียจ	-12081
▁ระวางโทษ	-12082
▁เจ้าหนี้	-12083
▁เทือกเขา	-12084
▁พานาโซนิค	-12085
▁กางเกงว่ายน้ํา	-12086
ศพ	-12087
ยุค	-12088
iana	-12089
otor	-12090
คุ้ม	-12091
เรย์	-12092
▁MFC	-12093
▁ยุบ	-12094
▁วาม	-12095
▁เนต	-12096
คาไลน์	-12097
▁Sports	-12098
▁ตีความ	-12099
▁บรรทุก	-12100
▁แรงดูด	-12101
▁ความชอบ	-12102
▁ท้องฟ้า	-12103
▁แฮร์รี่	-12104
▁โดยเร็ว	-12105
▁สยองขวัญ	-12106
▁เข้มแข็ง	-12107
▁เด็กทารก	-12108
▁เมื่อกี้	-12109
▁การระเบิด	-12110
▁อัลคาไลน์	-12111
เซน	-12112
▁Du	-12113
กวาด	-12114
สตรี	-12115
ห่วง	-12116
▁RGB	-12117
▁ฝ้า	-12118
ระลึก	-12119
▁HEAD	-12120
▁ค้าน	-12121
▁1,000	-12122
▁Stick	-12123
▁คนไข้	-12124
▁พบกัน	-12125
▁การกู้	-12126
▁ปรึกษา	-12127
▁อรรถรส	-12128
▁เบี่ยง	-12129
▁กาลเวลา	-12130
ช่วยเหลือ	-12131
▁มุ่งมั่น	-12132
▁อินเทรนด์	-12133
EI	-12134
ATA	-12135
emy	-12136
ness	-12137
▁185	-12138
▁TAX	-12139
▁อิท	-12140
▁เบอ	-12141
▁เมต	-12142
▁Case	-12143
▁พัทยา	-12144
▁เอาต์	-12145
▁ถ้าหาก	-12146
▁เทอะทะ	-12147
▁CLINIQUE	-12148
▁ภาคเหนือ	-12149
▁ศักดิ์สิทธิ์	-12150
▁ความประหลาดใจ	-12151
TA	-12152
▁ใต	-12153
line	-12154
อ้าง	-12155
▁Def	-12156
▁บุช	-12157
▁แอด	-12158
ยุโรป	-12159
ี้ภัย	-12160
เวเนีย	-12161
▁คลั่ง	-12162
▁คิงส์	-12163
▁ฟอร์ม	-12164
▁เพลิน	-12165
▁เยี่ย	-12166
ชื่นชอบ	-12167
▁ศาสตร์	-12168
▁จัดเรียง	-12169
▁กฎระเบียบ	-12170
▁TECHNOLOGY	-12171
▁เป็นที่ชื่นชอบ	-12172
คิน	-12173
เซส	-12174
▁อค	-12175
▁BRA	-12176
▁Sch	-12177
▁ยาย	-12178
▁โฉม	-12179
▁Scan	-12180
▁นู้ด	-12181
▁ป้อม	-12182
▁เกิล	-12183
tional	-12184
ฟเฟอร์	-12185
▁DRIVE	-12186
▁การสึก	-12187
▁ตรงนี้	-12188
▁ช่วงแรก	-12189
▁ทะเบียน	-12190
▁แม่บ้าน	-12191
▁เอ็ดเวิร์ด	-12192
ifi	-12193
ฆ่า	-12194
ดบั	-12195
บรม	-12196
▁EF	-12197
▁โห	-12198
▁์ส	-12199
REQU	-12200
ella	-12201
ผลัก	-12202
▁MAH	-12203
▁Pur	-12204
▁พนั	-12205
▁ลเล	-12206
▁อิฐ	-12207
inger	-12208
ดาร์ด	-12209
ฟเฟิล	-12210
▁37.5	-12211
▁เหลว	-12212
กระเป๋า	-12213
ปลายทาง	-12214
ศุสัตว์	-12215
ื่อข่าว	-12216
▁สวิทช์	-12217
▁ข้างต้น	-12218
▁ให้น้ํา	-12219
▁จิตวิทยา	-12220
▁ศัตรูพืช	-12221
▁อาทิเช่น	-12222
▁คําบรรยาย	-12223
▁สแตนดาร์ด	-12224
▁เตรียมการ	-12225
▁ยุทโธปกรณ์	-12226
▁อิมพอร์ตส์	-12227
KEY	-12228
กาน	-12229
▁GP	-12230
▁HS	-12231
▁oz	-12232
สาวะ	-12233
▁ดบั	-12234
ทุกข์	-12235
▁29.5	-12236
▁สมใน	-12237
ัสสาวะ	-12238
▁ํางตํอ	-12239
▁ผู้เข้า	-12240
▁หมดอายุ	-12241
▁การลงนาม	-12242
▁Climacool	-12243
▁ตั้งครรภ์	-12244
▁ข้อเสนอแนะ	-12245
▁ผู้สื่อข่าว	-12246
andy	-12247
ency	-12248
quid	-12249
คทีฟ	-12250
หล่อ	-12251
▁TSA	-12252
▁บอย	-12253
▁บัด	-12254
▁หีบ	-12255
▁โตะ	-12256
วิเศษ	-12257
▁10.6	-12258
▁Core	-12259
WOOFER	-12260
▁(916)	-12261
▁Sound	-12262
▁ตามหา	-12263
▁ใช้บน	-12264
▁เอ็กส์	-12265
▁แอคทีฟ	-12266
▁ข้ามคืน	-12267
▁ริชาร์ด	-12268
▁ร้องไห้	-12269
▁วุ่นวาย	-12270
▁ทางกายภาพ	-12271
▁ปริมาณมาก	-12272
▁สุขอนามัย	-12273
▁จุดหมายปลายทาง	-12274
Fos	-12275
eral	-12276
lock	-12277
ร่วง	-12278
ไฟล์	-12279
▁มีต	-12280
▁โพล	-12281
▁ไมํ	-12282
RIDGE	-12283
เอียง	-12284
▁1998	-12285
▁Side	-12286
กระโปรง	-12287
▁จิตรกร	-12288
▁สายพาน	-12289
▁จําเพาะ	-12290
▁น่าแปลก	-12291
▁ในขณะนั้น	-12292
▁ความมีชีวิต	-12293
the	-12294
กุฎ	-12295
▁ถก	-12296
▁รก	-12297
่น้ํา	-12298
▁38.5	-12299
▁ย้ํา	-12300
▁Drive	-12301
▁บรูไน	-12302
▁ฟอยล์	-12303
▁มังกร	-12304
▁ให้นม	-12305
REQUENC	-12306
ainless	-12307
▁ความสงบ	-12308
▁ร่วงโรย	-12309
▁มาสเตอร์	-12310
▁แต่เพียง	-12311
▁ซื่อสัตย์	-12312
ige	-12313
ขุย	-12314
จนจบ	-12315
ารุส	-12316
▁7.4	-12317
▁BEN	-12318
▁ION	-12319
▁Mov	-12320
▁SUR	-12321
▁เดท	-12322
เถียง	-12323
เวนิว	-12324
▁1600	-12325
▁ไดโน	-12326
▁Inter	-12327
ผู้ใหญ่	-12328
▁Energy	-12329
▁LITTLE	-12330
▁วงแหวน	-12331
▁อเวนิว	-12332
▁งานแต่ง	-12333
▁ช่วงนี้	-12334
▁ผู้ต้อง	-12335
▁เป็นขุย	-12336
▁ซึมเศร้า	-12337
▁เลียนแบบ	-12338
▁ไดโนเสาร์	-12339
▁แต่ต้นจนจบ	-12340
▁โดยส่วนใหญ่	-12341
ACC	-12342
URA	-12343
rag	-12344
มนา	-12345
เวต	-12346
▁Win	-12347
▁ง่า	-12348
▁ฮัล	-12349
ตร้อน	-12350
ุกรรม	-12351
▁เทรด	-12352
จํานวน	-12353
ที่สาม	-12354
▁บริบท	-12355
▁วิหาร	-12356
▁ําหนด	-12357
พลาสติก	-12358
▁คลินิก	-12359
▁พลาซ่า	-12360
▁เท่าใด	-12361
▁เปลือย	-12362
▁ล้างมือ	-12363
▁วงดนตรี	-12364
▁เขตร้อน	-12365
▁เคเบิ้ล	-12366
▁เบลารุส	-12367
▁สิ้นเชิง	-12368
▁โภคภัณฑ์	-12369
▁แบบจําลอง	-12370
▁ศาสนาคริสต์	-12371
ICA	-12372
off	-12373
▁ตบ	-12374
พราง	-12375
▁7.7	-12376
board	-12377
ั้นมา	-12378
▁28.5	-12379
▁FUSE	-12380
▁YVES	-12381
▁ระบาด	-12382
▁สําลี	-12383
▁โกโก้	-12384
▁ความคล	-12385
▁บริจาค	-12386
▁รับฟัง	-12387
▁สอบสวน	-12388
เข้ารหัส	-12389
▁วัยเด็ก	-12390
▁อําพราง	-12391
▁เป็นได้	-12392
แต่นั้นมา	-12393
▁วิลเลียม	-12394
▁หนาวเย็น	-12395
ca	-12396
GHT	-12397
IAL	-12398
ISU	-12399
ana	-12400
ars	-12401
ily	-12402
row	-12403
ump	-12404
รณ์	-12405
▁DW	-12406
▁KX	-12407
▁7.9	-12408
▁BRI	-12409
ปัญญา	-12410
ียวโต	-12411
▁cFos	-12412
▁ทํอง	-12413
▁นานๆ	-12414
▁ราชา	-12415
▁ไซร้	-12416
------	-12417
▁มารดา	-12418
▁ลงโทษ	-12419
▁ต้นแบบ	-12420
▁ผันผวน	-12421
▁อาวุโส	-12422
▁ล้อมรอบ	-12423
▁สั่งการ	-12424
▁หนี้สิน	-12425
▁เกียวโต	-12426
▁อนุสัญญา	-12427
เนื่องมาจาก	-12428
▁ผู้สูงอายุ	-12429
▁อิตาเลี่ยน	-12430
▁การเข้ารหัส	-12431
▁พลังงานไฟฟ้า	-12432
MM	-12433
elf	-12434
▁AH	-12435
▁Of	-12436
ถนอม	-12437
รูว์	-12438
▁Inf	-12439
▁RAW	-12440
enter	-12441
▁):12	-12442
▁NARS	-12443
▁มิลล	-12444
▁ไทเท	-12445
▁แซนด์	-12446
▁โอมาน	-12447
คุ้มกัน	-12448
▁THERMO	-12449
▁ควรค่า	-12450
▁ความเค	-12451
▁Flywire	-12452
▁เสาอากาศ	-12453
▁ไทเทเนียม	-12454
▁คุณภาพต่ํา	-12455
▁ชายกระโปรง	-12456
91	-12457
ซุ	-12458
asm	-12459
▁Cu	-12460
▁นว	-12461
▁เ่	-12462
ocus	-12463
ติกา	-12464
ปลอม	-12465
มะลิ	-12466
▁8.2	-12467
▁จั๊	-12468
▁สละ	-12469
EMPER	-12470
เหยิง	-12471
▁10.0	-12472
▁เอ้อ	-12473
▁EVISU	-12474
▁Rouge	-12475
▁หย่อน	-12476
▁เฮอร์	-12477
▁สวิตซ์	-12478
▁ทางเข้า	-12479
▁เน้นย้ํา	-12480
▁เหมาะมือ	-12481
▁แสนวิเศษ	-12482
▁เป้ากางเกง	-12483
cc	-12484
ั่	-12485
tor	-12486
▁ro	-12487
STAR	-12488
หมวด	-12489
▁Syn	-12490
▁นัน	-12491
▁ฟิก	-12492
▁สง่	-12493
allic	-12494
ิลิตร	-12495
▁FREE	-12496
▁ชว่ง	-12497
▁โคลน	-12498
cessor	-12499
▁กริลล์	-12500
▁มหาศาล	-12501
▁ทําซ้ํา	-12502
▁บกพร่อง	-12503
▁ปฏิวัติ	-12504
▁แอนดรูว์	-12505
▁มิลลิลิตร	-12506
▁ตั้งแต่นั้นมา	-12507
▁โดยทั่วไปแล้ว	-12508
▁อันเนื่องมาจาก	-12509
.)	-12510
92	-12511
WOR	-12512
อาย	-12513
enth	-12514
รีย์	-12515
▁NET	-12516
▁ล้น	-12517
▁วูด	-12518
บอเนต	-12519
เชอร์	-12520
▁Disk	-12521
▁SIZE	-12522
▁Wash	-12523
▁โจนส์	-12524
▁กระปุก	-12525
▁จากนี้	-12526
▁ใต้ดิน	-12527
▁สมรรถนะ	-12528
เพิม่ขึน้	-12529
▁ปศุสัตว์	-12530
▁ครั้งหน้า	-12531
▁คาปูชิโน่	-12532
▁สนามกอล์ฟ	-12533
▁อาสาสมัคร	-12534
▁เพอร์เฟ็กต์	-12535
▁ประชาสัมพันธ์	-12536
▁ปฏิบัติหน้าที่	-12537
▁ความมีชีวิตชีวา	-12538
LON	-12539
aby	-12540
ขณะ	-12541
ฉาก	-12542
ชัย	-12543
ตอม	-12544
วนา	-12545
เล่	-12546
▁ข๎	-12547
ITCH	-12548
MENT	-12549
TERY	-12550
▁9.1	-12551
▁เกะ	-12552
▁2563	-12553
▁เต่า	-12554
▁CHARG	-12555
▁ตัวดี	-12556
▁ปราณี	-12557
พิสูจน์	-12558
ระหว่าง	-12559
▁ออกงาน	-12560
ประดิษฐ์	-12561
หมวดหมู่	-12562
▁ช่างภาพ	-12563
▁น่าแปลกใจ	-12564
▁ชั้นเยี่ยม	-12565
ula	-12566
▁QU	-12567
▁Vo	-12568
▁สส	-12569
▁งอก	-12570
▁เรน	-12571
▁POLO	-12572
▁ท่อง	-12573
ASONIC	-12574
▁SHELF	-12575
▁คูเวต	-12576
▁ทเทิล	-12577
▁อะตอม	-12578
▁SIZING	-12579
▁จะแจ้ง	-12580
▁ลูกล้อ	-12581
▁ระดมทุน	-12582
▁การประมง	-12583
▁สาธารณสุข	-12584
เชื่อถือได้	-12585
▁วิสัยทัศน์	-12586
▁แพร่กระจาย	-12587
▁ทางธรรมชาติ	-12588
▁ภูมิคุ้มกัน	-12589
▁ที่เชื่อถือได้	-12590
Es	-12591
ko	-12592
ICE	-12593
ดูล	-12594
บิก	-12595
แถม	-12596
▁อณ	-12597
ินท์	-12598
▁Inc	-12599
▁Vel	-12600
ROUND	-12601
▁ขุ่น	-12602
ชีวภาพ	-12603
▁CABLE	-12604
▁ระคาย	-12605
▁Shower	-12606
▁สอบถาม	-12607
▁เฉี่ยว	-12608
ความร้อน	-12609
▁คราวนี้	-12610
▁คํามั่น	-12611
▁ตัวจริง	-12612
▁นายจ้าง	-12613
▁แต่ละบุคคล	-12614
▁ความจําเป็น	-12615
ยก	-12616
ย่อ	-12617
▁แวม	-12618
MICRO	-12619
▁ทั่วๆ	-12620
▁ปาร์ค	-12621
▁เนียม	-12622
▁โมดูล	-12623
▁Remote	-12624
▁Shadow	-12625
▁คิตตี้	-12626
เซสเซอร์	-12627
โทรทัศน์	-12628
▁ซึ่งกัน	-12629
ไดออกไซด์	-12630
▁ซึ่งกันและกัน	-12631
IV	-12632
Sp	-12633
ous	-12634
pon	-12635
พัง	-12636
ืบท	-12637
YEAR	-12638
ี่ย์	-12639
เอิญ	-12640
▁Dol	-12641
▁Her	-12642
▁ซิก	-12643
▁ฟาส	-12644
▁อัฟ	-12645
กับที่	-12646
▁ข้อหา	-12647
▁โคลัม	-12648
▁รับผิด	-12649
ไว้วางใจ	-12650
▁ค่าจ้าง	-12651
▁วงกว้าง	-12652
▁กําลังดี	-12653
▁ทวีปยุโรป	-12654
▁อยู่กับที่	-12655
▁วอลล์เปเปอร์	-12656
An	-12657
กบ	-12658
้ล	-12659
OCC	-12660
เด้	-12661
▁04	-12662
▁Pi	-12663
EFIT	-12664
ไพร์	-12665
▁118	-12666
▁Sle	-12667
ossom	-12668
กระจก	-12669
ฤทธิ์	-12670
เมนท์	-12671
▁ANKO	-12672
▁LANC	-12673
▁Nano	-12674
▁กลืน	-12675
▁มีหัว	-12676
▁เคียง	-12677
▁โทมัส	-12678
▁กู้ยืม	-12679
▁จั๊มพ์	-12680
▁จําแนก	-12681
▁พาสเทล	-12682
วินิจฉัย	-12683
▁Advanced	-12684
▁เอสเพรสโซ	-12685
▁ลายนิ้วมือ	-12686
▁ไฟฟ้าสถิตย์	-12687
orn	-12688
▁CF	-12689
▁Is	-12690
▁(12	-12691
▁116	-12692
▁จิบ	-12693
▁1.75	-12694
▁ข้อย	-12695
▁Stars	-12696
▁มีแผน	-12697
▁ลิสต์	-12698
▁ไดนาม	-12699
▁ตัดออก	-12700
▁บางประ	-12701
▁ลูกจ้าง	-12702
▁วอเตอร์	-12703
▁เผาไหม้	-12704
▁รถจักรยานยนต์	-12705
93	-12706
BK	-12707
YN	-12708
YLE	-12709
วส์	-12710
▁Ep	-12711
▁ลล	-12712
ณฑิต	-12713
มณฑล	-12714
▁260	-12715
▁9.8	-12716
▁Bri	-12717
▁บ่อ	-12718
▁หอย	-12719
▁แพร	-12720
▁โฉบ	-12721
มาลัย	-12722
เออร์	-12723
▁39.5	-12724
▁ติ้ง	-12725
ตํารวจ	-12726
เตรียม	-12727
▁COMPR	-12728
▁Enter	-12729
▁ตามใจ	-12730
▁อตัรา	-12731
บาดเจ็บ	-12732
ประหลาด	-12733
ากางเกง	-12734
แอฟริกา	-12735
▁CAMERA	-12736
▁จัดงาน	-12737
▁จําไว้	-12738
▁ตกเป็น	-12739
▁ตเตอร์	-12740
▁ต่อสาย	-12741
▁พรมแดน	-12742
▁เต็มใจ	-12743
▁ความดัง	-12744
▁สัญชาติ	-12745
▁ส่งเสียง	-12746
▁ถ้าอย่างนั้น	-12747
▁กระเป๋ากางเกง	-12748
,2	-12749
oe	-12750
emp	-12751
โขม	-12752
▁RC	-12753
▁ม่	-12754
เซิล	-12755
เปีย	-12756
▁113	-12757
▁165	-12758
▁AST	-12759
▁Che	-12760
▁คัต	-12761
▁แตน	-12762
encil	-12763
▁10.2	-12764
▁33.5	-12765
▁มาริ	-12766
▁เบรน	-12767
▁ของแถม	-12768
▁คาดคิด	-12769
▁ผักโขม	-12770
▁เทอร์ม	-12771
▁เป็นโรค	-12772
▁แอคชั่น	-12773
ประเทศไทย	-12774
▁ชัตเตอร์	-12775
▁เพาะปลูก	-12776
▁คาร์บอเนต	-12777
▁ลูกฟุตบอล	-12778
▁เลขาธิการ	-12779
แห่งประเทศไทย	-12780
-2	-12781
WE	-12782
ISE	-12783
วิช	-12784
▁Mc	-12785
idge	-12786
▁Del	-12787
▁จรด	-12788
งดงาม	-12789
คเตอร์	-12790
ฤดูกาล	-12791
▁OTHER	-12792
▁พอร์ท	-12793
▁ฮิลล์	-12794
▁แคว้น	-12795
▁Active	-12796
▁Flyknit	-12797
▁ทางน้ํา	-12798
▁ประสงค์	-12799
▁เกียรติ	-12800
โครงสร้าง	-12801
ได้เปรียบ	-12802
▁กลางเดือน	-12803
▁ความงดงาม	-12804
▁วิกฤตการณ์	-12805
▁ความผิดปกติ	-12806
▁บุคคลที่สาม	-12807
NE	-12808
TR	-12809
คอง	-12810
▁ชุ	-12811
▁ํอ	-12812
บุ๊ก	-12813
เทิน	-12814
▁ซอล	-12815
▁พิพ	-12816
▁มอส	-12817
▁อ๋อ	-12818
นิเวศ	-12819
มวลชน	-12820
าร์ตา	-12821
ียนส์	-12822
▁Best	-12823
▁ซิตี	-12824
▁โดรน	-12825
▁Makeup	-12826
▁ภูเขาไฟ	-12827
▁ริเริ่ม	-12828
▁เวลาเปิด	-12829
▁โปรดทราบ	-12830
▁ระบบนิเวศ	-12831
▁ถุงพลาสติก	-12832
▁แฟ้มเอกสาร	-12833
UE	-12834
td	-12835
จึง	-12836
▁CN	-12837
aper	-12838
ควิด	-12839
▁DES	-12840
▁STE	-12841
▁UMB	-12842
▁ฟี่	-12843
ิเต็ด	-12844
▁12.0	-12845
▁40.5	-12846
▁จับจ	-12847
▁ย้อม	-12848
ประหาร	-12849
▁Audio	-12850
▁ตําหนิ	-12851
ต่างชาติ	-12852
▁ทางซ้าย	-12853
▁ลิมิเต็ด	-12854
▁การรับรู้	-12855
▁ที่ทําการ	-12856
▁เฉลิมฉลอง	-12857
▁ความเกี่ยว	-12858
▁ยินดีต้อนรับ	-12859
ษะ	-12860
orm	-12861
ude	-12862
จ่อ	-12863
▁นั	-12864
▁สภ	-12865
ฉ่ํา	-12866
ตุ๊ก	-12867
▁API	-12868
▁DEC	-12869
▁LAM	-12870
▁SIM	-12871
▁ser	-12872
▁ซีก	-12873
▁ตกต	-12874
▁ทรู	-12875
▁2519	-12876
▁NANO	-12877
▁Titan	-12878
▁ลิงค์	-12879
▁เคารพ	-12880
▁เชือ่	-12881
พันธรัฐ	-12882
เกียรติ	-12883
▁ตรงจุด	-12884
▁ทํานอง	-12885
▁เขื่อน	-12886
▁เซ็นต์	-12887
เล็กชั่น	-12888
▁ประชาคม	-12889
▁ปลายเท้า	-12890
▁มหาอํานาจ	-12891
▁เงินเดือน	-12892
▁นักวิชาการ	-12893
▁ความปรารถนา	-12894
▁คอลเล็กชั่น	-12895
▁มีผลบังคับใช้	-12896
ae	-12897
UST	-12898
ชวน	-12899
แลก	-12900
▁)•	-12901
▁ต์	-12902
zing	-12903
ปั้น	-12904
้าท์	-12905
▁420	-12906
▁ทูต	-12907
▁เฟล	-12908
▁ถูกๆ	-12909
▁ปรอท	-12910
▁ประแจ	-12911
▁รถถัง	-12912
▁เวสท์	-12913
ดังนั้น	-12914
▁การปลด	-12915
▁ทําให๎	-12916
▁มือสอง	-12917
เพียงแต่	-12918
ในขณะที่	-12919
▁แวมไพร์	-12920
▁ไข้หวัด	-12921
▁Inverter	-12922
▁ข้อสงสัย	-12923
▁ตลอดชีวิต	-12924
▁เซอร์เบีย	-12925
▁ด้วยเหตุนี้	-12926
▁น้ํามันเครื่อง	-12927
๊น	-12928
ANK	-12929
IDO	-12930
TLD	-12931
fum	-12932
หัด	-12933
▁Ot	-12934
▁tr	-12935
▁ยน	-12936
▁Pix	-12937
▁หละ	-12938
เธนส์	-12939
▁15.6	-12940
▁CHAN	-12941
▁คลี่	-12942
▁Organ	-12943
▁กองพล	-12944
▁การบุก	-12945
▁ก่อตัว	-12946
เงื่อนไข	-12947
▁เอาเป็น	-12948
▁แล้วจึง	-12949
▁ตามฤดูกาล	-12950
▁คล่องแคล่ว	-12951
Hz	-12952
LUB	-12953
olt	-12954
ซัม	-12955
reme	-12956
ินี่	-12957
▁202	-12958
▁ALL	-12959
▁Sun	-12960
▁ชิพ	-12961
▁เซฟ	-12962
pport	-12963
ริกซ์	-12964
เวิร์	-12965
▁42.5	-12966
▁FULL	-12967
▁จุดจบ	-12968
▁หาไม่	-12969
▁เกร็ด	-12970
▁เซาธ์	-12971
▁ในบาง	-12972
▁Disney	-12973
▁ขีดสุด	-12974
▁Extract	-12975
▁บิกินี่	-12976
▁RESPONSE	-12977
▁ส่วนโค้ง	-12978
▁งานเอกสาร	-12979
▁ประกาศใช้	-12980
▁ไม่เพียงแต่	-12981
เอกอัครราชทูต	-12982
▁ไม่อย่างนั้น	-12983
▁ข้อเสียเปรียบ	-12984
▁มีความจําเป็น	-12985
▁การประชุมสุดยอด	-12986
RW	-12987
ปน	-12988
ธิต	-12989
รีบ	-12990
AINT	-12991
Poly	-12992
edia	-12993
itor	-12994
นีย์	-12995
รหัส	-12996
ไซม์	-12997
▁Fac	-12998
▁Hot	-12999
EBOOK	-13000
irect	-13001
มอนด์	-13002
▁การด	-13003
▁คนละ	-13004
▁ชิลี	-13005
▁ฮอลล	-13006
พีเดีย	-13007
▁ฟอรัม	-13008
▁HEATER	-13009
▁บ็อกซ์	-13010
▁ผู้ประ	-13011
▁อัฟกาน	-13012
▁เนือ่ง	-13013
▁แข่งรถ	-13014
▁ก้าวหน้า	-13015
▁ทนายความ	-13016
▁เอาเป็นว่า	-13017
▁อัฟกานิสถาน	-13018
//	-13019
GR	-13020
สึ	-13021
ven	-13022
บัต	-13023
โจม	-13024
▁ACC	-13025
▁Ltd	-13026
▁ฮอต	-13027
ature	-13028
ision	-13029
ืบทอด	-13030
▁2500	-13031
▁ผ่อน	-13032
▁ภาคี	-13033
▁อัคร	-13034
▁SPORT	-13035
▁ตอบโต้	-13036
▁BENEFIT	-13037
▁Express	-13038
▁กําเนิด	-13039
▁ซัพพลาย	-13040
▁เกลี้ยง	-13041
▁เข้ารอบ	-13042
▁เร่งรีบ	-13043
▁เอเธนส์	-13044
▁กลมกล่อม	-13045
▁จาการ์ตา	-13046
▁แป้งฝุ่น	-13047
▁ประกอบการ	-13048
▁เปิดกว้าง	-13049
▁ข้าวเปลือก	-13050
▁เข้าสู่ระบบ	-13051
แผ	-13052
.95	-13053
อีน	-13054
โชค	-13055
▁$5	-13056
▁EP	-13057
Book	-13058
ิร์ช	-13059
▁ลัส	-13060
▁เวส	-13061
มนตร์	-13062
▁1950	-13063
▁Berg	-13064
▁เซมิ	-13065
▁มาร์ท	-13066
▁ยูนิต	-13067
ความผิด	-13068
จากนั้น	-13069
▁เต็นท์	-13070
▁หมอนข้าง	-13071
▁เงียบสงบ	-13072
▁การแสดงออก	-13073
อุ	-13074
.60	-13075
หาญ	-13076
▁CS	-13077
▁MF	-13078
▁MX	-13079
แบ่ง	-13080
▁PST	-13081
▁วัล	-13082
▁ส่า	-13083
▁อีฟ	-13084
▁Copy	-13085
▁SEER	-13086
▁ปรัส	-13087
▁หมอก	-13088
ปะหลัง	-13089
▁ใบไม้	-13090
▁Filter	-13091
▁ซากุระ	-13092
▁ฮอลลีว	-13093
เช่นนั้น	-13094
▁LEATHER	-13095
▁ผีเสื้อ	-13096
▁ศาลเจ้า	-13097
▁คณะมนตรี	-13098
▁ปรัสเซีย	-13099
▁ฮิตเลอร์	-13100
กําเนิดไฟฟ้า	-13101
▁โปรเซสเซอร์	-13102
▁ดําเนินต่อไป	-13103
▁ฤดูใบไม้ร่วง	-13104
TB	-13105
สว	-13106
OTE	-13107
arp	-13108
htt	-13109
ฟิน	-13110
มหา	-13111
ริช	-13112
เอย	-13113
▁๎น	-13114
ture	-13115
บ้าง	-13116
▁9.3	-13117
▁โด้	-13118
▁ไต่	-13119
UTION	-13120
▁Conc	-13121
ipling	-13122
▁พืชผล	-13123
PLASTIC	-13124
▁ตึงตัว	-13125
▁นางเอก	-13126
▁เลี่ยน	-13127
▁ฐานข้อมูล	-13128
▁เดสก์ท็อป	-13129
▁ความเหนียว	-13130
▁ต้นกําเนิด	-13131
▁พิจารณาคดี	-13132
KA	-13133
ไถ	-13134
ann	-13135
rop	-13136
ซีด	-13137
ตู้	-13138
านิต	-13139
เกลา	-13140
▁310	-13141
▁:-(	-13142
▁Ass	-13143
▁Bas	-13144
▁สัต	-13145
▁โคน	-13146
itter	-13147
หล่อน	-13148
▁1400	-13149
▁LAUD	-13150
▁True	-13151
▁เคลม	-13152
▁แล่น	-13153
▁มิลค์	-13154
▁อเล็ก	-13155
▁ไอริช	-13156
▁Sensor	-13157
▁ถูกที่	-13158
▁ใบแจ้ง	-13159
▁นักอ่าน	-13160
▁แคลเซียม	-13161
▁กระทําการ	-13162
▁ตอนเที่ยง	-13163
▁ตัวควบคุม	-13164
▁โทรคมนาคม	-13165
▁คําวิจารณ์	-13166
านิติบัญญัติ	-13167
▁ปฏิสัมพันธ์	-13168
▁ศาสตราจารย์	-13169
▁ทําความเข้าใจ	-13170
▁เครื่องกรองน้ํา	-13171
87	-13172
แนล	-13173
▁Ic	-13174
▁PO	-13175
▁ne	-13176
▁ไถ	-13177
▁Pop	-13178
▁พิษ	-13179
▁ยู่	-13180
▁เฟซ	-13181
▁แสต	-13182
▁โบ้	-13183
เยื่อ	-13184
▁1976	-13185
▁DIOR	-13186
▁หมัด	-13187
▁เกย์	-13188
ตุ๊กแก	-13189
▁ULTRA	-13190
▁ให้หา	-13191
EMPERED	-13192
▁บลอนด์	-13193
▁บําบัด	-13194
▁แยกตัว	-13195
▁เหลื่อม	-13196
ต่อเนื่อง	-13197
▁การสึกหรอ	-13198
▁ตีนตุ๊กแก	-13199
▁ใบแจ้งหนี้	-13200
▁สภานิติบัญญัติ	-13201
ชะ	-13202
ธิน	-13203
ุยส์	-13204
▁ราด	-13205
▁ไร่	-13206
velop	-13207
ตรงมา	-13208
▁จิ๊ก	-13209
▁ติ๊ก	-13210
▁วิกิ	-13211
▁SAINT	-13212
▁เธียม	-13213
▁เรือบ	-13214
▁โซนี่	-13215
ไปตรงมา	-13216
▁LAUDER	-13217
▁Pencil	-13218
▁บุหรี่	-13219
▁ยกขึ้น	-13220
▁สามสิบ	-13221
▁LAURENT	-13222
▁ขายปลีก	-13223
▁ชนะเลิศ	-13224
▁ท้องถนน	-13225
▁พาณิชย์	-13226
▁ฟลอริดา	-13227
ุก่อสร้าง	-13228
▁แซนด์วิช	-13229
▁ข้อยกเว้น	-13230
▁ประชาชาติ	-13231
▁เก็บเกี่ยว	-13232
▁ข้าวกลางวัน	-13233
▁สิ่งก่อสร้าง	-13234
▁เพนซิลเวเนีย	-13235
๋ย	-13236
▁็	-13237
ปัจ	-13238
มุ่ง	-13239
▁ปอก	-13240
▁พลี	-13241
▁ฟืน	-13242
▁29.7	-13243
▁วัสด	-13244
▁เมกะ	-13245
▁แนวรบ	-13246
▁คมนาคม	-13247
▁Kipling	-13248
▁ตลอดคืน	-13249
▁ทางผ่าน	-13250
▁โปรไฟล์	-13251
▁การเยือน	-13252
▁ของหล่อน	-13253
▁เฉพาะกิจ	-13254
▁INTERFACE	-13255
▁ชําระหนี้	-13256
▁เยี่ยมยอด	-13257
▁ส่วนสําคัญ	-13258
▁แชมเปียนส์	-13259
▁ความยุ่งยาก	-13260
▁กระทําความผิด	-13261
▁วัสดุก่อสร้าง	-13262
▁IT	-13263
oral	-13264
พอดี	-13265
▁mac	-13266
▁งอน	-13267
▁ลาส	-13268
▁วอล	-13269
▁แมง	-13270
▁กลอง	-13271
▁เสือ	-13272
▁UNDER	-13273
▁นิกข์	-13274
▁ลงเอย	-13275
▁เฟิร์ม	-13276
▁ความเข้ม	-13277
▁ช่วงอายุ	-13278
▁การประกอบ	-13279
▁รถแท็กซี่	-13280
▁ตรงไปตรงมา	-13281
▁การประกอบอาหาร	-13282
ลู	-13283
005	-13284
ERL	-13285
jah	-13286
top	-13287
ume	-13288
ราก	-13289
▁LI	-13290
ย่อง	-13291
แผ่น	-13292
▁):9	-13293
▁Smo	-13294
▁11.2	-13295
▁5555	-13296
▁DUAL	-13297
▁SDHC	-13298
RAPHIC	-13299
แทนที่	-13300
สิ้นสุด	-13301
▁ARMANI	-13302
▁BRIGHT	-13303
▁ทุจริต	-13304
มุ่งหมาย	-13305
▁สังสรรค์	-13306
▁ข้อบังคับ	-13307
▁พื้นเมือง	-13308
▁ศาสนาพุทธ	-13309
▁เพอร์เฟ็ค	-13310
▁งานแต่งงาน	-13311
▁รองชนะเลิศ	-13312
▁ตามเงื่อนไข	-13313
IX	-13314
FIL	-13315
▁LC	-13316
▁วท	-13317
เง่า	-13318
▁340	-13319
▁Cer	-13320
▁Sou	-13321
ROLUX	-13322
▁14.8	-13323
▁Bang	-13324
▁CLUB	-13325
ตรงข้าม	-13326
▁มุสลิม	-13327
▁ลิ้มรส	-13328
▁ของมีคม	-13329
▁นักร้อง	-13330
▁เป็นกลาง	-13331
▁เป็นธรรม	-13332
▁PANASONIC	-13333
▁ขนส่งสินค้า	-13334
▁ชาวต่างชาติ	-13335
▁ห้องปฏิบัติการ	-13336
ye	-13337
enz	-13338
รํา	-13339
▁At	-13340
▁MG	-13341
▁Ol	-13342
ีมูล	-13343
▁114	-13344
▁Mic	-13345
▁SUB	-13346
▁กัม	-13347
▁จิง	-13348
▁ยัด	-13349
▁ย่น	-13350
สายตา	-13351
▁1800	-13352
▁CORE	-13353
▁ครอส	-13354
▁ผลดี	-13355
เกลียด	-13356
▁Quick	-13357
▁คิวบา	-13358
▁ทบทวน	-13359
▁แทร็ค	-13360
ีมูลค่า	-13361
▁ชาร์ลส์	-13362
▁บลูเรย์	-13363
▁สักหลาด	-13364
▁ยากลําบาก	-13365
▁สมมุติฐาน	-13366
▁ไอซ์แลนด์	-13367
▁COMPRESSOR	-13368
▁จุดสิ้นสุด	-13369
▁ภาษีมูลค่า	-13370
▁เนื้อเยื่อ	-13371
▁ทวีปแอฟริกา	-13372
▁ภาษีมูลค่าเพิ่ม	-13373
บะ	-13374
POL	-13375
ซอล	-13376
▁(,	-13377
▁MY	-13378
▁be	-13379
▁(%)	-13380
▁8.4	-13381
▁9.6	-13382
▁Box	-13383
▁อณู	-13384
กร้าว	-13385
ลังก์	-13386
▁36.5	-13387
▁Head	-13388
▁ถ้ํา	-13389
▁รงค์	-13390
▁สาระ	-13391
▁เชํน	-13392
ication	-13393
▁ครบวงจร	-13394
▁ฉันนั้น	-13395
▁รอบด้าน	-13396
▁รอยเปื้อน	-13397
▁ปฏิบัติงาน	-13398
▁จุดมุ่งหมาย	-13399
SU	-13400
Sc	-13401
obe	-13402
▁ศร	-13403
▁9.4	-13404
▁Key	-13405
▁MIC	-13406
▁RAT	-13407
▁SHU	-13408
▁Str	-13409
▁UEM	-13410
▁จู่	-13411
▁ต้อ	-13412
▁ปัง	-13413
OCCIT	-13414
กรุ่น	-13415
▁สกาย	-13416
▁หลอม	-13417
▁โกหก	-13418
ERLAIN	-13419
▁มงกุฎ	-13420
▁รถตู้	-13421
▁Liquid	-13422
▁ของที่	-13423
▁คันชัก	-13424
▁กินข้าว	-13425
▁ช็อปปิ้ง	-13426
▁อาหารเสริม	-13427
▁ของที่ระลึก	-13428
▁เข็มขัดนิรภัย	-13429
AI	-13430
CI	-13431
ATO	-13432
ช๎า	-13433
โตน	-13434
▁$1	-13435
▁08	-13436
▁Ap	-13437
▁ฮอ	-13438
ouse	-13439
▁PMI	-13440
▁UPF	-13441
▁เป็	-13442
รรทุก	-13443
▁1991	-13444
▁จากไป	-13445
▁ศรีษะ	-13446
▁ชนชั้น	-13447
▁ชั้นบน	-13448
▁โดยสาร	-13449
▁การตรวจ	-13450
▁บาร์บี้	-13451
▁ไปรษณีย์	-13452
▁ทําสงคราม	-13453
▁มอยส์เจอร์	-13454
▁เรือบรรทุก	-13455
▁แผ่นดินใหญ่	-13456
▁ความไว้วางใจ	-13457
ภพ	-13458
PEG	-13459
เวช	-13460
็อน	-13461
▁AP	-13462
▁DN	-13463
NING	-13464
ฤกษ์	-13465
เริง	-13466
โปรด	-13467
▁650	-13468
▁จรวด	-13469
▁ดารา	-13470
▁เบลอ	-13471
▁น้ําท	-13472
▁สีซีด	-13473
▁ออกจะ	-13474
▁พู่กัน	-13475
▁เฟรนช์	-13476
OCCITANE	-13477
น้ําอุ่น	-13478
▁ผู้ดูแล	-13479
▁ร้านขาย	-13480
▁ข้าวสาลี	-13481
▁ตอบคําถาม	-13482
▁ประจําการ	-13483
▁เสื้อคลุม	-13484
▁โต๊ะอาหาร	-13485
▁ทวีปเอเชีย	-13486
▁เข้าแข่งขัน	-13487
duc	-13488
ขัง	-13489
ซาก	-13490
เข้	-13491
▁RT	-13492
ener	-13493
prop	-13494
ขั้น	-13495
ิงส์	-13496
โคลน	-13497
▁Eff	-13498
▁Emb	-13499
▁ไพ่	-13500
OSITE	-13501
▁Orth	-13502
▁ทุ่ง	-13503
▁แม็ค	-13504
าระดับ	-13505
▁FROST	-13506
▁MULTI	-13507
▁ขดลวด	-13508
ผลักดัน	-13509
▁กระสุน	-13510
▁ชาวไทย	-13511
▁ทุกคืน	-13512
▁ปลอกคอ	-13513
▁ภูเก็ต	-13514
▁หลุยส์	-13515
▁BATTERY	-13516
▁ค้นคว้า	-13517
▁ปริมณฑล	-13518
▁ร่วมงาน	-13519
▁เด็ดขาด	-13520
▁แบบฉบับ	-13521
▁ผู้เข้าชม	-13522
▁ว่างเปล่า	-13523
▁เข็มนาฬิกา	-13524
▁ตัวแทนจําหน่าย	-13525
54	-13526
LED	-13527
เดล	-13528
แคบ	-13529
▁Je	-13530
mond	-13531
ulse	-13532
เทีย	-13533
▁Mal	-13534
▁Sub	-13535
▁นรา	-13536
▁สูบ	-13537
▁แยม	-13538
ทาวน์	-13539
▁10.8	-13540
▁11.8	-13541
▁12.2	-13542
▁Band	-13543
enthes	-13544
▁TOUCH	-13545
▁พังก์	-13546
▁พิสัย	-13547
▁มอยซ์	-13548
▁สมการ	-13549
▁เจนซ์	-13550
▁Electr	-13551
▁อพาร์ท	-13552
▁เทิร์น	-13553
▁ํอสร๎าง	-13554
▁ดึงดูดใจ	-13555
▁นิวยอร์ค	-13556
▁ดาวน์ทาวน์	-13557
BT	-13558
si	-13559
ym	-13560
App	-13561
ior	-13562
uck	-13563
▁สอ	-13564
olor	-13565
ระยะ	-13566
▁8.7	-13567
▁850	-13568
▁Acc	-13569
▁ELE	-13570
▁RPM	-13571
▁TUN	-13572
▁Ter	-13573
▁ขิง	-13574
▁วัฏ	-13575
▁วัส	-13576
▁อบอ	-13577
▁เนล	-13578
yster	-13579
ลาเดล	-13580
เชียล	-13581
▁14.1	-13582
▁Acad	-13583
▁Note	-13584
▁Tosh	-13585
▁ตรึง	-13586
▁ผนวก	-13587
▁ใจดี	-13588
พวกเขา	-13589
▁WHITE	-13590
▁ขอบตา	-13591
▁คงไว้	-13592
▁มีนัด	-13593
▁มีเพศ	-13594
ฉุกเฉิน	-13595
ดําเนิน	-13596
สันหลัง	-13597
▁UEMURA	-13598
▁ความหน	-13599
▁พระบรม	-13600
▁อัพเดต	-13601
▁เขตแดน	-13602
▁ฟิลาเดล	-13603
▁มองข้าม	-13604
▁มิตรภาพ	-13605
▁อ่อนตัว	-13606
▁โดนัลด์	-13607
▁ฝ่ายตรงข้าม	-13608
▁ฟิลาเดลเฟีย	-13609
▁ไม่ต้องสงสัย	-13610
▁มีเพศสัมพันธ์	-13611
Con	-13612
oci	-13613
ว่ง	-13614
เซฟ	-13615
ไคล	-13616
▁FS	-13617
▁JO	-13618
คิอา	-13619
เด้น	-13620
ไทน์	-13621
▁ซูด	-13622
▁บุบ	-13623
▁แตํ	-13624
▁แผล	-13625
สามิต	-13626
▁14.6	-13627
▁BILL	-13628
▁Long	-13629
▁Targ	-13630
▁ยามา	-13631
▁เกรง	-13632
คิอาโต	-13633
▁ทเต็ด	-13634
▁ฝ่ายส	-13635
OLUTION	-13636
ังเกียจ	-13637
▁ลิควิด	-13638
▁สวยหรู	-13639
▁อินพุต	-13640
▁ไร้ค่า	-13641
▁Logitech	-13642
▁ชาตินิยม	-13643
▁มัคคิอาโต	-13644
▁ถึงกระนั้น	-13645
▁จัดตั้งขึ้น	-13646
▁ทวีปอเมริกา	-13647
▁ผลประกอบการ	-13648
▁เครื่องดนตรี	-13649
▁ได้รับบาดเจ็บ	-13650
▁ฝ่ายสัมพันธมิตร	-13651
YS	-13652
uma	-13653
▁AG	-13654
▁ขร	-13655
▁Buy	-13656
▁Tea	-13657
▁Tex	-13658
▁คัท	-13659
▁เลต	-13660
tions	-13661
ระเข้	-13662
▁10.3	-13663
▁2533	-13664
▁ASTM	-13665
▁Real	-13666
▁ขวัญ	-13667
▁อ้วน	-13668
▁ใบชา	-13669
▁พยนต์	-13670
▁อาร์ต	-13671
ลินอยส์	-13672
▁ทางจิต	-13673
▁ปวดหัว	-13674
▁เอาเลย	-13675
▁รับช่วง	-13676
▁ให้เงิน	-13677
▁GUERLAIN	-13678
▁น้ําท่วม	-13679
▁สมาชิกสภา	-13680
▁วิกิพีเดีย	-13681
▁อิลลินอยส์	-13682
▁เชื่อถือได้	-13683
FM	-13684
๊ย	-13685
.90	-13686
DVD	-13687
era	-13688
iew	-13689
HIUM	-13690
coal	-13691
หลิว	-13692
▁550	-13693
▁Fax	-13694
▁_""	-13695
▁เบบ	-13696
เวกัส	-13697
▁2200	-13698
▁34.5	-13699
▁กรีด	-13700
▁หนา้	-13701
เดี่ยว	-13702
▁Blush	-13703
▁ซูดาน	-13704
▁องุ่น	-13705
กระตุ้น	-13706
▁การทํา	-13707
▁ทะเลใน	-13708
▁ฟังได้	-13709
▁ฉับพลัน	-13710
▁นิวตรอน	-13711
▁ย่อยสลาย	-13712
▁ความเคารพ	-13713
▁ครีมกันแดด	-13714
▁ให้ความรู้	-13715
พฤ	-13716
ful	-13717
oor	-13718
อกด	-13719
เผา	-13720
▁DV	-13721
▁GR	-13722
▁qu	-13723
apan	-13724
คอล์	-13725
เชิญ	-13726
▁DSL	-13727
▁รีต	-13728
▁อ้ย	-13729
▁ฮัม	-13730
▁แคม	-13731
ABONG	-13732
ccTLD	-13733
group	-13734
▁ดราก	-13735
ศักราช	-13736
▁แบนด์	-13737
ลัดวงจร	-13738
▁ตะหลิว	-13739
▁ละครใน	-13740
▁เอาแต่	-13741
▁จัดซื้อ	-13742
▁ผิวพรรณ	-13743
▁ลูกเรือ	-13744
สําปะหลัง	-13745
▁BILLABONG	-13746
▁การตอบโต้	-13747
▁เป็นต้นไป	-13748
▁เรือนกระจก	-13749
▁ไฟฟ้าลัดวงจร	-13750
Ac	-13751
KK	-13752
VEL	-13753
ler	-13754
ก่อ	-13755
โมน	-13756
ATED	-13757
OMAS	-13758
raph	-13759
sten	-13760
ครีม	-13761
▁$10	-13762
▁BOS	-13763
▁ค๎า	-13764
▁วลี	-13765
Speed	-13766
THERM	-13767
เรนซ์	-13768
▁:100	-13769
▁สโตน	-13770
▁RATIO	-13771
▁ลองใน	-13772
▁สุกี้	-13773
วิชาการ	-13774
epenthes	-13775
▁กระพริบ	-13776
▁เป็นเลิศ	-13777
81	-13778
86	-13779
oil	-13780
เจอ	-13781
CASE	-13782
▁109	-13783
▁AQU	-13784
▁MDF	-13785
▁จัก	-13786
▁พัม	-13787
▁41.5	-13788
▁Cour	-13789
▁WIFI	-13790
▁ด่าน	-13791
▁ท่อน	-13792
▁รื้อ	-13793
▁โน้ม	-13794
▁Extra	-13795
▁นีออน	-13796
WINDOWS	-13797
ั่งคั่ง	-13798
▁Iconic	-13799
▁ตากแดด	-13800
▁ดินสอกด	-13801
▁วัฏจักร	-13802
▁สั่งงาน	-13803
▁พันธุกรรม	-13804
▁ว่าไม่ได้	-13805
▁หัวเข็มขัด	-13806
▁ขณะเดียวกัน	-13807
สุ	-13808
eck	-13809
tit	-13810
นิด	-13811
เลต	-13812
IZER	-13813
ตารอ	-13814
ราเร	-13815
▁Hol	-13816
▁มอล	-13817
ility	-13818
โดวส์	-13819
▁Adap	-13820
▁Deep	-13821
▁READ	-13822
▁Tung	-13823
▁กํอน	-13824
▁ทว่า	-13825
▁มิ้น	-13826
จะเป็น	-13827
▁Cross	-13828
▁พิการ	-13829
▁กาตาร์	-13830
▁ตรวจดู	-13831
▁ต่อให้	-13832
▁สักนิด	-13833
▁อนุกรม	-13834
▁Blossom	-13835
▁ปัสสาวะ	-13836
▁ภาพนิ่ง	-13837
▁ได้เงิน	-13838
▁ความหนืด	-13839
▁ตื่นขึ้น	-13840
▁ทุกเมื่อ	-13841
▁กําหนดการ	-13842
▁ช่วยชีวิต	-13843
▁การพิสูจน์	-13844
▁ความน่าสนใจ	-13845
▁แอพพลิเคชั่น	-13846
นก	-13847
น้	-13848
ยั	-13849
ism	-13850
ดิจ	-13851
▁NB	-13852
▁คค	-13853
▁ซน	-13854
ings	-13855
oney	-13856
▁นโป	-13857
อาศัย	-13858
▁Shea	-13859
▁ค็อก	-13860
▁เจือ	-13861
▁rajah	-13862
▁ทีนี้	-13863
▁สมวัย	-13864
▁หน้าผ	-13865
▁เลมอน	-13866
▁คนรุ่น	-13867
▁ตัวแปร	-13868
▁เอนไซม์	-13869
▁ตั้งตารอ	-13870
▁นโปเลียน	-13871
▁อ่อนหวาน	-13872
▁เที่ยงตรง	-13873
▁รักษาระดับ	-13874
MG	-13875
ONI	-13876
OOD	-13877
ฮิต	-13878
เมด	-13879
ASIC	-13880
PORT	-13881
ดาร์	-13882
ราโด	-13883
▁173	-13884
▁มิค	-13885
ทฤษฎี	-13886
ียภาพ	-13887
▁10.4	-13888
▁ท่วม	-13889
▁โคโล	-13890
ยินยอม	-13891
ิดนีย์	-13892
▁คอร์ส	-13893
▁ถัดมา	-13894
▁อิมัล	-13895
ีกเกอร์	-13896
▁THOMAS	-13897
▁น่ารับ	-13898
▁หัวต่อ	-13899
▁อาร์ดี	-13900
ความเร็ว	-13901
▁รูปหน้า	-13902
▁ร่องรอย	-13903
▁วันก่อน	-13904
▁ฮอร์โมน	-13905
▁โต้แย้ง	-13906
▁โอเวอร์	-13907
▁Tungsten	-13908
▁ทะเลทราย	-13909
▁วินโดวส์	-13910
▁เอฟเฟกต์	-13911
▁โคโลราโด	-13912
▁การแทนที่	-13913
▁ระหว่างทาง	-13914
▁เครื่องแต่ง	-13915
▁เศรษฐศาสตร์	-13916
▁น่ารับประทาน	-13917
▁ความน่าจะเป็น	-13918
FE	-13919
MF	-13920
OWN	-13921
res	-13922
พยพ	-13923
▁ทว	-13924
▁โข	-13925
INCE	-13926
เต็น	-13927
▁(32	-13928
▁.""	-13929
▁270	-13930
▁กรอ	-13931
▁มลู	-13932
▁ยอง	-13933
ประปา	-13934
▁):16	-13935
▁Glow	-13936
▁คลํา	-13937
▁ตรัส	-13938
นิษฐาน	-13939
สานงาน	-13940
▁CASIO	-13941
▁DOLBY	-13942
▁STAND	-13943
▁Table	-13944
▁ดูถูก	-13945
▁เบนซ์	-13946
▁กันแสง	-13947
▁ฟ้าผ่า	-13948
▁ยอดฮิต	-13949
▁คาเฟอีน	-13950
▁ปิดท้าย	-13951
▁ห่อหุ้ม	-13952
สรรพสามิต	-13953
▁ปนเปื้อน	-13954
▁ฟิกเกอร์	-13955
▁ออกกําลัง	-13956
▁เสียงหัวเราะ	-13957
XC	-13958
ban	-13959
คมะ	-13960
▁LS	-13961
▁รง	-13962
หนุน	-13963
ุขระ	-13964
▁Pet	-13965
▁นวย	-13966
▁นิน	-13967
▁วัง	-13968
▁เกษ	-13969
▁เปน	-13970
▁เปา	-13971
earch	-13972
▁99.9	-13973
▁LOCK	-13974
▁URBAN	-13975
▁มนุษย	-13976
▁โรคมะ	-13977
แลกเงิน	-13978
▁ขรุขระ	-13979
▁INBLOOM	-13980
▁ข้อสรุป	-13981
▁ริเวอร์	-13982
▁WARRANTY	-13983
▁รังเกียจ	-13984
▁หอมกรุ่น	-13985
เครื่องบิน	-13986
▁สนีกเกอร์	-13987
▁เชียงใหม่	-13988
▁โรคมะเร็ง	-13989
▁สรีรศาสตร์	-13990
▁ตั๋วแลกเงิน	-13991
▁ทางไปรษณีย์	-13992
▁สอดคล้องกัน	-13993
▁ปัจจัยพื้นฐาน	-13994
▁พัดลมตั้งโต๊ะ	-13995
▁เครื่องแต่งกาย	-13996
GS	-13997
BLE	-13998
Non	-13999
amo	-14000
oxy	-14001
รัต	-14002
ูรี	-14003
เลา	-14004
▁มด	-14005
▁ร่	-14006
bide	-14007
enew	-14008
▁Den	-14009
▁Roy	-14010
ซิเบล	-14011
ที่มา	-14012
สมาธิ	-14013
โยธิน	-14014
▁12.7	-14015
▁Baby	-14016
▁แบร์	-14017
▁ไทม์	-14018
IPHONE	-14019
ทันหัน	-14020
▁APPLE	-14021
▁CANON	-14022
▁Style	-14023
▁นักรบ	-14024
ดิจิตอล	-14025
▁ที่ทาง	-14026
▁เร้าใจ	-14027
▁เสมอไป	-14028
▁OPTICAL	-14029
▁เข้าออก	-14030
▁เดซิเบล	-14031
▁แสดงออก	-14032
▁โซลูชัน	-14033
▁สเตเดียม	-14034
▁พุทธศาสนา	-14035
▁น่ารังเกียจ	-14036
▁ระบบดิจิตอล	-14037
▁สํานักงานใหญ่	-14038
):8	-14039
สง่	-14040
ึ่ม	-14041
▁๎ว	-14042
ines	-14043
vice	-14044
เปน็	-14045
▁LOL	-14046
▁ลือ	-14047
▁อ้า	-14048
▁เลท	-14049
ranty	-14050
ปอนด์	-14051
เฉพาะ	-14052
เปร่า	-14053
▁นิคม	-14054
ทรงตัว	-14055
▁vouch	-14056
กล่าวหา	-14057
▁ผู้ก่อ	-14058
▁ฟุตซอล	-14059
▁เปียโน	-14060
REQUENCY	-14061
ปัจจุบัน	-14062
▁ผลกําไร	-14063
▁แตกสลาย	-14064
เรียกร้อง	-14065
▁Moisture	-14066
▁พวงมาลัย	-14067
▁พอใช้ได้	-14068
▁การทรงตัว	-14069
▁ปรนนิบัติ	-14070
▁ผู้ส่งออก	-14071
▁พระอาทิตย์	-14072
▁กระดาษปอนด์	-14073
▁ประยุกต์ใช้	-14074
ระหว่างประเทศ	-14075
ผู	-14076
พ้น	-14077
โยก	-14078
▁09	-14079
▁HU	-14080
▁งง	-14081
▁ํน	-14082
ican	-14083
▁""-	-14084
▁(30	-14085
▁/31	-14086
▁งวง	-14087
▁นนี	-14088
▁แนส	-14089
amond	-14090
ector	-14091
▁SELF	-14092
▁Stay	-14093
▁over	-14094
▁น็อต	-14095
ington	-14096
▁Force	-14097
▁นาวิก	-14098
▁Academy	-14099
▁ข้างมาก	-14100
▁รถไฟฟ้า	-14101
▁โกลเด้น	-14102
▁ขาดไม่ได้	-14103
▁คนรุ่นใหม่	-14104
▁แว่นกันแดด	-14105
74	-14106
BP	-14107
▁ฐ	-14108
FOR	-14109
IGN	-14110
URV	-14111
rus	-14112
กรด	-14113
บ่ง	-14114
ปริ	-14115
สุล	-14116
ัตถ	-14117
ISON	-14118
ging	-14119
onal	-14120
อยาก	-14121
โอ๊ต	-14122
▁/29	-14123
▁FDA	-14124
▁Mor	-14125
▁ขุน	-14126
▁ซาว	-14127
▁แชท	-14128
▁โชก	-14129
ponse	-14130
อร่อย	-14131
เกล็ด	-14132
▁JOUR	-14133
▁Pear	-14134
▁แจ็ก	-14135
▁เบบี้	-14136
▁เมโทร	-14137
▁คิดออก	-14138
▁บานพับ	-14139
▁พยาบาล	-14140
▁เป็นมา	-14141
▁เวิร์ค	-14142
▁แอนตี้	-14143
▁โมเด็ม	-14144
▁JOURNAL	-14145
▁คนขับรถ	-14146
สเตอร์ดัม	-14147
▁การดํารง	-14148
▁ข้าวโอ๊ต	-14149
▁ลาสเวกัส	-14150
▁สบู่เหลว	-14151
▁สัญญาณไฟ	-14152
▁Stainless	-14153
▁การค้าขาย	-14154
▁สารประกอบ	-14155
▁การจับสลาก	-14156
▁เป็นผู้ใหญ่	-14157
▁Professional	-14158
DC	-14159
ng	-14160
ฮ์	-14161
OUT	-14162
Pro	-14163
als	-14164
ลอบ	-14165
แจง	-14166
โซล	-14167
▁BA	-14168
▁HL	-14169
XELS	-14170
enov	-14171
อาญา	-14172
▁Art	-14173
▁Bag	-14174
▁ESP	-14175
ining	-14176
ฟราเร	-14177
ราฟท์	-14178
เฮาส์	-14179
▁1900	-14180
▁1999	-14181
▁ข้าร	-14182
▁ด๎าน	-14183
ขาคณิต	-14184
ฟราเรด	-14185
เกตบอล	-14186
▁Spray	-14187
▁ถดถอย	-14188
▁อยา่ง	-14189
olution	-14190
▁ขอความ	-14191
▁ทีมงาน	-14192
▁นําทาง	-14193
▁Walmart	-14194
▁แต่กลับ	-14195
▁แท็กซี่	-14196
▁Facebook	-14197
▁ฝั่งทะเล	-14198
▁มีสิทธิ์	-14199
▁นักธุรกิจ	-14200
▁บีเอ็มดับ	-14201
▁เคมีภัณฑ์	-14202
▁ทิศตะวันตก	-14203
▁การวินิจฉัย	-14204
FG	-14205
lor	-14206
▁he	-14207
GLER	-14208
ishi	-14209
▁BIO	-14210
▁RAD	-14211
▁กรง	-14212
▁พิช	-14213
▁วา่	-14214
▁16.8	-14215
▁COPD	-14216
▁Lamb	-14217
▁คลอด	-14218
▁ค้อน	-14219
▁เบย์	-14220
trolux	-14221
เมื่อย	-14222
▁CONTR	-14223
▁DECAY	-14224
▁จุดไฟ	-14225
▁บิดเบ	-14226
▁ใจถึง	-14227
RANGLER	-14228
▁การต้ม	-14229
▁ลูกปัด	-14230
▁Carbide	-14231
▁PLASTIC	-14232
▁ซิลเวอร์	-14233
▁เรขาคณิต	-14234
▁เวทมนตร์	-14235
▁ในนามของ	-14236
▁ซอฟท์แวร์	-14237
▁เท่าเทียม	-14238
▁ผู้ต้องสงสัย	-14239
▁เร่งความเร็ว	-14240
▁ความต่อเนื่อง	-14241
▁ภาษีสรรพสามิต	-14242
▁ความเปลี่ยนแปลง	-14243
Cl	-14244
red	-14245
ียณ	-14246
▁Mi	-14247
▁SB	-14248
▁ขึ	-14249
▁304	-14250
▁9.9	-14251
▁Kit	-14252
▁res	-14253
ตากัน	-14254
▁$100	-14255
▁0.01	-14256
▁1997	-14257
▁ปุ๋ย	-14258
▁สตรอ	-14259
lement	-14260
นาม่อน	-14261
▁กิจจะ	-14262
▁โรม่า	-14263
แม่น้ํา	-14264
▁การตาย	-14265
ตากันแดด	-14266
▁ช่องปาก	-14267
▁ปรารถนา	-14268
▁Moisturi	-14269
▁เรียงราย	-14270
▁ได้กลิ่น	-14271
▁ซินนาม่อน	-14272
▁บาสเกตบอล	-14273
▁มอนิเตอร์	-14274
▁อัมสเตอร์ดัม	-14275
▁ของใช้ส่วนตัว	-14276
ศก	-14277
.15	-14278
ACH	-14279
ava	-14280
ror	-14281
เตะ	-14282
AMIC	-14283
▁456	-14284
▁ATM	-14285
▁ชาต	-14286
▁ชิด	-14287
▁ราน	-14288
▁วดี	-14289
usion	-14290
▁14.2	-14291
▁30.0	-14292
▁Balm	-14293
▁ทาสี	-14294
▁ธาตุ	-14295
▁ฟุ้ง	-14296
เสมือน	-14297
▁กวนใจ	-14298
▁ข้างๆ	-14299
▁แมทท์	-14300
▁เรียบๆ	-14301
▁ไฟหน้า	-14302
cargroup	-14303
▁หินอ่อน	-14304
▁SURROUND	-14305
▁วินิจฉัย	-14306
▁SUBWOOFER	-14307
▁โต๊ะประชุม	-14308
▁เพื่อนร่วมงาน	-14309
.70	-14310
LEY	-14311
OOP	-14312
ลาล	-14313
▁TW	-14314
▁WI	-14315
▁it	-14316
▁ม้	-14317
ette	-14318
tain	-14319
คลับ	-14320
ลีย์	-14321
▁Fab	-14322
▁Sum	-14323
▁Vit	-14324
▁คับ	-14325
▁ชรา	-14326
▁ทัก	-14327
▁พิท	-14328
▁เมฆ	-14329
immer	-14330
วี่ยง	-14331
หน่วง	-14332
▁13.3	-14333
▁2400	-14334
▁Food	-14335
▁เพิก	-14336
▁เฟรช	-14337
timate	-14338
บ่งชี้	-14339
สํารอง	-14340
▁มอสโก	-14341
▁วอร์ม	-14342
▁จับจอง	-14343
▁นักเตะ	-14344
▁ปรุงรส	-14345
▁ฝากเงิน	-14346
▁พี่น้อง	-14347
▁ไดนามิก	-14348
▁ภาพเขียน	-14349
▁มาร์เก็ต	-14350
▁สมาพันธ์	-14351
▁เสนอชื่อ	-14352
▁ข้าราชการ	-14353
▁ELECTROLUX	-14354
▁ภาคพื้นดิน	-14355
▁เครื่องชี้	-14356
HL	-14357
มั	-14358
ัฟ	-14359
เกะ	-14360
▁CP	-14361
▁WD	-14362
▁นบ	-14363
alth	-14364
ร่อง	-14365
เครา	-14366
▁235	-14367
▁IPX	-14368
▁Tee	-14369
▁แกง	-14370
▁1994	-14371
▁Fitt	-14372
▁ปทอป	-14373
▁ผึ้ง	-14374
▁เพลส	-14375
▁โค้ก	-14376
attery	-14377
▁ค่ารถ	-14378
▁ประกบ	-14379
▁เบีย้	-14380
▁GAMING	-14381
▁มะม่วง	-14382
▁สมบัติ	-14383
▁Display	-14384
▁Palette	-14385
▁กลูเต็น	-14386
▁ล้ําค่า	-14387
▁เสียดาย	-14388
▁WRANGLER	-14389
▁หนวดเครา	-14390
▁อารยธรรม	-14391
▁เหรียญทอง	-14392
▁Electrolux	-14393
▁แหล่งที่มา	-14394
▁แว่นตากันแดด	-14395
▁เทคโนโลยีชีวภาพ	-14396
JET	-14397
ont	-14398
ชัง	-14399
วัว	-14400
▁ลก	-14401
,500	-14402
hers	-14403
ไคล้	-14404
▁280	-14405
▁MAX	-14406
▁Ref	-14407
▁out	-14408
▁1964	-14409
▁2540	-14410
▁Rich	-14411
▁ต่อม	-14412
▁พยุง	-14413
▁ยอร์	-14414
▁รุ้ง	-14415
ระหนัก	-14416
▁Group	-14417
▁HOUSE	-14418
▁Match	-14419
▁การปล	-14420
▁มีโชค	-14421
▁ระทึก	-14422
ร่องรอย	-14423
▁คอนโซล	-14424
▁ถัดจาก	-14425
▁ใจกลาง	-14426
▁ขัดแย้ง	-14427
▁Concentr	-14428
▁คลั่งไคล้	-14429
▁อีกไม่นาน	-14430
▁ทิ้งร่องรอย	-14431
▁สภาผู้แทนราษฎร	-14432
97	-14433
CM	-14434
HIN	-14435
iba	-14436
ตวง	-14437
มุส	-14438
ลิป	-14439
ีกา	-14440
เอม	-14441
▁ธิ	-14442
▁••	-14443
เอิบ	-14444
▁ECO	-14445
▁สาน	-14446
เยอร์	-14447
โอเกะ	-14448
▁):18	-14449
▁12.6	-14450
▁BACK	-14451
▁Will	-14452
▁comp	-14453
▁ผึ่ง	-14454
▁ศาลา	-14455
รถยนต์	-14456
ออกแบบ	-14457
▁พนัลา	-14458
▁หันไป	-14459
▁ความสง	-14460
▁คอนดัก	-14461
▁ซิดนีย์	-14462
▁มาร์ติน	-14463
▁อุดมคติ	-14464
▁เป็นพิษ	-14465
▁NOTEBOOK	-14466
▁นิดเดียว	-14467
▁กันและกัน	-14468
▁คาราโอเกะ	-14469
▁แบ่งกลุ่ม	-14470
▁โปรเจ็กต์	-14471
▁นาวิกโยธิน	-14472
▁สุภาพบุรุษ	-14473
▁คอนดักเตอร์	-14474
▁มันสําปะหลัง	-14475
▁ขนาดใหญ่พิเศษ	-14476
▁โดยไม่จําเป็น	-14477
2-	-14478
EX	-14479
KG	-14480
า่	-14481
ady	-14482
เซม	-14483
▁OT	-14484
▁em	-14485
▁ยม	-14486
IGER	-14487
acle	-14488
พจน์	-14489
โรปา	-14490
▁380	-14491
▁ลว์	-14492
ubble	-14493
เพราะ	-14494
▁ส้อม	-14495
ตเตอร์	-14496
ยากรณ์	-14497
เทนนิส	-14498
▁กูเกิล	-14499
▁นางฟ้า	-14500
▁ยูโรปา	-14501
▁รายวัน	-14502
▁วางขาย	-14503
▁ORIGINS	-14504
▁ทานข้าว	-14505
▁วางซ้อน	-14506
▁อัปโหลด	-14507
▁ชายหนุ่ม	-14508
เจอไรเซอร์	-14509
▁ตารางเมตร	-14510
▁พระราชินี	-14511
▁ระดับชาติ	-14512
▁ภูมิประเทศ	-14513
▁อารมณ์เสีย	-14514
▁อย่างไรบ้าง	-14515
▁เครื่องปรุงรส	-14516
▁เพิม่ขึน้รอ้ย	-14517
เษ	-14518
.5)	-14519
ERO	-14520
ฝืด	-14521
ี๊ย	-14522
▁Ms	-14523
่าห์	-14524
▁KHZ	-14525
▁กสิ	-14526
▁จ่า	-14527
▁ตัง	-14528
▁พลิ	-14529
มะกอก	-14530
อวกาศ	-14531
ํารับ	-14532
▁Conn	-14533
▁Sign	-14534
▁เล็ค	-14535
ACCATO	-14536
▁Sharp	-14537
▁ทําดี	-14538
▁ผลการ	-14539
▁ฟีฟ่า	-14540
ครอบครอง	-14541
▁ที่ซ่อน	-14542
velopment	-14543
ปฏิกิริยา	-14544
▁STACCATO	-14545
▁สัตว์ป่า	-14546
▁เซนเตอร์	-14547
▁น้ํามันมะกอก	-14548
▁อุทยานแห่งชาติ	-14549
TV	-14550
END	-14551
EST	-14552
Out	-14553
RMS	-14554
VID	-14555
หวะ	-14556
▁+/	-14557
▁Ve	-14558
▁sc	-14559
สมอง	-14560
ไฮโอ	-14561
▁205	-14562
▁Cas	-14563
▁Eco	-14564
▁ล่อ	-14565
▁โหล	-14566
▁(100	-14567
▁1948	-14568
▁ปั้น	-14569
▁เลย์	-14570
มุสลิม	-14571
▁Flower	-14572
▁คาสิโอ	-14573
▁ด้วยดี	-14574
▁โอไฮโอ	-14575
▁ตีเกล็ด	-14576
▁วาฟเฟิล	-14577
▁อย่างใจ	-14578
▁เวียนนา	-14579
▁Cleanser	-14580
▁National	-14581
▁Standard	-14582
▁ชุ่มฉ่ํา	-14583
▁หยุดยั้ง	-14584
▁อุ้มน้ํา	-14585
▁น้ําประปา	-14586
ความสัมพันธ์	-14587
▁สังเกตการณ์	-14588
▁สไปเดอร์แมน	-14589
▁ไม่เช่นนั้น	-14590
AUT	-14591
bel	-14592
bur	-14593
och	-14594
ris	-14595
คือ	-14596
ห่อ	-14597
เษก	-14598
▁/7	-14599
▁ar	-14600
รา้ง	-14601
▁215	-14602
▁410	-14603
▁ROM	-14604
▁SUL	-14605
▁1.25	-14606
▁3000	-14607
▁Ever	-14608
▁Form	-14609
▁Wood	-14610
▁โท้ท	-14611
สวรรค์	-14612
▁CLEAN	-14613
▁Elite	-14614
▁WATCH	-14615
▁คอนโด	-14616
▁ซาวด์	-14617
▁บุฟเฟ	-14618
▁หอพัก	-14619
ถือหุ้น	-14620
▁Facial	-14621
▁SABINA	-14622
▁United	-14623
▁การค้น	-14624
▁ความเส	-14625
▁ถึงกับ	-14626
▁พวกคุณ	-14627
▁พัมคิน	-14628
▁อุ่นใจ	-14629
▁เข้าหา	-14630
▁ใบเสนอ	-14631
▁ถกเถียง	-14632
▁อิสรภาพ	-14633
▁Warranty	-14634
▁ล่องเรือ	-14635
เชื้อเพลิง	-14636
▁ชาวมุสลิม	-14637
▁สหพันธรัฐ	-14638
▁เอกสิทธิ์	-14639
▁คะแนนเสียง	-14640
▁ใบเสนอราคา	-14641
▁ซัพพลายเออร์	-14642
▁มอยส์เจอไรเซอร์	-14643
ei	-14644
ปิ	-14645
ipp	-14646
ral	-14647
วํา	-14648
ิชา	-14649
▁FA	-14650
▁Iv	-14651
▁๎ง	-14652
WORK	-14653
ones	-14654
ราชา	-14655
ิลส์	-14656
▁ขาก	-14657
▁ชอป	-14658
▁เชอ	-14659
prise	-14660
ระบาด	-14661
▁Acer	-14662
▁LADA	-14663
▁Mega	-14664
▁PROT	-14665
▁ดอร์	-14666
▁ทนไฟ	-14667
▁ส่าย	-14668
▁เบรด	-14669
▁กลั่น	-14670
▁เกิ้ล	-14671
▁เคียว	-14672
▁Center	-14673
▁Medium	-14674
▁adidas	-14675
▁การสืบ	-14676
▁ร้องขอ	-14677
▁ชั่วขณะ	-14678
▁ไอศครีม	-14679
▁Charcoal	-14680
▁ผู้สร้าง	-14681
▁เดนเวอร์	-14682
▁ประสานงาน	-14683
▁การพาณิชย์	-14684
▁ทํางานหนัก	-14685
▁ผู้ถือหุ้น	-14686
▁ทิศตะวันออก	-14687
▁เกลี้ยงเกลา	-14688
lo	-14689
ณั	-14690
ณัฑ	-14691
ปูน	-14692
ล่ะ	-14693
ั่ม	-14694
▁GI	-14695
▁ศิ	-14696
▁สค	-14697
▁โธ	-14698
????	-14699
ASOO	-14700
ONOM	-14701
omic	-14702
omin	-14703
ซอว์	-14704
▁Cos	-14705
▁Dav	-14706
▁UVA	-14707
▁usb	-14708
▁ชาล	-14709
▁ทาย	-14710
▁พาด	-14711
คอล์น	-14712
บบิ้น	-14713
▁):20	-14714
▁11.6	-14715
▁26.2	-14716
▁Club	-14717
▁Engl	-14718
▁Spec	-14719
▁ดีละ	-14720
▁ล๊อค	-14721
WHASOO	-14722
สินไหม	-14723
สํานัก	-14724
ี่เง่า	-14725
เกลียว	-14726
▁ขีึน้	-14727
▁ทันใด	-14728
▁Oyster	-14729
▁ทศนิยม	-14730
▁ไหนล่ะ	-14731
▁ฝึกซ้อม	-14732
▁เป็นแนว	-14733
▁Metallic	-14734
▁ค่าสินไหม	-14735
พ์	-14736
fit	-14737
inc	-14738
▁OH	-14739
bert	-14740
ider	-14741
ille	-14742
tics	-14743
unch	-14744
จําย	-14745
ลดลง	-14746
ัทธา	-14747
▁480	-14748
▁BUR	-14749
▁Dec	-14750
▁ตุล	-14751
▁สต์	-14752
▁สูด	-14753
IRECT	-14754
ellow	-14755
etter	-14756
▁17.0	-14757
▁BRIT	-14758
▁YEAR	-14759
▁สม่า	-14760
▁ไอที	-14761
ension	-14762
ilette	-14763
ําร้อง	-14764
ถิ่นฐาน	-14765
▁ตัดกัน	-14766
▁น่าตื่น	-14767
▁เด็กสาว	-14768
▁แช่น้ํา	-14769
สีน้ํามัน	-14770
▁ยุทธวิธี	-14771
▁หนักแน่น	-14772
▁เด็กน้อย	-14773
▁SULWHASOO	-14774
▁นักออกแบบ	-14775
▁Sportswear	-14776
▁น่าตื่นตาตื่นใจ	-14777
▁เครื่องเล่นซีดี	-14778
ถู	-14779
bar	-14780
ird	-14781
พูน	-14782
▁?"	-14783
http	-14784
หลาน	-14785
▁CPU	-14786
▁กาน	-14787
▁อแด	-14788
CTION	-14789
INTER	-14790
มัธยม	-14791
▁1940	-14792
▁1968	-14793
▁Seam	-14794
▁แพ็ก	-14795
reenom	-14796
ิบุคคล	-14797
▁การณ์	-14798
▁เจตนา	-14799
▁ปราการ	-14800
▁ผู้ว่า	-14801
▁รากฐาน	-14802
▁Network	-14803
▁การสั่น	-14804
▁ข้างใต้	-14805
▁นิกเกิล	-14806
▁ฮับเบิล	-14807
▁กาแฟร้อน	-14808
▁นิติบุคคล	-14809
▁หลอดเลือด	-14810
▁ลดน้ําหนัก	-14811
▁อ้างสิทธิ์	-14812
▁เข้าเครื่อง	-14813
▁ภาพสีน้ํามัน	-14814
▁ในทางปฏิบัติ	-14815
1)	-14816
ILI	-14817
LEX	-14818
igo	-14819
ora	-14820
way	-14821
บุก	-14822
พรม	-14823
▁JE	-14824
▁รฟ	-14825
arth	-14826
orth	-14827
ross	-14828
ติมี	-14829
ละไม	-14830
▁925	-14831
▁IPS	-14832
riend	-14833
รอยด์	-14834
อเรีย	-14835
▁):15	-14836
▁13.8	-14837
▁ซึ้ง	-14838
▁ม็อป	-14839
▁หลวง	-14840
▁เก็ง	-14841
▁เจีย	-14842
▁แท็ก	-14843
urance	-14844
านุภาพ	-14845
เฮ้าส์	-14846
▁Court	-14847
▁Intel	-14848
▁Linux	-14849
กลับกัน	-14850
ประชาชน	-14851
▁......	-14852
▁Tablet	-14853
▁ซ้อมรบ	-14854
▁ทําตัว	-14855
▁น้ําชา	-14856
ติมีเดีย	-14857
▁ปิดกั้น	-14858
▁เช่นเคย	-14859
▁เทอร์โบ	-14860
▁ไม้กวาด	-14861
▁ขออนุญาต	-14862
▁ฮอลลีวูด	-14863
▁เดินหน้า	-14864
▁เป็นปกติ	-14865
▁เป็นอยู่	-14866
▁แบตเตอรี	-14867
▁การกํากับ	-14868
▁คณะทํางาน	-14869
▁เจอร์ซีย์	-14870
▁เปียกชื้น	-14871
▁ผู้ก่อตั้ง	-14872
▁มัลติมีเดีย	-14873
▁ค่าสินไหมทดแทน	-14874
▁ความเป็นผู้หญิง	-14875
ZE	-14876
opp	-14877
คาท	-14878
ริย	-14879
ุลก	-14880
▁AJ	-14881
▁BS	-14882
PACK	-14883
ชั่ว	-14884
ร้าว	-14885
สลัก	-14886
เบย์	-14887
เฟือ	-14888
▁(19	-14889
▁Fro	-14890
▁Sal	-14891
▁VGA	-14892
▁ind	-14893
▁ซาบ	-14894
▁ซีแ	-14895
▁ปี้	-14896
ตุรัส	-14897
บางที	-14898
เนียบ	-14899
▁...(	-14900
▁9001	-14901
▁Aqua	-14902
▁DISC	-14903
▁เป็ป	-14904
asmine	-14905
กเกอร์	-14906
ขาวิชา	-14907
▁James	-14908
▁หอคอย	-14909
คาทอลิก	-14910
เท่าที่	-14911
▁ถูกจับ	-14912
▁ไร้ขีด	-14913
▁ริบบิ้น	-14914
▁แอลซีดี	-14915
▁ได้เวลา	-14916
▁ทดลองใช้	-14917
▁นักดนตรี	-14918
▁น้ําทะเล	-14919
▁สาขาวิชา	-14920
▁ส่วนล่าง	-14921
▁หนักหน่วง	-14922
▁เสียงร้อง	-14923
▁Enterprise	-14924
▁โรมันคาทอลิก	-14925
▁ไร้ขีดจํากัด	-14926
▁ความยากลําบาก	-14927
isk	-14928
ทอน	-14929
่าม	-14930
นิ่ม	-14931
▁PAR	-14932
▁คอง	-14933
▁คีบ	-14934
▁จูน	-14935
▁ดาน	-14936
▁นท์	-14937
▁นัล	-14938
▁ใหญ	-14939
WHITE	-14940
▁2579	-14941
▁Merc	-14942
▁SABO	-14943
▁จิ๋ว	-14944
▁ถ้อย	-14945
▁ลนัท	-14946
▁Magic	-14947
▁การัน	-14948
▁ดีงาม	-14949
▁France	-14950
▁Marvel	-14951
▁ขัดเงา	-14952
▁รับใช้	-14953
▁อัลลอย	-14954
▁ค็อกเทล	-14955
▁สาวน้อย	-14956
▁เข้าชุด	-14957
▁เปรี้ยว	-14958
▁ความพอดี	-14959
▁จิ๊กซอว์	-14960
▁นุ่มนิ่ม	-14961
▁ออกอากาศ	-14962
▁เชื้อสาย	-14963
▁การบรรยาย	-14964
▁หนังสือเดินทาง	-14965
EP	-14966
):4	-14967
rix	-14968
คอบ	-14969
ดาร	-14970
แคร	-14971
▁HI	-14972
▁WB	-14973
วัตร	-14974
▁""_	-14975
▁ถี่	-14976
▁ร่อ	-14977
▁สมี	-14978
▁เชค	-14979
STYLE	-14980
หารือ	-14981
▁2539	-14982
▁ล็อต	-14983
▁ศิลป	-14984
ภูมิใจ	-14985
▁Sleep	-14986
▁kindle	-14987
▁กู้ภัย	-14988
▁รับมอบ	-14989
▁Toshiba	-14990
▁ขุดเจาะ	-14991
▁ซ้ําซาก	-14992
▁ฟิวชั่น	-14993
▁เป็นสาว	-14994
▁ใช๎จําย	-14995
▁ให้โอกาส	-14996
▁ครั้งหลัง	-14997
▁ส่วนเสริม	-14998
▁อินฟราเรด	-14999
▁ความสง่างาม	-15000
๊ง	-15001
▁è	-15002
""-	-15003
.10	-15004
KIN	-15005
กวด	-15006
▁LU	-15007
▁Sa	-15008
ELLO	-15009
oxic	-15010
ควัน	-15011
สาลี	-15012
เซ็ต	-15013
เบิก	-15014
้านม	-15015
▁:12	-15016
▁FHD	-15017
▁TOM	-15018
▁จอม	-15019
▁นที	-15020
▁หุบ	-15021
▁เฟอ	-15022
▁เล่	-15023
▁Euro	-15024
▁ชงชา	-15025
▁ซอร์	-15026
▁อะคร	-15027
อารมณ์	-15028
เปลือง	-15029
▁Glass	-15030
▁คร่าว	-15031
คําสั่ง	-15032
▁Almond	-15033
▁เต้านม	-15034
▁COOLING	-15035
▁ยามเช้า	-15036
▁ร่าเริง	-15037
▁อิมพอร์ท	-15038
ระบายอากาศ	-15039
▁ชื่อเสียง	-15040
▁แล้วเสร็จ	-15041
▁การค้นคว้า	-15042
▁ตลาดแรงงาน	-15043
▁ธุรกิจขนาด	-15044
▁บุคคลภายนอก	-15045
▁ความเกี่ยวข้อง	-15046
FO	-15047
ML	-15048
bl	-15049
หุ	-15050
AGE	-15051
ico	-15052
jet	-15053
กวี	-15054
▁ถา	-15055
AWEI	-15056
ิลิก	-15057
เล็บ	-15058
▁920	-15059
▁RNA	-15060
▁UNA	-15061
▁cup	-15062
▁แรม	-15063
▁1945	-15064
▁1956	-15065
▁5000	-15066
▁Step	-15067
▁TIME	-15068
▁ipod	-15069
รูปแบบ	-15070
ุลกากร	-15071
▁Focus	-15072
▁Renew	-15073
▁ราตรี	-15074
▁ยอดรวม	-15075
▁รอบคอบ	-15076
▁เบรนท์	-15077
▁Compact	-15078
▁Thunder	-15079
▁เดินป่า	-15080
▁กล่าวคือ	-15081
▁ช่วยดูแล	-15082
▁ดอลล่าห์	-15083
▁ล้างน้ํา	-15084
▁อะคริลิก	-15085
▁แอตแลนติก	-15086
▁หลังจากนี้	-15087
▁การปลดปล่อย	-15088
▁สถาบันวิจัย	-15089
ั้	-15090
ETH	-15091
สวย	-15092
▁,"	-15093
▁06	-15094
▁FT	-15095
▁ซึ	-15096
PLAY	-15097
UMPH	-15098
ชน่า	-15099
▁(6)	-15100
▁/24	-15101
▁510	-15102
▁916	-15103
▁car	-15104
▁บู๊	-15105
▁รูม	-15106
▁ลุง	-15107
izing	-15108
ชําระ	-15109
สายชู	-15110
▁12.1	-15111
▁เบ็ด	-15112
ancing	-15113
าร์บอน	-15114
▁ไชน่า	-15115
▁Action	-15116
▁Bubble	-15117
▁Colour	-15118
▁REMOTE	-15119
▁iphone	-15120
▁ตลอดปี	-15121
หนุ่มสาว	-15122
▁CENTRAL	-15123
▁Freenom	-15124
▁TRIUMPH	-15125
▁จดสิทธิ	-15126
▁ท่วงท่า	-15127
▁ส่วนหัว	-15128
Universal	-15129
▁Seamless	-15130
▁ทําเนียบ	-15131
▁สกัดกั้น	-15132
▁บันทึกภาพ	-15133
▁เท่าที่ควร	-15134
▁จดสิทธิบัตร	-15135
▁สํานักพิมพ์	-15136
▁น้ําส้มสายชู	-15137
▁ตะวันตกเฉียงใต้	-15138
ba	-15139
▁ษ	-15140
ARP	-15141
DDR	-15142
avi	-15143
cer	-15144
osa	-15145
ผืน	-15146
ฟี่	-15147
หู่	-15148
ารุ	-15149
▁EA	-15150
▁Vi	-15151
band	-15152
ides	-15153
lect	-15154
mail	-15155
tish	-15156
▁155	-15157
▁Lab	-15158
▁TOS	-15159
▁งีบ	-15160
▁ยัน	-15161
▁เอะ	-15162
▁ๆคน	-15163
▁ROSE	-15164
▁วงศ์	-15165
▁ไนท์	-15166
▁ไมด์	-15167
ผืนผ้า	-15168
ไร้สาย	-15169
▁Japan	-15170
▁WORTH	-15171
▁คอร์น	-15172
▁อุทิศ	-15173
▁กินที่	-15174
▁ไพเราะ	-15175
ทางอากาศ	-15176
▁ช่องแคบ	-15177
▁รอบข้าง	-15178
▁เป็นต่อ	-15179
propylene	-15180
▁ชาวประมง	-15181
▁เก็บความ	-15182
สามเหลี่ยม	-15183
▁ดับเบิลยู	-15184
▁บางประการ	-15185
▁รุ่งเรือง	-15186
ครั้งที่หนึ่ง	-15187
▁โทรศัพท์ไร้สาย	-15188
94	-15189
BOY	-15190
cel	-15191
ตัส	-15192
ล์ฟ	-15193
อัพ	-15194
▁AF	-15195
▁AW	-15196
▁Hu	-15197
▁So	-15198
▁km	-15199
▁พจ	-15200
▁–1	-15201
กวิน	-15202
กะสี	-15203
ชิ้น	-15204
ชีส์	-15205
ตลอด	-15206
มเปญ	-15207
หมุน	-15208
ามติ	-15209
▁124	-15210
▁INT	-15211
▁Squ	-15212
▁Ton	-15213
▁แมส	-15214
▁โสม	-15215
▁ไพล	-15216
าร้อย	-15217
▁14.0	-15218
▁1995	-15219
▁2544	-15220
▁Link	-15221
▁Rate	-15222
▁คนดี	-15223
▁ปีศา	-15224
▁มานะ	-15225
▁ยูเร	-15226
▁ไวไฟ	-15227
กระทํา	-15228
เกอรี่	-15229
▁!!!!!	-15230
▁การลด	-15231
▁คันทร	-15232
▁บทกวี	-15233
▁ฟังค์	-15234
▁โลหิต	-15235
avender	-15236
าร้อยละ	-15237
▁สารคดี	-15238
กระเทือน	-15239
▁ซาบซึ้ง	-15240
▁นอกนั้น	-15241
▁สระน้ํา	-15242
▁สังกะสี	-15243
▁หน้าหนึ่ง	-15244
▁บาร์เซโลนา	-15245
▁ในทางกลับกัน	-15246
NY	-15247
ERY	-15248
RNA	-15249
mal	-15250
oose	-15251
roma	-15252
คิ้ว	-15253
ากษ์	-15254
▁ควบ	-15255
▁เฮน	-15256
▁โมร	-15257
▁ปั้ม	-15258
▁ป็อป	-15259
▁INDIA	-15260
▁นิสัย	-15261
▁รองคอ	-15262
▁ลักพา	-15263
▁ําดบั	-15264
▁Spring	-15265
▁สัมมนา	-15266
▁เลื่อย	-15267
▁แคมเปญ	-15268
ท้องถิ่น	-15269
เสียดทาน	-15270
▁BRITISH	-15271
▁Fitting	-15272
▁ซีนีม่า	-15273
▁ทันเวลา	-15274
▁เงินฝืด	-15275
▁แสตนเลส	-15276
▁น่าอร่อย	-15277
▁ป้ายราคา	-15278
วอลเลย์บอล	-15279
▁ความคล้าย	-15280
▁ชีวิตชีวา	-15281
▁เชื้อชาติ	-15282
▁เบี่ยงเบน	-15283
▁ในบางกรณี	-15284
▁อัตราร้อยละ	-15285
▁แรงเสียดทาน	-15286
fi	-15287
ta	-15288
Ind	-15289
bro	-15290
จาง	-15291
เซา	-15292
▁DT	-15293
▁HB	-15294
▁นพ	-15295
ิร์ท	-15296
ไตน์	-15297
▁MIN	-15298
▁Pat	-15299
▁นัม	-15300
▁อธิ	-15301
▁แง่	-15302
Print	-15303
itive	-15304
โบราณ	-15305
▁พรรณ	-15306
▁มีนา	-15307
▁อุ้ง	-15308
▁แจ๊ค	-15309
▁Dolby	-15310
▁Sweet	-15311
▁คนงาน	-15312
▁พิชิต	-15313
สาวรีย์	-15314
สิทธิผล	-15315
▁Safety	-15316
▁พี่สาว	-15317
▁ลุกลาม	-15318
▁SPEAKER	-15319
▁Viscose	-15320
▁การผสาน	-15321
▁ตามนั้น	-15322
▁สถาปนิก	-15323
▁อาหารสด	-15324
▁เย็บแบบ	-15325
▁ก่อนเวลา	-15326
▁ช่วงหลัง	-15327
▁ความยินยอม	-15328
ทุ	-15329
ael	-15330
ets	-15331
hms	-15332
โกร	-15333
▁Cy	-15334
▁SI	-15335
▁WR	-15336
▁mp	-15337
▁งะ	-15338
▁รพ	-15339
▁(18	-15340
▁PRE	-15341
▁UHS	-15342
▁กรุ	-15343
▁ดอง	-15344
▁นัง	-15345
▁มัว	-15346
▁แอ้	-15347
ESTER	-15348
enovo	-15349
ublic	-15350
▁Skec	-15351
▁กาแล	-15352
▁ข่มข	-15353
▁ด้อย	-15354
▁ตะปู	-15355
▁แพร์	-15356
ลําลอง	-15357
▁Beige	-15358
▁Ether	-15359
▁GREEN	-15360
▁Ortho	-15361
▁พจนาน	-15362
▁พอได้	-15363
▁มหาชน	-15364
▁เคร่ง	-15365
AINLESS	-15366
▁สวิทซ์	-15367
▁อัลตรา	-15368
▁เบนซิน	-15369
▁Organic	-15370
▁กระเช้า	-15371
▁ตุลาการ	-15372
▁ธรรมดาๆ	-15373
▁บ้านพัก	-15374
▁เป็นกรด	-15375
▁BIOTHERM	-15376
▁ร้านกาแฟ	-15377
▁ลักพาตัว	-15378
▁วูฟเฟอร์	-15379
▁แชมป์โลก	-15380
▁ชุดลําลอง	-15381
▁ทัศนียภาพ	-15382
▁พจนานุกรม	-15383
▁สิ้นเปลือง	-15384
▁ขั้นสุดท้าย	-15385
▁ขอความช่วยเหลือ	-15386
ARO	-15387
eak	-15388
งัก	-15389
▁07	-15390
▁CC	-15391
▁DP	-15392
▁HW	-15393
เข่า	-15394
▁ซูบ	-15395
VIDIA	-15396
▁12.9	-15397
▁1993	-15398
▁60.0	-15399
▁IPOD	-15400
▁Mich	-15401
▁ตะเก	-15402
▁โซดา	-15403
onatic	-15404
พระราช	-15405
▁First	-15406
▁Hyper	-15407
▁Store	-15408
▁นําพา	-15409
unction	-15410
ัมเปอร์	-15411
▁ออกแรง	-15412
▁การันตี	-15413
▁ปืนใหญ่	-15414
▁เพนกวิน	-15415
▁ร้านหนังสือ	-15416
XY	-15417
be	-15418
we	-15419
้ค	-15420
SPE	-15421
XXL	-15422
รกล	-15423
เนล	-15424
▁Im	-15425
▁LO	-15426
▁en	-15427
ARTS	-15428
STER	-15429
iday	-15430
พิธี	-15431
วนํา	-15432
▁SER	-15433
▁WTI	-15434
▁นัข	-15435
▁อาด	-15436
ience	-15437
กลั่น	-15438
พากษ์	-15439
หย่อน	-15440
เลียง	-15441
เลือน	-15442
้านาย	-15443
▁(15)	-15444
▁15.0	-15445
▁6000	-15446
▁พบปะ	-15447
▁ห้วง	-15448
ations	-15449
▁CLASS	-15450
▁Metal	-15451
▁React	-15452
▁lycra	-15453
▁จราจร	-15454
▁ฝึกฝน	-15455
▁เปรอะ	-15456
ี่ยวนํา	-15457
▁Parfum	-15458
▁จําพวก	-15459
▁ซูบารุ	-15460
▁ตะกั่ว	-15461
▁บ่งชี้	-15462
▁มีเดีย	-15463
▁หินปูน	-15464
iversity	-15465
▁MacBook	-15466
▁coating	-15467
▁กระทั่ง	-15468
▁งานแสดง	-15469
▁อ่อนไหว	-15470
รุ่งเรือง	-15471
เซมเบิร์ก	-15472
เนื้อแข็ง	-15473
▁KEYBOARD	-15474
▁Response	-15475
▁Skechers	-15476
▁เริ่มแรก	-15477
ความมั่นคง	-15478
▁ความคุ้นเคย	-15479
▁ความอ่อนโยน	-15480
▁ฝ่ายสนับสนุน	-15481
▁ไม้เนื้อแข็ง	-15482
-1	-15483
De	-15484
su	-15485
ผลา	-15486
เลจ	-15487
▁VR	-15488
▁ย่	-15489
KINS	-15490
ents	-15491
เตอร	-15492
▁(15	-15493
▁III	-15494
▁จัน	-15495
▁ปรุ	-15496
▁อนิ	-15497
▁โลด	-15498
▁โอะ	-15499
EMORY	-15500
ะล้าง	-15501
▁11.0	-15502
▁13.2	-15503
▁GOLD	-15504
▁Kong	-15505
▁ถวาย	-15506
▁ผู้ล	-15507
▁สรรพ	-15508
▁แพลน	-15509
▁โลว์	-15510
ective	-15511
ทํานอง	-15512
ัยกรรม	-15513
▁ของดี	-15514
▁ปีศาจ	-15515
▁เนี้ย	-15516
องเจลิส	-15517
อนเจลิส	-15518
▁Heater	-15519
▁ดวงดาว	-15520
▁เกษียณ	-15521
▁เจาะจง	-15522
▁เพ้นท์	-15523
▁เรดาร์	-15524
▁โดมิโน	-15525
▁ELEMENT	-15526
▁Station	-15527
▁ของเสีย	-15528
▁น้องชาย	-15529
▁บันเทิง	-15530
▁ย้อนยุค	-15531
▁รูปปั้น	-15532
เพิ่มเติม	-15533
▁การฝึกฝน	-15534
▁ปรุงแต่ง	-15535
▁อิ่มเอิบ	-15536
▁การยกเว้น	-15537
▁ซ่อมบํารุง	-15538
▁ตัวหนังสือ	-15539
▁อนุสาวรีย์	-15540
▁ความตระหนัก	-15541
▁ลอสแอนเจลิส	-15542
▁เรื่องสําคัญ	-15543
▁กระทบกระเทือน	-15544
▁โรงเรียนมัธยม	-15545
OY	-15546
งํา	-15547
สืบ	-15548
็อท	-15549
▁DR	-15550
▁HA	-15551
▁NU	-15552
▁อื	-15553
bolt	-15554
cell	-15555
ธานี	-15556
ัศมี	-15557
▁Ray	-15558
▁ออป	-15559
▁อัศ	-15560
รังสี	-15561
ํารวย	-15562
ําราญ	-15563
▁Dior	-15564
▁จ้อง	-15565
▁ดิ้น	-15566
▁ถ่วง	-15567
▁ทุ่น	-15568
ปีชีส์	-15569
▁Youth	-15570
▁ติดไฟ	-15571
▁ทางบก	-15572
▁Moomin	-15573
▁การงาน	-15574
▁ลมร้อน	-15575
▁สืบทอด	-15576
▁คู่สมรส	-15577
▁เจ้านาย	-15578
▁เส้นตรง	-15579
▁สาธารณชน	-15580
▁ส่วนหน้า	-15581
▁ค่าบํารุง	-15582
▁บุคลิกภาพ	-15583
▁ฟังค์ชั่น	-15584
▁สัตว์น้ํา	-15585
▁สันนิษฐาน	-15586
▁ความคาดหมาย	-15587
▁ลอสแองเจลิส	-15588
▁โปรเจคเตอร์	-15589
ธง	-15590
ORS	-15591
aly	-15592
ola	-15593
ups	-15594
นิว	-15595
gler	-15596
ผลาญ	-15597
๊กซ์	-15598
▁IOS	-15599
▁UHD	-15600
▁ซอย	-15601
▁พริ	-15602
▁พอก	-15603
▁ใหม	-15604
▁BARB	-15605
▁Mbps	-15606
▁Work	-15607
▁หรี่	-15608
▁ฮาโล	-15609
▁เบียน	-15610
▁Carbon	-15611
▁Coated	-15612
▁DESIGN	-15613
▁ECONOM	-15614
▁ลําไส้	-15615
▁นี่แหละ	-15616
▁พยากรณ์	-15617
▁ติดอาวุธ	-15618
▁หน้าเป็น	-15619
[...]
